<unk>	0
<s>	0
</s>	0
▁t	-0
he	-1
▁a	-2
in	-3
▁the	-4
er	-5
on	-6
▁,	-7
re	-8
▁s	-9
ed	-10
▁w	-11
▁o	-12
nd	-13
▁.	-14
at	-15
or	-16
en	-17
it	-18
▁c	-19
▁f	-20
is	-21
es	-22
▁b	-23
ar	-24
▁of	-25
▁in	-26
an	-27
al	-28
ing	-29
▁p	-30
as	-31
▁and	-32
▁to	-33
ro	-34
ic	-35
▁m	-36
▁d	-37
▁h	-38
ion	-39
le	-40
ou	-41
▁\	-42
te	-43
▁re	-44
▁T	-45
▁\"	-46
▁th	-47
il	-48
ent	-49
▁S	-50
▁1	-51
▁A	-52
▁l	-53
▁e	-54
▁@	-55
om	-56
▁n	-57
am	-58
st	-59
el	-60
▁C	-61
▁was	-62
ad	-63
ct	-64
▁M	-65
xt	-66
▁on	-67
ly	-68
▁be	-69
ur	-70
▁g	-71
▁'	-72
id	-73
▁B	-74
ol	-75
im	-76
text	-77
▁{	-78
":	-79
"}	-80
▁"	-81
▁{"	-82
-@	-83
▁@-@	-84
ir	-85
▁for	-86
iv	-87
ig	-88
ce	-89
ter	-90
▁I	-91
▁The	-92
ot	-93
▁as	-94
ow	-95
ch	-96
us	-97
▁H	-98
ith	-99
ay	-100
et	-101
ut	-102
▁2	-103
ver	-104
▁."}	-105
▁he	-106
▁that	-107
▁st	-108
▁with	-109
ra	-110
ation	-111
00	-112
▁P	-113
un	-114
▁wh	-115
▁R	-116
▁D	-117
▁by	-118
▁is	-119
▁al	-120
ul	-121
▁con	-122
th	-123
▁)	-124
▁(	-125
ers	-126
▁at	-127
▁W	-128
▁F	-129
▁N	-130
▁an	-131
▁it	-132
os	-133
▁19	-134
▁G	-135
▁L	-136
la	-137
her	-138
rom	-139
um	-140
▁de	-141
est	-142
▁se	-143
▁his	-144
▁J	-145
ve	-146
01	-147
ri	-148
ge	-149
od	-150
ck	-151
ain	-152
▁from	-153
pe	-154
▁E	-155
▁com	-156
ist	-157
▁pro	-158
ld	-159
res	-160
if	-161
▁v	-162
ere	-163
ies	-164
up	-165
▁O	-166
ore	-167
ew	-168
igh	-169
op	-170
ort	-171
ate	-172
▁were	-173
ber	-174
and	-175
▁r	-176
ich	-177
ard	-178
ill	-179
art	-180
all	-181
se	-182
ment	-183
ak	-184
▁or	-185
ong	-186
qu	-187
gh	-188
ant	-189
ame	-190
ud	-191
▁ch	-192
ated	-193
ity	-194
▁sh	-195
ess	-196
ive	-197
ab	-198
▁had	-199
ap	-200
ip	-201
▁In	-202
▁U	-203
▁ex	-204
▁are	-205
ub	-206
ag	-207
red	-208
▁k	-209
▁which	-210
▁K	-211
und	-212
201	-213
▁le	-214
em	-215
ast	-216
ally	-217
ian	-218
our	-219
▁y	-220
▁not	-221
ear	-222
▁pl	-223
ord	-224
rit	-225
ine	-226
ost	-227
ight	-228
ia	-229
oc	-230
ther	-231
ary	-232
ction	-233
ell	-234
▁3	-235
ust	-236
ave	-237
oun	-238
av	-239
▁St	-240
cc	-241
▁un	-242
▁200	-243
ial	-244
irst	-245
▁inc	-246
▁but	-247
ous	-248
ould	-249
ie	-250
ac	-251
ish	-252
fter	-253
▁Ch	-254
▁comp	-255
so	-256
▁;	-257
▁whe	-258
▁V	-259
ure	-260
ide	-261
▁their	-262
▁first	-263
ue	-264
▁its	-265
ff	-266
▁su	-267
▁ar	-268
▁ro	-269
wo	-270
ical	-271
ok	-272
ign	-273
▁cont	-274
▁us	-275
▁:	-276
pt	-277
ran	-278
▁He	-279
ack	-280
og	-281
ass	-282
hed	-283
ork	-284
▁ab	-285
out	-286
▁her	-287
mer	-288
▁also	-289
ome	-290
ater	-291
▁ad	-292
ition	-293
2013	-294
port	-295
▁int	-296
ru	-297
per	-298
ire	-299
own	-300
ime	-301
orm	-302
ond	-303
▁18	-304
The	-305
▁4	-306
▁one	-307
ree	-308
ry	-309
▁have	-310
▁rec	-311
▁who	-312
du	-313
▁per	-314
low	-315
.@	-316
▁@.@	-317
age	-318
▁ap	-319
▁res	-320
▁5	-321
ced	-322
▁been	-323
ile	-324
▁Th	-325
▁has	-326
ugh	-327
▁two	-328
▁sc	-329
ough	-330
▁cl	-331
iz	-332
ence	-333
uring	-334
ult	-335
▁this	-336
▁bec	-337
act	-338
▁dis	-339
▁year	-340
land	-341
,@	-342
▁@,@	-343
▁ag	-344
▁te	-345
ect	-346
▁over	-347
▁en	-348
ov	-349
▁part	-350
▁j	-351
▁ser	-352
▁play	-353
ric	-354
lud	-355
▁It	-356
▁des	-357
ations	-358
▁off	-359
▁up	-360
ke	-361
ted	-362
▁man	-363
tem	-364
over	-365
ory	-366
▁they	-367
ound	-368
▁other	-369
ely	-370
ice	-371
sion	-372
ade	-373
ach	-374
▁after	-375
ren	-376
pl	-377
▁201	-378
ep	-379
wn	-380
▁out	-381
ib	-382
▁im	-383
▁Al	-384
▁ne	-385
ance	-386
urn	-387
ark	-388
▁includ	-389
ite	-390
▁Y	-391
▁time	-392
▁sp	-393
ount	-394
▁pre	-395
▁him	-396
we	-397
▁would	-398
▁into	-399
ces	-400
▁spe	-401
▁6	-402
▁we	-403
man	-404
▁Un	-405
ind	-406
oin	-407
vel	-408
ward	-409
▁ev	-410
rough	-411
ased	-412
ates	-413
ited	-414
les	-415
ph	-416
▁comm	-417
ied	-418
▁more	-419
ings	-420
one	-421
▁she	-422
ang	-423
ors	-424
▁inter	-425
▁all	-426
ts	-427
ase	-428
▁ra	-429
amp	-430
▁tra	-431
ove	-432
ood	-433
ild	-434
able	-435
ason	-436
are	-437
ens	-438
ered	-439
rib	-440
old	-441
ys	-442
▁7	-443
▁work	-444
ne	-445
ress	-446
▁bet	-447
form	-448
▁game	-449
ail	-450
▁new	-451
ubl	-452
▁fe	-453
▁when	-454
ose	-455
vi	-456
way	-457
ions	-458
fer	-459
ft	-460
▁me	-461
▁sec	-462
▁8	-463
▁cent	-464
reat	-465
inal	-466
▁rem	-467
ved	-468
▁und	-469
gan	-470
ron	-471
oy	-472
▁them	-473
ick	-474
▁gro	-475
ween	-476
att	-477
▁most	-478
▁song	-479
aus	-480
▁can	-481
▁9	-482
▁only	-483
ake	-484
▁during	-485
cted	-486
orth	-487
▁sup	-488
▁ear	-489
▁Mar	-490
oth	-491
ollow	-492
▁than	-493
▁cons	-494
▁kn	-495
▁about	-496
▁between	-497
▁op	-498
▁An	-499
ons	-500
ath	-501
▁again	-502
▁produ	-503
ents	-504
ilm	-505
▁199	-506
▁dec	-507
▁char	-508
▁New	-509
▁later	-510
▁three	-511
▁under	-512
als	-513
▁col	-514
fore	-515
ec	-516
hip	-517
▁00	-518
▁bu	-519
ock	-520
▁through	-521
aw	-522
ational	-523
ss	-524
ict	-525
▁ret	-526
ever	-527
ook	-528
▁season	-529
tern	-530
ug	-531
▁qu	-532
outh	-533
ton	-534
▁num	-535
▁rele	-536
ob	-537
ning	-538
▁ver	-539
▁end	-540
▁so	-541
In	-542
ans	-543
ix	-544
orld	-545
▁rel	-546
ames	-547
▁acc	-548
▁while	-549
meric	-550
▁record	-551
▁pos	-552
▁Americ	-553
ished	-554
▁att	-555
ular	-556
ating	-557
bum	-558
▁writ	-559
▁Ar	-560
ener	-561
▁sub	-562
ll	-563
▁made	-564
ived	-565
▁pe	-566
▁where	-567
▁reg	-568
▁spec	-569
▁rep	-570
▁form	-571
▁Com	-572
▁ep	-573
▁day	-574
▁000	-575
▁film	-576
▁such	-577
▁ele	-578
ision	-579
▁De	-580
▁act	-581
▁En	-582
aid	-583
oh	-584
ool	-585
▁follow	-586
▁am	-587
ral	-588
▁publ	-589
▁second	-590
io	-591
▁there	-592
▁no	-593
▁some	-594
round	-595
▁call	-596
▁four	-597
hes	-598
▁lar	-599
ike	-600
▁album	-601
▁used	-602
▁mus	-603
▁/	-604
ics	-605
▁ac	-606
ode	-607
iel	-608
▁before	-609
hen	-610
end	-611
▁ass	-612
mber	-613
ific	-614
▁years	-615
▁ind	-616
▁fl	-617
ters	-618
▁This	-619
ars	-620
▁epis	-621
▁Le	-622
ace	-623
▁def	-624
▁ent	-625
▁app	-626
ident	-627
ily	-628
▁being	-629
ins	-630
ual	-631
owever	-632
ury	-633
orn	-634
▁do	-635
rans	-636
▁pr	-637
▁high	-638
▁sur	-639
rop	-640
▁17	-641
▁On	-642
▁exp	-643
▁appe	-644
▁set	-645
▁then	-646
ious	-647
ten	-648
▁10	-649
▁At	-650
▁loc	-651
▁Re	-652
▁pla	-653
▁pres	-654
aj	-655
ram	-656
ments	-657
▁number	-658
ale	-659
ines	-660
ank	-661
▁series	-662
other	-663
ather	-664
▁found	-665
rad	-666
▁As	-667
ince	-668
ise	-669
ised	-670
▁show	-671
velop	-672
▁charact	-673
▁Brit	-674
▁sever	-675
iver	-676
tain	-677
▁became	-678
▁well	-679
ause	-680
▁inv	-681
▁0	-682
▁sing	-683
ek	-684
▁against	-685
▁add	-686
▁both	-687
ject	-688
ird	-689
▁Sh	-690
▁co	-691
ities	-692
▁team	-693
▁ins	-694
▁rece	-695
▁including	-696
ane	-697
▁United	-698
2014	-699
ven	-700
▁12	-701
▁back	-702
ife	-703
son	-704
ower	-705
any	-706
▁mem	-707
its	-708
▁198	-709
▁mon	-710
▁main	-711
pr	-712
ik	-713
ired	-714
ures	-715
▁long	-716
▁cap	-717
enn	-718
air	-719
ield	-720
iet	-721
pos	-722
▁bro	-723
ober	-724
▁trans	-725
led	-726
▁episode	-727
▁em	-728
▁did	-729
▁pol	-730
ivers	-731
ting	-732
▁cre	-733
tend	-734
▁go	-735
though	-736
▁develop	-737
▁orig	-738
overn	-739
ative	-740
▁known	-741
ier	-742
▁met	-743
▁many	-744
ful	-745
▁perform	-746
▁Joh	-747
▁16	-748
▁194	-749
▁lead	-750
ann	-751
▁comple	-752
iss	-753
elf	-754
olog	-755
▁She	-756
▁could	-757
▁dire	-758
▁min	-759
▁15	-760
▁sm	-761
▁Ind	-762
uch	-763
▁ship	-764
ern	-765
▁desc	-766
ute	-767
▁stud	-768
ually	-769
▁ob	-770
ey	-771
til	-772
▁Eng	-773
ped	-774
view	-775
▁said	-776
▁est	-777
▁mill	-778
der	-779
ized	-780
▁contin	-781
▁air	-782
ley	-783
▁several	-784
▁ter	-785
▁dif	-786
▁pop	-787
▁called	-788
ross	-789
▁American	-790
▁John	-791
▁remain	-792
▁197	-793
▁Z	-794
my	-795
▁car	-796
▁conc	-797
az	-798
▁11	-799
▁any	-800
▁war	-801
▁Sc	-802
▁dist	-803
▁began	-804
oot	-805
ued	-806
imes	-807
ouse	-808
▁design	-809
ash	-810
ccess	-811
▁196	-812
▁disc	-813
▁near	-814
▁Wh	-815
ople	-816
▁return	-817
▁crit	-818
aking	-819
chool	-820
▁down	-821
ined	-822
ium	-823
une	-824
▁bel	-825
ided	-826
▁sign	-827
rid	-828
▁prov	-829
▁run	-830
stru	-831
▁gener	-832
▁pass	-833
▁may	-834
▁until	-835
ty	-836
ah	-837
▁War	-838
▁early	-839
▁feat	-840
▁eff	-841
▁use	-842
▁released	-843
▁Car	-844
▁May	-845
iam	-846
▁describ	-847
▁own	-848
▁music	-849
▁offic	-850
▁Con	-851
cept	-852
▁these	-853
▁inf	-854
ially	-855
▁sim	-856
ared	-857
▁mat	-858
▁British	-859
▁open	-860
▁group	-861
▁Sp	-862
▁same	-863
▁along	-864
ured	-865
▁fin	-866
ull	-867
ism	-868
▁art	-869
▁20	-870
▁start	-871
bers	-872
▁fam	-873
▁ph	-874
ajor	-875
ists	-876
▁After	-877
▁Col	-878
▁mov	-879
els	-880
▁poin	-881
ible	-882
erv	-883
uc	-884
amed	-885
▁mil	-886
▁po	-887
▁govern	-888
▁occ	-889
▁state	-890
gg	-891
▁195	-892
ution	-893
ission	-894
▁though	-895
ange	-896
▁Aust	-897
▁success	-898
ystem	-899
▁million	-900
▁land	-901
▁imp	-902
▁Sep	-903
▁vi	-904
▁build	-905
▁people	-906
▁bl	-907
▁oper	-908
▁century	-909
▁like	-910
▁hist	-911
▁character	-912
▁13	-913
ctions	-914
ina	-915
erson	-916
▁because	-917
ink	-918
tember	-919
▁each	-920
▁count	-921
▁city	-922
▁September	-923
ets	-924
▁gu	-925
erman	-926
▁World	-927
▁Is	-928
▁Aug	-929
ble	-930
ger	-931
▁ext	-932
▁mod	-933
▁around	-934
ves	-935
anc	-936
▁August	-937
▁win	-938
▁ever	-939
▁small	-940
▁States	-941
▁consid	-942
▁km	-943
▁193	-944
▁Ju	-945
ris	-946
eb	-947
▁following	-948
vent	-949
▁dep	-950
▁ed	-951
▁Fran	-952
▁They	-953
▁support	-954
▁north	-955
▁area	-956
▁$	-957
▁Ad	-958
▁14	-959
▁report	-960
urch	-961
rist	-962
▁191	-963
▁Can	-964
ged	-965
pect	-966
▁var	-967
aving	-968
▁US	-969
▁will	-970
▁\""}	-971
▁received	-972
wards	-973
▁head	-974
ues	-975
ym	-976
▁five	-977
▁public	-978
▁result	-979
ilt	-980
▁took	-981
▁aut	-982
▁Cl	-983
▁Se	-984
▁However	-985
▁prom	-986
▁Te	-987
ales	-988
tle	-989
ording	-990
▁bo	-991
lack	-992
med	-993
▁Oct	-994
▁final	-995
▁partic	-996
iving	-997
ants	-998
▁ann	-999
ives	-1000
▁For	-1001
▁attack	-1002
ored	-1003
▁]	-1004
▁October	-1005
▁Q	-1006
▁%	-1007
ple	-1008
ately	-1009
▁conf	-1010
▁June	-1011
oss	-1012
ility	-1013
▁large	-1014
▁tri	-1015
rote	-1016
▁major	-1017
▁German	-1018
▁[	-1019
▁since	-1020
get	-1021
ball	-1022
▁class	-1023
ner	-1024
ax	-1025
▁week	-1026
raft	-1027
▁Jan	-1028
▁North	-1029
▁Me	-1030
▁book	-1031
▁system	-1032
▁Be	-1033
▁contro	-1034
▁All	-1035
ural	-1036
▁ref	-1037
▁single	-1038
▁July	-1039
▁batt	-1040
gin	-1041
▁Comm	-1042
▁mar	-1043
▁York	-1044
uary	-1045
ently	-1046
▁Austral	-1047
▁left	-1048
yl	-1049
pril	-1050
ract	-1051
▁old	-1052
▁world	-1053
▁allow	-1054
▁April	-1055
ene	-1056
▁serv	-1057
uro	-1058
▁Mc	-1059
ms	-1060
▁str	-1061
ovember	-1062
▁line	-1063
ively	-1064
▁November	-1065
▁camp	-1066
ians	-1067
▁hel	-1068
▁just	-1069
▁rest	-1070
ides	-1071
raph	-1072
ling	-1073
▁last	-1074
▁tit	-1075
row	-1076
por	-1077
ats	-1078
▁med	-1079
▁South	-1080
..	-1081
▁played	-1082
▁described	-1083
▁what	-1084
▁due	-1085
▁incre	-1086
ctor	-1087
ret	-1088
ps	-1089
▁if	-1090
ified	-1091
▁March	-1092
▁school	-1093
ital	-1094
▁25	-1095
cess	-1096
laim	-1097
▁ty	-1098
ague	-1099
▁wrote	-1100
▁Ph	-1101
▁short	-1102
▁much	-1103
▁Pl	-1104
abl	-1105
▁another	-1106
▁place	-1107
ody	-1108
vious	-1109
ically	-1110
▁differ	-1111
▁30	-1112
▁vis	-1113
ont	-1114
▁life	-1115
▁based	-1116
omet	-1117
▁six	-1118
▁month	-1119
▁government	-1120
▁prog	-1121
▁band	-1122
▁King	-1123
▁name	-1124
▁January	-1125
▁review	-1126
rand	-1127
▁Her	-1128
yn	-1129
ient	-1130
▁...	-1131
▁now	-1132
oman	-1133
▁requ	-1134
▁appear	-1135
▁species	-1136
▁track	-1137
▁south	-1138
▁power	-1139
▁version	-1140
▁Man	-1141
▁adv	-1142
▁tr	-1143
hest	-1144
▁Ste	-1145
ideo	-1146
▁Dece	-1147
▁appro	-1148
▁poss	-1149
apan	-1150
ring	-1151
ilar	-1152
ional	-1153
▁lit	-1154
▁December	-1155
▁named	-1156
▁dr	-1157
▁death	-1158
▁story	-1159
▁top	-1160
▁Japan	-1161
▁third	-1162
▁Bro	-1163
▁port	-1164
▁Gu	-1165
▁constru	-1166
▁dam	-1167
tempt	-1168
▁built	-1169
▁games	-1170
▁II	-1171
▁bre	-1172
▁stru	-1173
ched	-1174
▁care	-1175
▁included	-1176
▁event	-1177
▁Christ	-1178
rent	-1179
▁way	-1180
▁Pro	-1181
▁home	-1182
▁family	-1183
▁won	-1184
rew	-1185
iversity	-1186
▁original	-1187
▁turn	-1188
alf	-1189
urther	-1190
eng	-1191
▁attempt	-1192
▁town	-1193
▁belie	-1194
▁par	-1195
avy	-1196
ience	-1197
min	-1198
▁Min	-1199
▁right	-1200
▁within	-1201
▁Har	-1202
▁resp	-1203
iod	-1204
▁colle	-1205
▁Euro	-1206
by	-1207
ister	-1208
▁establ	-1209
▁previous	-1210
▁even	-1211
▁make	-1212
cy	-1213
▁hand	-1214
ridge	-1215
▁child	-1216
▁kill	-1217
▁led	-1218
▁very	-1219
▁person	-1220
▁although	-1221
▁still	-1222
▁view	-1223
▁late	-1224
▁best	-1225
▁dem	-1226
▁mark	-1227
omin	-1228
rench	-1229
▁inst	-1230
▁100	-1231
▁real	-1232
▁effect	-1233
▁ste	-1234
▁organ	-1235
▁eng	-1236
rig	-1237
riend	-1238
ham	-1239
▁sold	-1240
▁His	-1241
akes	-1242
▁192	-1243
▁Ed	-1244
▁those	-1245
lu	-1246
▁gun	-1247
▁mag	-1248
ert	-1249
▁iss	-1250
▁list	-1251
iven	-1252
ature	-1253
cl	-1254
▁Pe	-1255
ense	-1256
ior	-1257
▁storm	-1258
ivision	-1259
ulation	-1260
▁command	-1261
▁Pr	-1262
pend	-1263
alk	-1264
▁Par	-1265
▁Ro	-1266
hel	-1267
▁Will	-1268
▁great	-1269
illa	-1270
▁deb	-1271
ness	-1272
ached	-1273
▁&	-1274
▁es	-1275
▁men	-1276
▁sk	-1277
▁hum	-1278
▁exper	-1279
ards	-1280
itions	-1281
▁Europe	-1282
▁next	-1283
▁leg	-1284
ropical	-1285
ney	-1286
▁period	-1287
ages	-1288
▁cur	-1289
▁2010	-1290
▁video	-1291
af	-1292
▁French	-1293
▁role	-1294
tended	-1295
▁former	-1296
itary	-1297
▁addition	-1298
inc	-1299
reen	-1300
▁Ge	-1301
▁National	-1302
ival	-1303
ances	-1304
▁We	-1305
▁similar	-1306
▁cour	-1307
ls	-1308
uted	-1309
▁dest	-1310
ole	-1311
▁When	-1312
oci	-1313
▁init	-1314
idd	-1315
▁polit	-1316
▁River	-1317
ences	-1318
lev	-1319
▁present	-1320
▁Canad	-1321
aken	-1322
ories	-1323
▁held	-1324
▁days	-1325
self	-1326
▁caus	-1327
▁members	-1328
▁By	-1329
▁came	-1330
elt	-1331
▁And	-1332
▁Mich	-1333
atic	-1334
ried	-1335
▁water	-1336
▁dra	-1337
▁few	-1338
▁often	-1339
hor	-1340
▁fre	-1341
ays	-1342
aster	-1343
▁player	-1344
▁21	-1345
ebru	-1346
▁considered	-1347
au	-1348
▁you	-1349
▁cover	-1350
▁2007	-1351
▁local	-1352
▁tw	-1353
▁stand	-1354
craft	-1355
▁Bo	-1356
▁City	-1357
ebruary	-1358
▁2009	-1359
▁continued	-1360
▁February	-1361
▁2008	-1362
▁claim	-1363
bor	-1364
read	-1365
▁wind	-1366
sh	-1367
side	-1368
▁among	-1369
▁"\	-1370
dom	-1371
▁every	-1372
▁join	-1373
bo	-1374
▁sl	-1375
▁however	-1376
par	-1377
▁No	-1378
que	-1379
▁fun	-1380
aged	-1381
▁del	-1382
ony	-1383
▁West	-1384
▁further	-1385
▁my	-1386
▁sent	-1387
▁without	-1388
▁moved	-1389
pite	-1390
▁different	-1391
▁half	-1392
▁side	-1393
line	-1394
bs	-1395
oon	-1396
▁During	-1397
arn	-1398
ize	-1399
▁Mus	-1400
ott	-1401
▁release	-1402
ering	-1403
ested	-1404
▁post	-1405
▁Count	-1406
▁contain	-1407
▁published	-1408
ese	-1409
▁level	-1410
▁Bl	-1411
▁gr	-1412
urs	-1413
▁equ	-1414
▁order	-1415
▁take	-1416
iety	-1417
▁23	-1418
▁tem	-1419
▁star	-1420
▁There	-1421
▁24	-1422
▁written	-1423
gy	-1424
▁la	-1425
rodu	-1426
ator	-1427
lor	-1428
▁beh	-1429
▁recorded	-1430
▁"\"	-1431
ges	-1432
▁trad	-1433
tal	-1434
▁gen	-1435
▁England	-1436
cer	-1437
estern	-1438
resent	-1439
ae	-1440
ology	-1441
reet	-1442
▁common	-1443
ches	-1444
▁soc	-1445
▁road	-1446
▁Am	-1447
▁gave	-1448
▁foot	-1449
▁av	-1450
ler	-1451
▁sugg	-1452
uss	-1453
▁import	-1454
▁become	-1455
On	-1456
▁cor	-1457
▁point	-1458
▁having	-1459
ops	-1460
▁prof	-1461
▁Cal	-1462
▁arr	-1463
▁fac	-1464
▁clos	-1465
▁ant	-1466
cing	-1467
▁move	-1468
posed	-1469
ices	-1470
▁repla	-1471
▁fore	-1472
▁find	-1473
▁Batt	-1474
▁club	-1475
▁22	-1476
▁far	-1477
ograph	-1478
▁invol	-1479
▁Air	-1480
▁returned	-1481
▁produced	-1482
ots	-1483
▁sol	-1484
▁prote	-1485
▁strong	-1486
ours	-1487
▁2011	-1488
▁never	-1489
levision	-1490
ript	-1491
▁Char	-1492
ention	-1493
chn	-1494
arch	-1495
ining	-1496
atter	-1497
let	-1498
▁cr	-1499
▁chang	-1500
▁less	-1501
▁field	-1502
▁bas	-1503
hem	-1504
▁William	-1505
▁program	-1506
▁particular	-1507
oung	-1508
▁low	-1509
▁influ	-1510
urric	-1511
anted	-1512
▁refer	-1513
ford	-1514
ote	-1515
▁vict	-1516
▁sound	-1517
ai	-1518
▁University	-1519
lish	-1520
▁reported	-1521
▁Gener	-1522
▁building	-1523
▁X	-1524
aying	-1525
ration	-1526
▁commun	-1527
irc	-1528
ests	-1529
▁Park	-1530
astern	-1531
▁house	-1532
▁Ne	-1533
▁friend	-1534
▁origin	-1535
ones	-1536
▁Cent	-1537
▁2012	-1538
▁Lond	-1539
ccording	-1540
app	-1541
▁press	-1542
▁history	-1543
▁ten	-1544
roy	-1545
▁songs	-1546
▁London	-1547
sequ	-1548
▁east	-1549
▁One	-1550
▁plan	-1551
▁include	-1552
lear	-1553
augh	-1554
▁given	-1555
yle	-1556
▁position	-1557
▁military	-1558
▁larg	-1559
▁career	-1560
▁company	-1561
▁good	-1562
eder	-1563
▁English	-1564
iment	-1565
▁read	-1566
▁light	-1567
ream	-1568
tead	-1569
▁west	-1570
ief	-1571
▁26	-1572
▁comb	-1573
ampions	-1574
ape	-1575
▁using	-1576
▁father	-1577
▁stated	-1578
▁project	-1579
▁Or	-1580
▁announ	-1581
aul	-1582
ung	-1583
▁total	-1584
▁nov	-1585
ression	-1586
pec	-1587
▁aff	-1588
▁red	-1589
▁High	-1590
▁critic	-1591
stit	-1592
ailed	-1593
▁rad	-1594
ising	-1595
used	-1596
▁nort	-1597
▁production	-1598
▁how	-1599
▁law	-1600
▁country	-1601
▁hig	-1602
▁went	-1603
▁title	-1604
ably	-1605
omen	-1606
▁obs	-1607
▁ord	-1608
▁2006	-1609
▁somet	-1610
▁noted	-1611
▁need	-1612
aff	-1613
▁Em	-1614
▁)"}	-1615
atch	-1616
▁should	-1617
ront	-1618
aur	-1619
itive	-1620
▁Geor	-1621
outher	-1622
ery	-1623
▁Ex	-1624
▁sit	-1625
▁author	-1626
aign	-1627
▁squ	-1628
▁chart	-1629
▁times	-1630
▁island	-1631
▁Ab	-1632
▁Bar	-1633
▁direct	-1634
▁ft	-1635
▁:"}	-1636
▁Dav	-1637
▁ships	-1638
rem	-1639
▁50	-1640
outhern	-1641
▁ide	-1642
▁Af	-1643
▁ke	-1644
▁28	-1645
▁represent	-1646
▁lim	-1647
▁making	-1648
osp	-1649
▁General	-1650
hing	-1651
ensive	-1652
▁seven	-1653
mit	-1654
▁Co	-1655
utes	-1656
urricane	-1657
▁capt	-1658
▁defe	-1659
▁himself	-1660
▁State	-1661
oyal	-1662
ither	-1663
▁elect	-1664
▁tro	-1665
▁match	-1666
▁fact	-1667
▁expl	-1668
lo	-1669
▁developed	-1670
▁2013	-1671
▁lost	-1672
▁These	-1673
ffic	-1674
amb	-1675
ald	-1676
▁ground	-1677
onn	-1678
▁pra	-1679
▁Cor	-1680
▁across	-1681
▁Sw	-1682
work	-1683
▁190	-1684
▁development	-1685
▁felt	-1686
▁fire	-1687
ploy	-1688
▁189	-1689
▁histor	-1690
▁black	-1691
▁eight	-1692
▁died	-1693
▁With	-1694
▁Although	-1695
▁television	-1696
ping	-1697
▁Per	-1698
▁Ang	-1699
▁El	-1700
▁established	-1701
fic	-1702
▁areas	-1703
hern	-1704
▁control	-1705
▁introdu	-1706
▁America	-1707
▁bus	-1708
▁official	-1709
▁League	-1710
▁signific	-1711
▁29	-1712
ison	-1713
▁aircraft	-1714
▁27	-1715
iness	-1716
▁months	-1717
▁award	-1718
▁Sm	-1719
▁Comp	-1720
▁throughout	-1721
▁fem	-1722
ef	-1723
cast	-1724
▁Division	-1725
▁er	-1726
▁son	-1727
▁techn	-1728
▁popular	-1729
ument	-1730
ained	-1731
▁writing	-1732
co	-1733
ords	-1734
▁white	-1735
▁construction	-1736
▁away	-1737
▁campaign	-1738
▁political	-1739
▁Des	-1740
▁destroy	-1741
▁remained	-1742
ille	-1743
idence	-1744
▁County	-1745
▁Indian	-1746
▁cast	-1747
▁get	-1748
ington	-1749
▁40	-1750
▁children	-1751
▁discover	-1752
ublic	-1753
2019	-1754
▁pat	-1755
▁sum	-1756
▁intern	-1757
▁various	-1758
▁successful	-1759
ways	-1760
▁arch	-1761
most	-1762
field	-1763
▁seen	-1764
rap	-1765
be	-1766
alth	-1767
isted	-1768
▁national	-1769
▁Mon	-1770
▁rank	-1771
▁full	-1772
▁Japanese	-1773
itar	-1774
ries	-1775
▁Sec	-1776
ks	-1777
▁Afric	-1778
▁cross	-1779
▁service	-1780
▁relations	-1781
ana	-1782
▁age	-1783
for	-1784
▁site	-1785
ster	-1786
vers	-1787
▁compet	-1788
less	-1789
int	-1790
ency	-1791
▁characters	-1792
▁sw	-1793
▁val	-1794
▁begin	-1795
ampionship	-1796
▁population	-1797
lect	-1798
▁compos	-1799
ases	-1800
▁Army	-1801
▁night	-1802
▁little	-1803
▁div	-1804
▁let	-1805
▁circ	-1806
com	-1807
▁prim	-1808
▁tour	-1809
▁rese	-1810
▁struct	-1811
▁anim	-1812
▁tropical	-1813
▁see	-1814
▁base	-1815
imately	-1816
ox	-1817
ressed	-1818
iber	-1819
▁mid	-1820
▁station	-1821
▁too	-1822
▁Jack	-1823
▁reached	-1824
▁started	-1825
ael	-1826
▁cy	-1827
▁Rec	-1828
▁vol	-1829
▁Sim	-1830
▁process	-1831
▁entire	-1832
▁meet	-1833
uck	-1834
▁Rep	-1835
▁players	-1836
ament	-1837
▁performed	-1838
▁battle	-1839
▁Black	-1840
mb	-1841
▁fav	-1842
adron	-1843
▁significant	-1844
▁mm	-1845
▁Gl	-1846
▁does	-1847
alt	-1848
▁feet	-1849
▁broad	-1850
▁complete	-1851
play	-1852
▁created	-1853
▁non	-1854
iting	-1855
▁2005	-1856
▁aver	-1857
▁style	-1858
▁According	-1859
▁earl	-1860
▁performance	-1861
▁occur	-1862
▁young	-1863
▁served	-1864
ivil	-1865
▁rev	-1866
▁look	-1867
orse	-1868
▁186	-1869
▁ident	-1870
▁special	-1871
▁important	-1872
▁forces	-1873
▁Rober	-1874
▁formed	-1875
▁cond	-1876
▁Reg	-1877
▁Port	-1878
▁While	-1879
▁Pol	-1880
▁cop	-1881
▁fla	-1882
▁novel	-1883
▁thought	-1884
▁cult	-1885
▁becom	-1886
ogn	-1887
▁put	-1888
ality	-1889
▁announced	-1890
▁completed	-1891
▁fle	-1892
▁Australia	-1893
ened	-1894
omb	-1895
▁East	-1896
ization	-1897
▁2004	-1898
▁able	-1899
▁activ	-1900
▁located	-1901
▁body	-1902
iers	-1903
▁range	-1904
con	-1905
▁ve	-1906
asing	-1907
▁loss	-1908
oice	-1909
▁lik	-1910
olution	-1911
▁general	-1912
▁voc	-1913
▁rock	-1914
▁impro	-1915
rict	-1916
gether	-1917
▁together	-1918
▁bar	-1919
▁pri	-1920
▁miles	-1921
reed	-1922
▁cost	-1923
aint	-1924
▁Island	-1925
eth	-1926
▁redu	-1927
▁force	-1928
▁grow	-1929
▁James	-1930
▁aud	-1931
▁Ear	-1932
▁typ	-1933
ought	-1934
▁!	-1935
▁mot	-1936
▁188	-1937
▁caused	-1938
ills	-1939
ination	-1940
▁decided	-1941
rest	-1942
enced	-1943
▁You	-1944
▁modern	-1945
▁others	-1946
ett	-1947
▁Cro	-1948
reg	-1949
▁Med	-1950
▁hy	-1951
aval	-1952
bert	-1953
▁Ass	-1954
▁el	-1955
cent	-1956
▁taken	-1957
▁instead	-1958
itch	-1959
ountain	-1960
ager	-1961
lant	-1962
ample	-1963
▁killed	-1964
azine	-1965
▁live	-1966
▁ly	-1967
▁Ke	-1968
▁arm	-1969
rick	-1970
▁Road	-1971
urb	-1972
▁member	-1973
▁followed	-1974
reek	-1975
▁det	-1976
▁Thom	-1977
▁stri	-1978
▁human	-1979
▁fig	-1980
ids	-1981
▁Pres	-1982
▁Street	-1983
ming	-1984
▁cut	-1985
ze	-1986
▁enc	-1987
▁Mor	-1988
▁opened	-1989
ned	-1990
iron	-1991
▁Sup	-1992
▁appeared	-1993
▁hit	-1994
▁Royal	-1995
alls	-1996
▁Ser	-1997
rought	-1998
ceed	-1999
here	-2000
▁Bill	-2001
▁added	-2002
▁once	-2003
▁creat	-2004
wood	-2005
▁cou	-2006
rated	-2007
icated	-2008
▁coast	-2009
▁Mad	-2010
▁hold	-2011
▁Australian	-2012
ells	-2013
ertain	-2014
▁round	-2015
aper	-2016
nder	-2017
▁know	-2018
▁House	-2019
ength	-2020
▁born	-2021
ask	-2022
unk	-2023
▁pred	-2024
ishing	-2025
▁separ	-2026
▁appoin	-2027
ula	-2028
odes	-2029
▁arg	-2030
▁route	-2031
▁upon	-2032
▁prot	-2033
20	-2034
day	-2035
▁Phil	-2036
elling	-2037
▁surv	-2038
▁playing	-2039
▁features	-2040
ivid	-2041
ficult	-2042
▁points	-2043
▁But	-2044
▁Intern	-2045
▁eventually	-2046
▁least	-2047
▁coun	-2048
▁laun	-2049
▁mater	-2050
▁crew	-2051
epend	-2052
▁critics	-2053
ray	-2054
▁McC	-2055
▁villa	-2056
▁comment	-2057
oted	-2058
▁difficult	-2059
▁France	-2060
▁31	-2061
▁peak	-2062
▁Squ	-2063
▁accom	-2064
▁proble	-2065
▁generally	-2066
▁Rich	-2067
▁women	-2068
▁tre	-2069
▁mult	-2070
▁respect	-2071
▁relationship	-2072
▁saw	-2073
▁events	-2074
cil	-2075
▁reb	-2076
▁ce	-2077
▁Canada	-2078
▁rather	-2079
▁allowed	-2080
▁gl	-2081
▁Atlant	-2082
▁2003	-2083
▁tradition	-2084
aching	-2085
xic	-2086
▁recogn	-2087
▁stat	-2088
▁estim	-2089
▁behind	-2090
▁originally	-2091
chie	-2092
▁ren	-2093
▁action	-2094
▁provided	-2095
▁lo	-2096
▁lab	-2097
▁scored	-2098
▁fif	-2099
▁host	-2100
▁worked	-2101
▁Christian	-2102
▁profess	-2103
▁George	-2104
▁region	-2105
board	-2106
▁inform	-2107
▁mother	-2108
ope	-2109
▁San	-2110
▁Miss	-2111
▁Part	-2112
▁lack	-2113
▁race	-2114
▁church	-2115
medi	-2116
▁185	-2117
▁mix	-2118
▁travel	-2119
▁mi	-2120
head	-2121
ential	-2122
▁brother	-2123
▁subsequ	-2124
▁length	-2125
cial	-2126
iction	-2127
▁z	-2128
▁hon	-2129
▁Act	-2130
▁ask	-2131
iding	-2132
▁close	-2133
▁mer	-2134
▁weeks	-2135
▁almost	-2136
▁believed	-2137
▁Play	-2138
▁either	-2139
emy	-2140
oll	-2141
▁To	-2142
▁accept	-2143
▁regular	-2144
ators	-2145
▁wife	-2146
men	-2147
iddle	-2148
▁news	-2149
▁Roman	-2150
▁Du	-2151
oph	-2152
igned	-2153
▁suff	-2154
▁associ	-2155
▁Pal	-2156
▁ball	-2157
▁brought	-2158
▁Ap	-2159
▁guns	-2160
ological	-2161
▁example	-2162
sc	-2163
▁School	-2164
▁help	-2165
▁effort	-2166
▁foc	-2167
▁Gro	-2168
▁Church	-2169
ollowing	-2170
▁mass	-2171
▁fourth	-2172
▁working	-2173
oor	-2174
▁fight	-2175
▁wanted	-2176
ara	-2177
▁esc	-2178
▁2014	-2179
▁individ	-2180
to	-2181
▁Kingdom	-2182
▁leading	-2183
rack	-2184
▁Bel	-2185
▁front	-2186
▁neg	-2187
▁works	-2188
▁nine	-2189
▁featured	-2190
go	-2191
▁sym	-2192
▁Brown	-2193
▁engine	-2194
▁material	-2195
▁La	-2196
▁Song	-2197
▁flight	-2198
urg	-2199
▁Cap	-2200
▁exc	-2201
ellow	-2202
▁goal	-2203
▁Red	-2204
▁wid	-2205
▁bird	-2206
▁fund	-2207
ule	-2208
▁current	-2209
▁187	-2210
▁2000	-2211
ma	-2212
ica	-2213
cher	-2214
▁heavy	-2215
▁placed	-2216
▁rap	-2217
▁designed	-2218
▁500	-2219
ades	-2220
▁exec	-2221
ully	-2222
alion	-2223
anish	-2224
teen	-2225
▁sex	-2226
▁president	-2227
▁Ital	-2228
▁indust	-2229
ourn	-2230
▁dev	-2231
▁conv	-2232
▁sour	-2233
artment	-2234
▁quar	-2235
▁super	-2236
▁Tr	-2237
▁Hen	-2238
▁case	-2239
▁business	-2240
▁dou	-2241
▁southern	-2242
umb	-2243
▁Que	-2244
▁damage	-2245
pon	-2246
istic	-2247
right	-2248
▁quick	-2249
▁stage	-2250
ush	-2251
▁inj	-2252
▁free	-2253
▁Michael	-2254
▁interest	-2255
▁Qu	-2256
▁grad	-2257
▁term	-2258
▁saying	-2259
▁insp	-2260
▁soon	-2261
▁David	-2262
▁invest	-2263
▁opening	-2264
ying	-2265
▁average	-2266
den	-2267
After	-2268
ving	-2269
▁mor	-2270
▁commer	-2271
▁towards	-2272
▁army	-2273
▁disp	-2274
▁ill	-2275
uel	-2276
010	-2277
▁sequ	-2278
▁quest	-2279
off	-2280
angu	-2281
▁Ber	-2282
▁Game	-2283
▁possible	-2284
▁sele	-2285
▁victory	-2286
▁Mil	-2287
▁reve	-2288
▁maintain	-2289
▁di	-2290
▁Company	-2291
▁President	-2292
oring	-2293
▁hurricane	-2294
ems	-2295
oney	-2296
▁king	-2297
ference	-2298
ected	-2299
rain	-2300
▁hours	-2301
ude	-2302
▁scene	-2303
▁finished	-2304
ply	-2305
▁2015	-2306
▁nomin	-2307
▁treat	-2308
▁replaced	-2309
▁particularly	-2310
igan	-2311
▁nar	-2312
light	-2313
▁hard	-2314
uter	-2315
▁35	-2316
BC	-2317
▁Vir	-2318
▁deter	-2319
▁mph	-2320
erous	-2321
▁meas	-2322
ata	-2323
▁Ir	-2324
val	-2325
▁Paul	-2326
▁Mexic	-2327
▁exist	-2328
▁football	-2329
▁priv	-2330
▁rail	-2331
▁regard	-2332
▁Republic	-2333
▁Grand	-2334
▁employ	-2335
▁joined	-2336
▁respons	-2337
ulf	-2338
▁social	-2339
ift	-2340
▁2001	-2341
▁largest	-2342
ique	-2343
atural	-2344
▁central	-2345
▁2002	-2346
▁avail	-2347
▁remov	-2348
ama	-2349
iforn	-2350
▁space	-2351
aut	-2352
▁runs	-2353
rey	-2354
rison	-2355
▁Thomas	-2356
▁involved	-2357
tee	-2358
▁Angel	-2359
▁European	-2360
▁inte	-2361
▁pract	-2362
▁relig	-2363
▁appearance	-2364
sel	-2365
▁ey	-2366
stant	-2367
▁Old	-2368
conom	-2369
▁proper	-2370
aren	-2371
anned	-2372
▁must	-2373
▁praised	-2374
ios	-2375
rag	-2376
▁flag	-2377
▁prob	-2378
anding	-2379
▁White	-2380
▁earlier	-2381
▁Mag	-2382
▁territ	-2383
▁Californ	-2384
olf	-2385
▁initially	-2386
▁My	-2387
▁Tom	-2388
▁colla	-2389
▁Ag	-2390
▁elements	-2391
fall	-2392
▁Some	-2393
mon	-2394
west	-2395
▁Hall	-2396
etwork	-2397
▁achie	-2398
▁mission	-2399
▁positive	-2400
ino	-2401
▁Wil	-2402
▁hop	-2403
erved	-2404
▁winds	-2405
liam	-2406
▁office	-2407
ago	-2408
▁pur	-2409
▁feel	-2410
▁whom	-2411
ground	-2412
▁threat	-2413
▁outside	-2414
▁directed	-2415
▁che	-2416
▁Best	-2417
▁eastern	-2418
▁previously	-2419
enes	-2420
▁river	-2421
▁particip	-2422
uk	-2423
▁Colle	-2424
▁California	-2425
▁Navy	-2426
▁love	-2427
▁transfer	-2428
utive	-2429
▁director	-2430
wer	-2431
▁Hol	-2432
▁Music	-2433
▁party	-2434
mp	-2435
ius	-2436
▁expla	-2437
▁Je	-2438
ports	-2439
▁phys	-2440
▁Robert	-2441
▁Great	-2442
▁frequ	-2443
▁highway	-2444
▁female	-2445
rup	-2446
▁36	-2447
▁spent	-2448
▁commit	-2449
ateg	-2450
▁God	-2451
▁Val	-2452
▁forced	-2453
▁taking	-2454
▁condu	-2455
liament	-2456
▁troops	-2457
▁above	-2458
▁northern	-2459
▁required	-2460
▁issue	-2461
▁think	-2462
▁contract	-2463
▁hom	-2464
▁hous	-2465
▁enough	-2466
aves	-2467
isc	-2468
now	-2469
asion	-2470
▁bill	-2471
▁usually	-2472
▁Lou	-2473
usion	-2474
▁Sing	-2475
▁stop	-2476
ilities	-2477
▁passed	-2478
▁highest	-2479
▁evidence	-2480
atory	-2481
▁Rock	-2482
▁contrib	-2483
▁Ham	-2484
heast	-2485
▁mean	-2486
▁pers	-2487
mi	-2488
▁Bow	-2489
▁pen	-2490
▁increased	-2491
▁interview	-2492
▁section	-2493
ores	-2494
▁debut	-2495
▁according	-2496
▁Mac	-2497
▁1990	-2498
▁Love	-2499
iff	-2500
aled	-2501
lying	-2502
▁break	-2503
▁International	-2504
▁pie	-2505
▁drop	-2506
▁lyric	-2507
▁Bra	-2508
▁pot	-2509
pected	-2510
▁recording	-2511
▁magazine	-2512
▁fall	-2513
mar	-2514
▁told	-2515
uation	-2516
▁Two	-2517
▁surf	-2518
▁object	-2519
▁reason	-2520
oke	-2521
▁Times	-2522
▁account	-2523
▁awarded	-2524
▁miss	-2525
▁Sch	-2526
▁fut	-2527
▁room	-2528
▁court	-2529
▁Wash	-2530
▁First	-2531
▁change	-2532
▁claimed	-2533
rab	-2534
aker	-2535
ites	-2536
itor	-2537
ibility	-2538
elled	-2539
ville	-2540
▁econom	-2541
hib	-2542
oid	-2543
▁Dep	-2544
▁beg	-2545
aring	-2546
▁Mary	-2547
▁shot	-2548
ha	-2549
of	-2550
▁Viet	-2551
▁available	-2552
▁percent	-2553
▁60	-2554
▁ended	-2555
▁Virgin	-2556
▁Dr	-2557
▁give	-2558
ession	-2559
▁clear	-2560
▁immedi	-2561
▁despite	-2562
▁Washington	-2563
▁stars	-2564
▁writer	-2565
atin	-2566
▁har	-2567
▁Vict	-2568
rigade	-2569
ability	-2570
reng	-2571
▁come	-2572
▁estimated	-2573
ida	-2574
minist	-2575
▁langu	-2576
▁commission	-2577
▁idea	-2578
▁whose	-2579
▁45	-2580
▁draw	-2581
ulated	-2582
▁center	-2583
▁specific	-2584
▁abs	-2585
▁signed	-2586
▁studio	-2587
▁ordered	-2588
▁conn	-2589
▁educ	-2590
▁units	-2591
▁Spanish	-2592
▁slow	-2593
▁Carol	-2594
▁India	-2595
▁civil	-2596
▁bi	-2597
▁defend	-2598
▁beginning	-2599
▁sometimes	-2600
▁sil	-2601
▁gold	-2602
▁turned	-2603
edy	-2604
unt	-2605
▁UK	-2606
▁itself	-2607
▁Championship	-2608
▁cal	-2609
▁cru	-2610
▁inn	-2611
▁rul	-2612
▁Mont	-2613
▁Britain	-2614
▁training	-2615
▁1980	-2616
▁reviews	-2617
ault	-2618
arily	-2619
▁viol	-2620
▁size	-2621
cts	-2622
▁Pac	-2623
▁Res	-2624
▁Mark	-2625
▁better	-2626
▁?	-2627
raw	-2628
▁Battle	-2629
▁introduced	-2630
▁Ben	-2631
▁Cup	-2632
▁going	-2633
▁shows	-2634
▁Sen	-2635
mitted	-2636
irth	-2637
▁1970	-2638
▁poor	-2639
▁Other	-2640
▁streng	-2641
▁complex	-2642
21	-2643
As	-2644
▁Cast	-2645
▁Charles	-2646
▁Atlantic	-2647
▁80	-2648
▁Don	-2649
▁bridge	-2650
▁lower	-2651
lin	-2652
▁trib	-2653
▁study	-2654
▁nuc	-2655
▁acqu	-2656
▁daugh	-2657
berg	-2658
▁pain	-2659
▁might	-2660
leg	-2661
ston	-2662
antry	-2663
▁past	-2664
reland	-2665
▁Frank	-2666
me	-2667
eum	-2668
hile	-2669
ready	-2670
▁fort	-2671
ification	-2672
▁additional	-2673
▁friends	-2674
▁independ	-2675
amer	-2676
▁184	-2677
▁That	-2678
▁Govern	-2679
▁Pacific	-2680
iter	-2681
rian	-2682
rying	-2683
▁except	-2684
▁appointed	-2685
▁buildings	-2686
icle	-2687
rief	-2688
▁staff	-2689
▁police	-2690
▁183	-2691
▁Star	-2692
▁Henry	-2693
▁western	-2694
ergy	-2695
▁Cour	-2696
ication	-2697
▁emb	-2698
ume	-2699
ranch	-2700
▁Stud	-2701
▁yard	-2702
itz	-2703
▁Ac	-2704
▁Mo	-2705
▁den	-2706
ption	-2707
▁subject	-2708
▁episodes	-2709
St	-2710
▁Nor	-2711
▁don	-2712
▁Ireland	-2713
▁parts	-2714
▁Hill	-2715
▁flood	-2716
pecially	-2717
▁certain	-2718
ga	-2719
▁pit	-2720
▁Town	-2721
▁Union	-2722
▁wood	-2723
▁test	-2724
▁Michigan	-2725
het	-2726
▁keep	-2727
change	-2728
▁larger	-2729
uff	-2730
▁Tra	-2731
▁Smith	-2732
▁remaining	-2733
na	-2734
asy	-2735
▁metal	-2736
▁deal	-2737
▁Associ	-2738
▁Im	-2739
ander	-2740
▁wat	-2741
▁suggested	-2742
▁commercial	-2743
van	-2744
back	-2745
▁Soc	-2746
▁key	-2747
▁cycl	-2748
aps	-2749
ournal	-2750
▁Squadron	-2751
▁surround	-2752
▁especially	-2753
▁Day	-2754
aries	-2755
▁approx	-2756
▁already	-2757
leb	-2758
▁Vietn	-2759
▁Despite	-2760
ands	-2761
▁prior	-2762
▁capital	-2763
eal	-2764
▁cred	-2765
▁score	-2766
▁Victor	-2767
▁states	-2768
▁broadcast	-2769
ky	-2770
▁Fle	-2771
▁future	-2772
▁arrived	-2773
▁Cong	-2774
▁Award	-2775
▁prevent	-2776
▁quickly	-2777
etic	-2778
▁Jos	-2779
▁Rad	-2780
▁anti	-2781
▁latter	-2782
▁conver	-2783
acy	-2784
ump	-2785
▁asked	-2786
▁failed	-2787
▁league	-2788
ises	-2789
▁Flor	-2790
▁food	-2791
porary	-2792
▁manager	-2793
▁increasing	-2794
▁Gr	-2795
lymp	-2796
▁gra	-2797
▁syn	-2798
▁occup	-2799
▁groups	-2800
▁remains	-2801
▁becoming	-2802
▁intended	-2803
lands	-2804
▁1960	-2805
▁carried	-2806
oe	-2807
▁tor	-2808
▁Olymp	-2809
▁quarter	-2810
▁deg	-2811
▁community	-2812
▁phot	-2813
▁brief	-2814
▁market	-2815
▁soldiers	-2816
▁bur	-2817
ospital	-2818
▁minutes	-2819
▁musical	-2820
▁students	-2821
▁sus	-2822
▁type	-2823
▁assist	-2824
semb	-2825
▁withd	-2826
▁screen	-2827
▁Canadian	-2828
AA	-2829
▁fleet	-2830
ctive	-2831
▁breed	-2832
alled	-2833
▁lines	-2834
▁limited	-2835
▁operations	-2836
airs	-2837
▁How	-2838
range	-2839
▁radio	-2840
▁Richard	-2841
▁pressure	-2842
▁proposed	-2843
▁international	-2844
ership	-2845
ado	-2846
olic	-2847
orial	-2848
▁Gold	-2849
▁oppos	-2850
▁lyrics	-2851
▁Mal	-2852
thing	-2853
iation	-2854
▁election	-2855
gl	-2856
▁bank	-2857
▁heav	-2858
▁access	-2859
▁Mart	-2860
▁appl	-2861
hester	-2862
▁liter	-2863
▁destroyed	-2864
▁discovered	-2865
▁Just	-2866
▁yards	-2867
▁consider	-2868
▁Most	-2869
▁mixed	-2870
▁entered	-2871
lex	-2872
▁thus	-2873
oul	-2874
sec	-2875
▁300	-2876
▁vir	-2877
ography	-2878
▁summer	-2879
▁winning	-2880
vey	-2881
▁woman	-2882
▁multip	-2883
▁concept	-2884
ixt	-2885
▁god	-2886
▁mach	-2887
▁Peter	-2888
▁changed	-2889
▁structure	-2890
▁From	-2891
abit	-2892
Th	-2893
▁effects	-2894
▁decision	-2895
▁Tex	-2896
▁fail	-2897
▁speed	-2898
▁longer	-2899
reak	-2900
▁diss	-2901
ounds	-2902
▁Chic	-2903
▁nearly	-2904
▁married	-2905
ien	-2906
down	-2907
▁Bay	-2908
▁doc	-2909
▁1999	-2910
rd	-2911
apt	-2912
umn	-2913
▁Virginia	-2914
▁minor	-2915
▁network	-2916
▁pil	-2917
▁BC	-2918
▁Ver	-2919
▁self	-2920
▁copies	-2921
▁leaving	-2922
▁der	-2923
▁probably	-2924
bit	-2925
▁happ	-2926
idents	-2927
▁Cross	-2928
▁block	-2929
agement	-2930
▁agreed	-2931
▁College	-2932
▁changes	-2933
▁conclud	-2934
▁Billboard	-2935
ros	-2936
▁Bur	-2937
▁male	-2938
▁temper	-2939
gen	-2940
ging	-2941
▁Russ	-2942
▁park	-2943
▁wide	-2944
▁living	-2945
▁75	-2946
▁Ha	-2947
enth	-2948
▁dram	-2949
NA	-2950
▁Dan	-2951
▁intens	-2952
▁officers	-2953
▁supported	-2954
▁70	-2955
onse	-2956
▁Pat	-2957
▁cat	-2958
▁done	-2959
▁Party	-2960
▁goals	-2961
▁money	-2962
▁research	-2963
▁Battalion	-2964
▁transport	-2965
▁approximately	-2966
omm	-2967
▁big	-2968
▁create	-2969
ror	-2970
▁private	-2971
▁related	-2972
uing	-2973
▁text	-2974
▁Feder	-2975
▁forest	-2976
▁experience	-2977
ota	-2978
▁TV	-2979
ples	-2980
▁env	-2981
▁horse	-2982
atively	-2983
iant	-2984
icted	-2985
▁Wood	-2986
cle	-2987
isl	-2988
▁Er	-2989
imum	-2990
iser	-2991
rate	-2992
During	-2993
▁purch	-2994
▁guitar	-2995
▁includes	-2996
▁pay	-2997
▁date	-2998
▁rain	-2999
▁focus	-3000
▁Penn	-3001
▁face	-3002
atives	-3003
▁cause	-3004
▁lived	-3005
▁helped	-3006
pan	-3007
uit	-3008
fect	-3009
▁anal	-3010
▁mostly	-3011
uf	-3012
▁Mer	-3013
▁Som	-3014
▁concern	-3015
▁Court	-3016
▁raised	-3017
▁Chicago	-3018
uals	-3019
▁sat	-3020
▁Croat	-3021
▁Mexico	-3022
▁likely	-3023
▁running	-3024
▁Sam	-3025
▁Wal	-3026
▁imm	-3027
014	-3028
▁38	-3029
▁media	-3030
▁names	-3031
▁touch	-3032
▁feature	-3033
▁personal	-3034
▁influence	-3035
unn	-3036
▁Wales	-3037
▁voice	-3038
▁stay	-3039
▁decla	-3040
▁-	-3041
use	-3042
▁deep	-3043
▁Green	-3044
▁equip	-3045
▁problems	-3046
▁If	-3047
▁cm	-3048
▁bring	-3049
▁Florida	-3050
▁Ol	-3051
incip	-3052
▁amount	-3053
▁daughter	-3054
ows	-3055
band	-3056
▁Force	-3057
▁visit	-3058
▁natural	-3059
▁provide	-3060
eway	-3061
▁pow	-3062
▁Lake	-3063
▁learn	-3064
▁administ	-3065
Al	-3066
▁Ev	-3067
▁Los	-3068
▁link	-3069
▁sett	-3070
ounted	-3071
▁Go	-3072
▁Ot	-3073
▁Big	-3074
▁anc	-3075
ension	-3076
▁question	-3077
▁Jim	-3078
▁gir	-3079
▁emer	-3080
selves	-3081
▁themselves	-3082
ady	-3083
▁dead	-3084
▁films	-3085
▁kil	-3086
▁Fort	-3087
▁adop	-3088
▁rare	-3089
▁Following	-3090
ena	-3091
▁Rou	-3092
orses	-3093
▁Coun	-3094
▁makes	-3095
▁response	-3096
asc	-3097
▁Pri	-3098
▁ran	-3099
▁uns	-3100
iring	-3101
▁Under	-3102
▁distrib	-3103
▁Sea	-3104
inese	-3105
▁burn	-3106
▁trade	-3107
rast	-3108
▁bomb	-3109
▁decl	-3110
▁favor	-3111
▁shoot	-3112
vin	-3113
▁33	-3114
▁br	-3115
▁flow	-3116
▁shown	-3117
▁smaller	-3118
▁sal	-3119
▁Ever	-3120
▁tons	-3121
▁Second	-3122
▁always	-3123
▁ranked	-3124
▁Chinese	-3125
▁defeated	-3126
ires	-3127
▁Ter	-3128
▁sea	-3129
ously	-3130
▁dark	-3131
▁prop	-3132
▁terms	-3133
▁listed	-3134
▁Western	-3135
▁village	-3136
▁compared	-3137
uth	-3138
arent	-3139
itude	-3140
▁birth	-3141
▁Africa	-3142
▁Jenn	-3143
▁chall	-3144
▁captured	-3145
▁Association	-3146
oo	-3147
yd	-3148
▁Met	-3149
itect	-3150
uments	-3151
▁teams	-3152
▁higher	-3153
▁primary	-3154
▁occurred	-3155
aches	-3156
aylor	-3157
▁Awards	-3158
▁increase	-3159
▁dig	-3160
▁Year	-3161
▁exam	-3162
undred	-3163
▁fifth	-3164
▁planned	-3165
▁ult	-3166
▁weap	-3167
▁agree	-3168
▁celeb	-3169
▁domin	-3170
atre	-3171
imate	-3172
tered	-3173
▁tourn	-3174
▁professional	-3175
enty	-3176
▁leave	-3177
▁Germany	-3178
▁NY	-3179
inent	-3180
riage	-3181
▁Missou	-3182
▁appears	-3183
rary	-3184
▁our	-3185
▁Inter	-3186
▁stories	-3187
▁whether	-3188
▁launched	-3189
▁producer	-3190
▁upper	-3191
▁referred	-3192
ih	-3193
▁Sun	-3194
▁Scott	-3195
▁coin	-3196
▁contains	-3197
▁inspired	-3198
iqu	-3199
cean	-3200
▁Sal	-3201
oms	-3202
▁job	-3203
▁walk	-3204
▁determ	-3205
▁scenes	-3206
▁mention	-3207
▁subsequently	-3208
iles	-3209
well	-3210
▁largely	-3211
▁surface	-3212
▁language	-3213
▁majority	-3214
quar	-3215
ening	-3216
▁earned	-3217
▁Jackson	-3218
▁damaged	-3219
▁meeting	-3220
▁Jew	-3221
▁Hist	-3222
action	-3223
▁initial	-3224
vert	-3225
▁mur	-3226
▁rat	-3227
▁compan	-3228
▁contem	-3229
▁battles	-3230
▁numbers	-3231
▁mom	-3232
▁notes	-3233
▁Highway	-3234
ona	-3235
▁colon	-3236
▁combat	-3237
▁moving	-3238
▁forward	-3239
▁Mr	-3240
iest	-3241
▁Sir	-3242
force	-3243
▁underst	-3244
hips	-3245
oura	-3246
▁1995	-3247
▁metres	-3248
▁something	-3249
▁constructed	-3250
▁Ma	-3251
▁Its	-3252
thlet	-3253
▁meth	-3254
▁consist	-3255
▁improve	-3256
▁removed	-3257
▁+	-3258
urt	-3259
▁Gal	-3260
▁Law	-3261
cript	-3262
▁plot	-3263
▁finally	-3264
▁overall	-3265
uz	-3266
ylan	-3267
▁records	-3268
▁Enter	-3269
▁distin	-3270
▁Hot	-3271
▁ang	-3272
▁Earth	-3273
▁theme	-3274
▁37	-3275
▁ens	-3276
▁Later	-3277
▁demon	-3278
▁newsp	-3279
▁really	-3280
▁critical	-3281
nes	-3282
hold	-3283
▁tar	-3284
▁Over	-3285
▁fans	-3286
isions	-3287
▁got	-3288
izing	-3289
▁Taylor	-3290
aily	-3291
isher	-3292
▁Central	-3293
▁location	-3294
pire	-3295
umber	-3296
▁immediately	-3297
iny	-3298
kin	-3299
▁32	-3300
▁90	-3301
road	-3302
▁word	-3303
▁confl	-3304
▁centre	-3305
▁investig	-3306
▁selected	-3307
andon	-3308
illed	-3309
▁cand	-3310
▁Texas	-3311
▁indic	-3312
▁course	-3313
▁Carolina	-3314
▁mountain	-3315
umed	-3316
▁Bey	-3317
▁kind	-3318
▁grand	-3319
▁tracks	-3320
▁extended	-3321
▁yet	-3322
icles	-3323
▁board	-3324
▁closed	-3325
oper	-3326
▁Alex	-3327
▁information	-3328
▁Kh	-3329
▁Art	-3330
▁Cub	-3331
mir	-3332
ties	-3333
▁Zeal	-3334
▁health	-3335
za	-3336
▁Sl	-3337
▁1950	-3338
▁Games	-3339
▁Route	-3340
▁whole	-3341
▁giving	-3342
▁script	-3343
▁commented	-3344
▁Rob	-3345
▁instr	-3346
▁nature	-3347
tion	-3348
▁saf	-3349
▁talk	-3350
▁Saint	-3351
▁Super	-3352
▁Br	-3353
▁179	-3354
▁via	-3355
▁1940	-3356
▁prec	-3357
▁religious	-3358
not	-3359
▁Fl	-3360
▁III	-3361
▁fell	-3362
reater	-3363
▁energy	-3364
▁services	-3365
onna	-3366
▁Tech	-3367
▁norm	-3368
agon	-3369
▁slight	-3370
▁status	-3371
▁Zealand	-3372
▁jud	-3373
▁Foot	-3374
▁Louis	-3375
▁plans	-3376
▁attend	-3377
hew	-3378
omer	-3379
▁books	-3380
stitution	-3381
▁movement	-3382
▁181	-3383
▁sla	-3384
▁Lord	-3385
▁ending	-3386
▁African	-3387
▁discuss	-3388
▁countries	-3389
rin	-3390
▁Hel	-3391
▁Mill	-3392
▁Johnson	-3393
▁Minister	-3394
▁Rev	-3395
▁issued	-3396
ironment	-3397
03	-3398
ean	-3399
ipp	-3400
hens	-3401
aging	-3402
anced	-3403
otion	-3404
▁Dylan	-3405
▁elected	-3406
At	-3407
ria	-3408
ibly	-3409
▁Club	-3410
▁bene	-3411
▁Irish	-3412
▁method	-3413
▁observ	-3414
▁49	-3415
▁Del	-3416
▁bow	-3417
▁sen	-3418
▁takes	-3419
▁offered	-3420
▁Os	-3421
erve	-3422
▁1998	-3423
itation	-3424
▁confir	-3425
▁rights	-3426
▁scient	-3427
▁suggest	-3428
imin	-3429
rial	-3430
utch	-3431
▁thr	-3432
uated	-3433
▁meant	-3434
ken	-3435
▁Ho	-3436
▁sch	-3437
arents	-3438
▁model	-3439
▁depression	-3440
lled	-3441
venue	-3442
▁Many	-3443
▁bord	-3444
▁figure	-3445
▁unable	-3446
▁abandon	-3447
▁standard	-3448
▁respectively	-3449
▁47	-3450
osen	-3451
▁Inf	-3452
▁cell	-3453
▁cere	-3454
▁middle	-3455
▁Brigade	-3456
▁Council	-3457
▁refused	-3458
▁variety	-3459
▁ri	-3460
▁schools	-3461
▁numerous	-3462
▁suffered	-3463
▁architect	-3464
▁attention	-3465
ili	-3466
▁Out	-3467
▁Camp	-3468
▁Mass	-3469
▁thick	-3470
▁birds	-3471
▁polic	-3472
▁assigned	-3473
inn	-3474
▁Tor	-3475
▁1997	-3476
▁spir	-3477
▁means	-3478
▁Prince	-3479
▁directly	-3480
▁Mic	-3481
▁enj	-3482
▁chap	-3483
▁vocals	-3484
gypt	-3485
▁Nort	-3486
▁below	-3487
▁sched	-3488
▁active	-3489
otel	-3490
peror	-3491
▁artist	-3492
▁traffic	-3493
aught	-3494
odies	-3495
▁pick	-3496
▁unit	-3497
▁adult	-3498
▁incor	-3499
▁financ	-3500
▁needed	-3501
▁princip	-3502
▁declared	-3503
▁individual	-3504
awn	-3505
▁aw	-3506
▁cle	-3507
▁Center	-3508
▁Serv	-3509
perial	-3510
▁vocal	-3511
▁nearby	-3512
▁hundred	-3513
▁stating	-3514
▁establish	-3515
▁Rh	-3516
▁Mem	-3517
▁drum	-3518
▁leader	-3519
ams	-3520
▁cas	-3521
uries	-3522
▁legisl	-3523
▁necess	-3524
▁attacks	-3525
▁serious	-3526
▁max	-3527
annel	-3528
▁symb	-3529
ighter	-3530
▁minute	-3531
▁Angeles	-3532
▁display	-3533
▁reduced	-3534
▁competition	-3535
▁Dou	-3536
▁lay	-3537
astic	-3538
▁candid	-3539
▁composed	-3540
ki	-3541
ify	-3542
▁Both	-3543
ulations	-3544
▁electron	-3545
▁separate	-3546
ari	-3547
▁Op	-3548
▁Off	-3549
▁Creek	-3550
▁society	-3551
▁observed	-3552
gar	-3553
▁1996	-3554
▁Film	-3555
▁path	-3556
▁rate	-3557
▁extra	-3558
▁replace	-3559
▁industry	-3560
oes	-3561
udd	-3562
iled	-3563
▁400	-3564
iences	-3565
▁meaning	-3566
▁attended	-3567
▁conditions	-3568
0107	-3569
▁Tur	-3570
▁fit	-3571
▁Dist	-3572
▁Scot	-3573
▁settle	-3574
▁associated	-3575
ita	-3576
hood	-3577
rier	-3578
acter	-3579
▁reach	-3580
▁double	-3581
▁Cla	-3582
nding	-3583
▁1992	-3584
▁defeat	-3585
▁presented	-3586
che	-3587
imb	-3588
▁Sol	-3589
▁Cath	-3590
▁gain	-3591
▁pair	-3592
▁poet	-3593
▁heart	-3594
▁officer	-3595
▁resulted	-3596
▁1930	-3597
▁square	-3598
▁traditional	-3599
key	-3600
▁44	-3601
▁tax	-3602
▁prep	-3603
▁rapid	-3604
▁tower	-3605
stitute	-3606
▁altern	-3607
▁presence	-3608
▁1993	-3609
▁Egypt	-3610
▁sides	-3611
▁horses	-3612
▁continue	-3613
▁attempted	-3614
anna	-3615
chan	-3616
ingu	-3617
acher	-3618
osaur	-3619
▁plat	-3620
▁sales	-3621
▁depart	-3622
▁function	-3623
ocr	-3624
rical	-3625
▁want	-3626
▁detail	-3627
▁Cle	-3628
urity	-3629
▁hour	-3630
▁chief	-3631
▁graph	-3632
▁levels	-3633
▁Gar	-3634
▁bad	-3635
▁poem	-3636
▁seem	-3637
▁stra	-3638
▁propos	-3639
▁secret	-3640
▁produce	-3641
▁attacked	-3642
rie	-3643
eler	-3644
like	-3645
rown	-3646
ruit	-3647
▁plant	-3648
▁Edward	-3649
▁nation	-3650
ero	-3651
oud	-3652
▁covered	-3653
▁source	-3654
▁39	-3655
onc	-3656
▁41	-3657
▁dom	-3658
▁Bond	-3659
▁Franc	-3660
▁responsible	-3661
▁Ant	-3662
▁purs	-3663
▁uses	-3664
▁write	-3665
▁enjoy	-3666
▁letter	-3667
▁annual	-3668
quarters	-3669
▁revealed	-3670
▁commander	-3671
▁subs	-3672
▁neigh	-3673
aded	-3674
▁log	-3675
▁Trans	-3676
▁sister	-3677
▁founded	-3678
▁34	-3679
▁Ty	-3680
▁lif	-3681
▁rein	-3682
▁watch	-3683
▁prison	-3684
▁recover	-3685
▁marked	-3686
▁Parliament	-3687
▁cho	-3688
▁ded	-3689
anded	-3690
osing	-3691
▁Oper	-3692
▁Rail	-3693
▁actions	-3694
▁counter	-3695
ex	-3696
▁Kn	-3697
▁fr	-3698
▁Bob	-3699
▁hus	-3700
▁depend	-3701
▁Regiment	-3702
▁territory	-3703
▁42	-3704
▁Tre	-3705
▁box	-3706
▁2016	-3707
▁Paris	-3708
estival	-3709
▁issues	-3710
▁singer	-3711
▁scoring	-3712
▁audience	-3713
je	-3714
ogue	-3715
ship	-3716
▁Lit	-3717
▁extrem	-3718
▁highly	-3719
▁Italian	-3720
▁Blue	-3721
▁writers	-3722
▁Queen	-3723
▁hands	-3724
mission	-3725
▁fighting	-3726
▁transferred	-3727
win	-3728
▁Up	-3729
ares	-3730
▁Ann	-3731
▁Dem	-3732
▁Ill	-3733
▁veh	-3734
▁1994	-3735
▁dise	-3736
▁recomm	-3737
▁respond	-3738
▁180	-3739
olves	-3740
▁things	-3741
▁actually	-3742
▁ess	-3743
oured	-3744
▁sixt	-3745
everal	-3746
▁bound	-3747
▁begins	-3748
▁accepted	-3749
▁tournament	-3750
▁performances	-3751
▁lib	-3752
ij	-3753
icip	-3754
▁Boy	-3755
uge	-3756
▁Lab	-3757
▁Care	-3758
▁repe	-3759
▁obtain	-3760
▁demonst	-3761
aped	-3762
utions	-3763
▁Corps	-3764
▁twenty	-3765
▁quality	-3766
ny	-3767
▁Fe	-3768
otes	-3769
▁Time	-3770
▁wing	-3771
▁Latin	-3772
▁forms	-3773
▁inside	-3774
▁torped	-3775
▁operation	-3776
▁Department	-3777
▁ge	-3778
▁Haw	-3779
▁blood	-3780
MS	-3781
▁DV	-3782
ylvan	-3783
▁Work	-3784
▁rough	-3785
▁contact	-3786
▁Congress	-3787
▁completely	-3788
▁i	-3789
lace	-3790
thes	-3791
▁Camb	-3792
▁Greek	-3793
oration	-3794
▁houses	-3795
▁impact	-3796
▁showed	-3797
▁journal	-3798
ani	-3799
enant	-3800
▁Acad	-3801
▁hero	-3802
▁calling	-3803
▁division	-3804
AF	-3805
ils	-3806
oint	-3807
▁Arch	-3808
▁Matt	-3809
ecause	-3810
▁older	-3811
▁Bridge	-3812
▁peaked	-3813
▁expected	-3814
▁greatest	-3815
▁starting	-3816
▁officials	-3817
▁Bu	-3818
▁search	-3819
▁Records	-3820
▁allowing	-3821
▁attempts	-3822
▁48	-3823
▁Sur	-3824
▁wall	-3825
▁Group	-3826
▁News	-3827
▁education	-3828
can	-3829
iro	-3830
▁du	-3831
bour	-3832
writ	-3833
▁Tem	-3834
▁portray	-3835
struction	-3836
▁ir	-3837
cers	-3838
▁amb	-3839
▁1991	-3840
▁Crit	-3841
▁kick	-3842
▁Secret	-3843
▁greater	-3844
▁powerful	-3845
▁wa	-3846
pass	-3847
▁hun	-3848
▁Fore	-3849
▁schol	-3850
▁efforts	-3851
▁parents	-3852
▁contrast	-3853
▁document	-3854
▁concluded	-3855
▁collection	-3856
▁designated	-3857
ette	-3858
▁Sov	-3859
▁paper	-3860
▁edition	-3861
de	-3862
▁sn	-3863
eter	-3864
▁Brad	-3865
▁Manc	-3866
▁China	-3867
▁trial	-3868
▁figures	-3869
▁distance	-3870
▁conducted	-3871
mark	-3872
▁spl	-3873
▁Turn	-3874
▁viewers	-3875
▁university	-3876
iano	-3877
▁DVD	-3878
▁Fer	-3879
▁lot	-3880
▁crow	-3881
▁Three	-3882
▁squadron	-3883
▁x	-3884
bed	-3885
▁Cr	-3886
istry	-3887
▁wear	-3888
▁sense	-3889
▁inches	-3890
▁widely	-3891
▁Another	-3892
▁becomes	-3893
▁husband	-3894
▁interse	-3895
▁approach	-3896
▁championship	-3897
ech	-3898
ims	-3899
ceeded	-3900
▁Their	-3901
▁captain	-3902
▁concert	-3903
▁Football	-3904
▁marriage	-3905
▁multiple	-3906
▁strength	-3907
arm	-3908
ych	-3909
under	-3910
unity	-3911
sembly	-3912
sylvan	-3913
▁reject	-3914
▁science	-3915
▁slightly	-3916
▁featuring	-3917
ips	-3918
vest	-3919
ledge	-3920
▁corn	-3921
▁Do	-3922
▁Gulf	-3923
▁chem	-3924
▁feder	-3925
▁situation	-3926
ba	-3927
cel	-3928
fort	-3929
▁Tenn	-3930
rative	-3931
▁tried	-3932
▁encoun	-3933
▁direction	-3934
lav	-3935
olk	-3936
▁Ox	-3937
alle	-3938
gian	-3939
ennon	-3940
ether	-3941
shire	-3942
▁activity	-3943
▁collabor	-3944
▁hospital	-3945
26	-3946
▁Us	-3947
▁rid	-3948
▁true	-3949
▁ability	-3950
▁Southern	-3951
iy	-3952
▁Gra	-3953
▁Arab	-3954
▁attra	-3955
▁Northern	-3956
nown	-3957
▁rating	-3958
▁struck	-3959
▁Pennsylvan	-3960
▁background	-3961
▁environment	-3962
30	-3963
▁Tour	-3964
▁continues	-3965
▁recommend	-3966
▁residents	-3967
gu	-3968
grad	-3969
▁exhib	-3970
▁offer	-3971
▁matches	-3972
▁Jennings	-3973
▁typically	-3974
emic	-3975
▁dut	-3976
▁pan	-3977
▁beat	-3978
▁Empire	-3979
▁opport	-3980
▁potential	-3981
▁Ban	-3982
ented	-3983
▁Bank	-3984
▁kept	-3985
▁Villa	-3986
▁plays	-3987
▁suppl	-3988
▁titled	-3989
▁appearances	-3990
wick	-3991
▁Spe	-3992
▁ple	-3993
▁core	-3994
▁mess	-3995
▁coach	-3996
▁share	-3997
▁Since	-3998
▁earth	-3999
▁genus	-4000
▁Martin	-4001
▁weight	-4002
▁Manchester	-4003
isk	-4004
▁qual	-4005
▁words	-4006
▁height	-4007
▁cyclone	-4008
▁companies	-4009
▁Bus	-4010
▁thous	-4011
▁matter	-4012
▁sought	-4013
▁fiction	-4014
▁managed	-4015
ieut	-4016
▁Den	-4017
▁Ins	-4018
▁wit	-4019
ordan	-4020
▁blue	-4021
▁dism	-4022
▁onto	-4023
▁vess	-4024
▁Major	-4025
▁Beyonc	-4026
▁Little	-4027
▁Row	-4028
ordin	-4029
▁Card	-4030
▁Pers	-4031
▁Liber	-4032
formula	-4033
▁Soviet	-4034
▁content	-4035
▁Victoria	-4036
▁incorpor	-4037
TV	-4038
mas	-4039
tell	-4040
▁Def	-4041
▁paid	-4042
▁piece	-4043
▁nuclear	-4044
▁northeast	-4045
▁touchdown	-4046
▁ur	-4047
aven	-4048
▁Che	-4049
▁Nin	-4050
▁magn	-4051
▁reign	-4052
▁arrest	-4053
▁strugg	-4054
▁resulting	-4055
▁mel	-4056
▁Cons	-4057
▁Chris	-4058
▁morning	-4059
▁relatively	-4060
▁So	-4061
▁Dis	-4062
▁adj	-4063
▁suc	-4064
▁doll	-4065
teenth	-4066
▁exped	-4067
▁couple	-4068
▁mainly	-4069
▁winter	-4070
▁Indiana	-4071
016	-4072
tar	-4073
▁55	-4074
▁Jul	-4075
▁Not	-4076
▁rule	-4077
▁tend	-4078
▁enemy	-4079
▁owned	-4080
▁walls	-4081
▁Captain	-4082
▁studies	-4083
▁promoted	-4084
▁primarily	-4085
II	-4086
aby	-4087
ety	-4088
ols	-4089
sen	-4090
▁fa	-4091
▁pun	-4092
▁say	-4093
▁tail	-4094
ressive	-4095
▁financial	-4096
AS	-4097
arts	-4098
▁Conn	-4099
▁fast	-4100
▁behav	-4101
▁acting	-4102
ee	-4103
221	-4104
0101	-4105
known	-4106
track	-4107
venth	-4108
▁Gree	-4109
▁peace	-4110
▁opt	-4111
rance	-4112
▁your	-4113
▁brown	-4114
▁legal	-4115
▁Francis	-4116
▁culture	-4117
▁maximum	-4118
▁interp	-4119
▁native	-4120
▁transl	-4121
▁seasons	-4122
▁newspaper	-4123
▁era	-4124
▁roy	-4125
▁Week	-4126
▁girl	-4127
▁Commit	-4128
ancy	-4129
anes	-4130
▁eigh	-4131
▁farm	-4132
▁iron	-4133
▁Museum	-4134
▁recent	-4135
▁follows	-4136
▁Hurricane	-4137
▁historical	-4138
▁Dom	-4139
▁Pit	-4140
▁controvers	-4141
▁64	-4142
ocks	-4143
resh	-4144
▁Van	-4145
▁1941	-4146
▁value	-4147
isation	-4148
▁Society	-4149
▁heavily	-4150
▁reports	-4151
▁criticized	-4152
gr	-4153
▁65	-4154
▁95	-4155
pose	-4156
▁Sant	-4157
ieutenant	-4158
wide	-4159
▁inh	-4160
▁oil	-4161
▁1945	-4162
▁Gard	-4163
▁imag	-4164
▁thir	-4165
▁alone	-4166
▁expressed	-4167
▁ultimately	-4168
BA	-4169
▁Ry	-4170
▁Sat	-4171
iated	-4172
▁Home	-4173
▁Series	-4174
ervation	-4175
▁connect	-4176
▁divided	-4177
▁Harrison	-4178
▁Arm	-4179
▁Ott	-4180
▁ast	-4181
house	-4182
▁passing	-4183
▁conflict	-4184
▁practice	-4185
mond	-4186
adium	-4187
oston	-4188
▁Light	-4189
▁today	-4190
▁portion	-4191
▁positions	-4192
yth	-4193
▁1986	-4194
▁rang	-4195
▁county	-4196
▁proved	-4197
▁Americans	-4198
uous	-4199
▁Tro	-4200
lines	-4201
ufact	-4202
ounded	-4203
essions	-4204
▁weaken	-4205
▁apparent	-4206
▁contemporary	-4207
ka	-4208
▁46	-4209
▁51	-4210
burg	-4211
▁Way	-4212
cting	-4213
press	-4214
while	-4215
▁albums	-4216
▁univers	-4217
▁occasion	-4218
eds	-4219
▁Var	-4220
iance	-4221
▁Book	-4222
▁says	-4223
▁Dream	-4224
▁armed	-4225
▁scale	-4226
▁federal	-4227
onym	-4228
pool	-4229
▁Colon	-4230
▁Radio	-4231
▁train	-4232
▁require	-4233
▁influenced	-4234
da	-4235
▁Lew	-4236
▁Mos	-4237
▁Sum	-4238
▁stone	-4239
vention	-4240
▁aspect	-4241
▁advance	-4242
▁weather	-4243
▁describes	-4244
eph	-4245
▁kg	-4246
rael	-4247
▁grew	-4248
antasy	-4249
▁Field	-4250
▁Catholic	-4251
▁explained	-4252
eda	-4253
▁Dam	-4254
▁activities	-4255
▁represented	-4256
When	-4257
etro	-4258
tein	-4259
▁Kent	-4260
orship	-4261
ricult	-4262
▁broke	-4263
▁crowd	-4264
▁homes	-4265
▁advant	-4266
▁murder	-4267
▁adopted	-4268
▁reaching	-4269
▁producers	-4270
▁officially	-4271
esse	-4272
▁Albert	-4273
▁Oxford	-4274
▁editor	-4275
▁spread	-4276
enz	-4277
avig	-4278
pton	-4279
▁Hal	-4280
▁mind	-4281
▁color	-4282
▁naval	-4283
▁Lennon	-4284
▁argued	-4285
▁instit	-4286
▁strike	-4287
▁Manning	-4288
add	-4289
▁tur	-4290
ersey	-4291
ishop	-4292
▁Long	-4293
▁seek	-4294
▁avoid	-4295
▁chosen	-4296
▁consec	-4297
▁artists	-4298
▁debuted	-4299
▁Commission	-4300
ains	-4301
uses	-4302
▁aired	-4303
▁conne	-4304
▁Boston	-4305
▁Middle	-4306
▁Academy	-4307
▁innings	-4308
▁possibly	-4309
▁stations	-4310
cul	-4311
▁unc	-4312
▁Dire	-4313
▁prin	-4314
▁spot	-4315
▁image	-4316
▁mechan	-4317
▁defense	-4318
▁problem	-4319
▁shortly	-4320
▁Pennsylvania	-4321
gs	-4322
lers	-4323
▁pal	-4324
▁1920	-4325
▁cust	-4326
▁emph	-4327
▁gained	-4328
▁element	-4329
▁operated	-4330
▁Committee	-4331
▁Entertain	-4332
ema	-4333
▁Po	-4334
▁Bet	-4335
aling	-4336
▁Hero	-4337
▁sust	-4338
▁Israel	-4339
▁Service	-4340
▁machine	-4341
▁property	-4342
▁UN	-4343
▁vo	-4344
▁Add	-4345
▁Kar	-4346
▁Win	-4347
▁wild	-4348
ussion	-4349
▁lives	-4350
▁sources	-4351
▁Ram	-4352
ushed	-4353
▁doub	-4354
▁pilot	-4355
▁launch	-4356
▁toward	-4357
▁maintained	-4358
▁hip	-4359
miral	-4360
heless	-4361
▁royal	-4362
▁sixth	-4363
▁trees	-4364
▁sexual	-4365
▁capture	-4366
▁workers	-4367
An	-4368
irm	-4369
▁Sa	-4370
▁ox	-4371
bury	-4372
▁cit	-4373
▁sac	-4374
▁1944	-4375
▁Bell	-4376
▁Jones	-4377
▁premi	-4378
▁advent	-4379
▁negative	-4380
▁Fox	-4381
▁agg	-4382
▁fer	-4383
▁Carl	-4384
▁webs	-4385
▁twice	-4386
▁prepar	-4387
▁alongside	-4388
▁Conference	-4389
ras	-4390
adel	-4391
ograp	-4392
▁Carey	-4393
▁Class	-4394
▁cases	-4395
▁doing	-4396
▁concent	-4397
▁foreign	-4398
▁student	-4399
▁Missouri	-4400
▁sequence	-4401
▁independent	-4402
pic	-4403
▁43	-4404
▁Nic	-4405
▁Spr	-4406
▁Base	-4407
▁Civil	-4408
▁Ocean	-4409
▁silver	-4410
▁ancient	-4411
▁combined	-4412
▁manufact	-4413
ux	-4414
▁Sar	-4415
▁hyd	-4416
▁flying	-4417
▁spirit	-4418
▁termin	-4419
▁unknown	-4420
▁economic	-4421
▁nominated	-4422
ads	-4423
iful	-4424
▁Han	-4425
▁actor	-4426
▁coming	-4427
▁visited	-4428
▁withdraw	-4429
▁Aut	-4430
▁Spok	-4431
▁Stone	-4432
▁fully	-4433
▁System	-4434
▁spring	-4435
▁waters	-4436
ications	-4437
▁causing	-4438
▁selling	-4439
▁weapons	-4440
▁Scotland	-4441
▁physical	-4442
▁condition	-4443
▁northwest	-4444
▁frequently	-4445
▁subsequent	-4446
ora	-4447
izes	-4448
▁600	-4449
▁dog	-4450
▁Avenue	-4451
▁column	-4452
▁master	-4453
▁confirmed	-4454
bur	-4455
ube	-4456
rong	-4457
▁Sil	-4458
ading	-4459
▁1942	-4460
▁inch	-4461
▁tells	-4462
▁specim	-4463
▁setting	-4464
▁achieved	-4465
▁Lo	-4466
▁Are	-4467
▁Hon	-4468
▁Water	-4469
▁Jordan	-4470
▁charge	-4471
▁Mountain	-4472
▁150	-4473
▁cert	-4474
▁sout	-4475
ourney	-4476
Station	-4477
▁narrow	-4478
cend	-4479
▁mis	-4480
▁Live	-4481
▁comes	-4482
▁attrib	-4483
▁growing	-4484
▁prominent	-4485
▁authorities	-4486
▁headquarters	-4487
▁Entertainment	-4488
▁Gil	-4489
▁sle	-4490
▁Jeff	-4491
▁Moore	-4492
▁habit	-4493
ategory	-4494
▁comedy	-4495
▁powers	-4496
▁simply	-4497
Although	-4498
BS	-4499
mony	-4500
▁Chief	-4501
▁Because	-4502
▁Eastern	-4503
▁letters	-4504
▁Infantry	-4505
▁66	-4506
▁bit	-4507
▁boy	-4508
▁laid	-4509
▁throw	-4510
▁billion	-4511
orter	-4512
uting	-4513
otional	-4514
▁border	-4515
▁passes	-4516
▁animals	-4517
▁disease	-4518
▁platform	-4519
ada	-4520
2212	-4521
odia	-4522
▁eye	-4523
▁hor	-4524
eline	-4525
▁Rose	-4526
▁Guard	-4527
▁compl	-4528
▁honor	-4529
▁motor	-4530
▁emphas	-4531
▁remark	-4532
▁identified	-4533
▁surrounding	-4534
rel	-4535
▁182	-4536
▁freeway	-4537
▁results	-4538
▁retired	-4539
▁contained	-4540
enge	-4541
resp	-4542
eller	-4543
olved	-4544
▁Dutch	-4545
▁senior	-4546
▁theory	-4547
▁dropped	-4548
▁mentioned	-4549
▁Pan	-4550
▁bey	-4551
▁seg	-4552
▁bass	-4553
▁neut	-4554
▁resc	-4555
▁sail	-4556
▁roles	-4557
unction	-4558
▁growth	-4559
▁leaders	-4560
▁systems	-4561
▁District	-4562
▁electric	-4563
▁management	-4564
▁rh	-4565
▁ut	-4566
▁bom	-4567
▁gar	-4568
achel	-4569
▁Good	-4570
▁Final	-4571
▁enter	-4572
▁Castro	-4573
▁advert	-4574
▁analys	-4575
▁bacter	-4576
▁beyond	-4577
▁granted	-4578
▁authority	-4579
▁ps	-4580
▁Jon	-4581
urban	-4582
▁1987	-4583
▁Fair	-4584
vement	-4585
▁sport	-4586
▁opposed	-4587
▁abandoned	-4588
▁56	-4589
▁Mul	-4590
▁hol	-4591
amese	-4592
estic	-4593
▁injury	-4594
▁moment	-4595
▁herself	-4596
▁measure	-4597
▁regarded	-4598
▁soundtrack	-4599
▁individuals	-4600
By	-4601
▁dyn	-4602
There	-4603
isters	-4604
istics	-4605
▁batter	-4606
▁versions	-4607
▁Vietnamese	-4608
ding	-4609
rant	-4610
aming	-4611
▁hair	-4612
▁pros	-4613
▁solo	-4614
▁Fleet	-4615
▁expan	-4616
▁label	-4617
▁newly	-4618
▁cannot	-4619
▁Williams	-4620
azz	-4621
▁Dar	-4622
▁basis	-4623
▁spect	-4624
ologist	-4625
▁awards	-4626
▁claims	-4627
▁yellow	-4628
unte	-4629
▁Holly	-4630
▁recon	-4631
▁Studios	-4632
▁college	-4633
▁contest	-4634
▁encoura	-4635
▁schedul	-4636
▁equipment	-4637
ias	-4638
▁76	-4639
▁Tim	-4640
▁Step	-4641
illery	-4642
▁green	-4643
▁negot	-4644
▁torpedo	-4645
▁executive	-4646
▁historian	-4647
▁administration	-4648
ahir	-4649
▁elev	-4650
▁sens	-4651
▁step	-4652
▁ahead	-4653
▁guest	-4654
▁Columb	-4655
▁archae	-4656
▁degree	-4657
▁orders	-4658
▁places	-4659
▁supply	-4660
▁serving	-4661
▁straight	-4662
gend	-4663
arian	-4664
athan	-4665
▁belong	-4666
▁illust	-4667
▁Montana	-4668
▁singles	-4669
▁expansion	-4670
ura	-4671
▁Lu	-4672
umes	-4673
▁177	-4674
▁Hum	-4675
▁Kenn	-4676
▁dete	-4677
▁here	-4678
ocated	-4679
▁athlet	-4680
▁bodies	-4681
▁deliver	-4682
▁receive	-4683
▁Government	-4684
uate	-4685
▁Fin	-4686
▁rom	-4687
▁1939	-4688
▁nest	-4689
▁dance	-4690
▁kilomet	-4691
▁affected	-4692
▁returning	-4693
▁178	-4694
break	-4695
ilies	-4696
ocked	-4697
▁1985	-4698
▁fear	-4699
▁piano	-4700
▁serve	-4701
▁target	-4702
▁accompan	-4703
lie	-4704
town	-4705
▁BBC	-4706
▁wor	-4707
ivity	-4708
▁1989	-4709
▁Land	-4710
▁feed	-4711
▁rear	-4712
▁sets	-4713
▁Senate	-4714
▁unique	-4715
▁Admiral	-4716
▁arrange	-4717
▁reference	-4718
haps	-4719
otic	-4720
▁Line	-4721
▁tall	-4722
▁faced	-4723
▁fresh	-4724
▁compar	-4725
▁fellow	-4726
▁paralle	-4727
▁advantage	-4728
▁consisted	-4729
agn	-4730
bon	-4731
▁Tod	-4732
▁Whe	-4733
▁1988	-4734
ienced	-4735
▁campus	-4736
▁knowledge	-4737
gal	-4738
▁cab	-4739
illing	-4740
▁rival	-4741
▁Joseph	-4742
▁choice	-4743
▁cities	-4744
▁condom	-4745
▁Spokane	-4746
▁district	-4747
▁recently	-4748
▁formation	-4749
02	-4750
ca	-4751
aly	-4752
ova	-4753
▁swe	-4754
fully	-4755
▁Bowl	-4756
▁Lady	-4757
▁Ross	-4758
▁movie	-4759
▁broken	-4760
▁pieces	-4761
▁agreement	-4762
▁treatment	-4763
▁structures	-4764
▁53	-4765
apore	-4766
▁opin	-4767
ounger	-4768
▁Lewis	-4769
▁Mount	-4770
▁Night	-4771
▁draft	-4772
▁fruit	-4773
▁types	-4774
▁titles	-4775
▁Olympic	-4776
▁request	-4777
▁52	-4778
▁FI	-4779
▁drama	-4780
respond	-4781
▁compla	-4782
▁assault	-4783
▁governor	-4784
▁dedicated	-4785
▁consecutive	-4786
pot	-4787
▁175	-4788
▁Pop	-4789
▁fair	-4790
ardine	-4791
ricket	-4792
▁Command	-4793
▁incident	-4794
▁necessary	-4795
oty	-4796
ider	-4797
room	-4798
▁Luc	-4799
▁Coast	-4800
▁camer	-4801
▁shall	-4802
▁shape	-4803
▁surre	-4804
▁Jewish	-4805
▁Though	-4806
▁street	-4807
▁therefore	-4808
▁transform	-4809
▁interchange	-4810
iced	-4811
icts	-4812
itan	-4813
▁Bos	-4814
▁chose	-4815
▁floor	-4816
▁shell	-4817
utation	-4818
▁planet	-4819
▁prefer	-4820
▁Through	-4821
▁perfect	-4822
▁commonly	-4823
▁rejected	-4824
RA	-4825
▁Di	-4826
appe	-4827
imal	-4828
▁Jer	-4829
attle	-4830
▁Mike	-4831
▁Sund	-4832
stream	-4833
▁escape	-4834
▁Governor	-4835
▁85	-4836
▁Mid	-4837
▁unp	-4838
▁Oliv	-4839
▁deck	-4840
▁ends	-4841
etball	-4842
▁Album	-4843
▁oppon	-4844
▁surpr	-4845
▁determined	-4846
▁Of	-4847
more	-4848
osed	-4849
▁Heb	-4850
▁1984	-4851
▁Conf	-4852
▁Spec	-4853
lusion	-4854
▁grass	-4855
▁sports	-4856
▁pattern	-4857
▁seconds	-4858
▁website	-4859
▁Republican	-4860
isf	-4861
osa	-4862
iami	-4863
▁Max	-4864
▁eas	-4865
▁didn	-4866
actions	-4867
▁perman	-4868
▁Vietnam	-4869
▁arrival	-4870
▁Anderson	-4871
▁progress	-4872
▁projects	-4873
▁extensive	-4874
▁instrument	-4875
ola	-4876
▁lb	-4877
phia	-4878
rees	-4879
▁task	-4880
▁Spain	-4881
▁adapt	-4882
▁visual	-4883
adelphia	-4884
Following	-4885
▁cultural	-4886
▁Christmas	-4887
▁containing	-4888
▁controlled	-4889
▁experiment	-4890
elve	-4891
isers	-4892
▁1964	-4893
▁drive	-4894
▁Polish	-4895
iverpool	-4896
▁nothing	-4897
▁accident	-4898
▁94	-4899
etts	-4900
lder	-4901
inson	-4902
▁acad	-4903
▁weak	-4904
itable	-4905
▁Board	-4906
▁Young	-4907
▁Histor	-4908
▁explos	-4909
▁breeding	-4910
▁creation	-4911
▁correspond	-4912
heim	-4913
▁Bor	-4914
▁Les	-4915
▁bud	-4916
acity	-4917
ctors	-4918
▁Chap	-4919
▁Zahir	-4920
▁ideas	-4921
▁branch	-4922
▁humans	-4923
▁leaves	-4924
▁themes	-4925
▁Singapore	-4926
▁recognized	-4927
▁organization	-4928
oen	-4929
uzz	-4930
ners	-4931
▁mob	-4932
chest	-4933
phoon	-4934
▁1914	-4935
atures	-4936
▁extend	-4937
▁computer	-4938
▁PlayStation	-4939
ini	-4940
rat	-4941
▁Gi	-4942
With	-4943
iate	-4944
▁Dun	-4945
▁Lar	-4946
▁dru	-4947
▁fly	-4948
▁Bull	-4949
▁Cont	-4950
▁Wind	-4951
▁boat	-4952
▁pack	-4953
ancing	-4954
▁Harry	-4955
▁benef	-4956
▁gives	-4957
▁Valley	-4958
▁famous	-4959
▁resist	-4960
▁Croatia	-4961
▁creating	-4962
▁suggests	-4963
▁highlight	-4964
rol	-4965
anda	-4966
glas	-4967
▁Pen	-4968
ental	-4969
▁Show	-4970
ashion	-4971
▁guard	-4972
▁losing	-4973
▁Nations	-4974
▁Several	-4975
▁killing	-4976
▁looking	-4977
▁rainfall	-4978
▁effective	-4979
▁participated	-4980
He	-4981
hi	-4982
orus	-4983
▁gas	-4984
▁More	-4985
▁risk	-4986
▁Storm	-4987
▁Guitar	-4988
▁acquired	-4989
▁invasion	-4990
▁Liverpool	-4991
▁commissioned	-4992
▁97	-4993
▁Far	-4994
▁Dest	-4995
▁Hung	-4996
▁Kore	-4997
▁Post	-4998
▁What	-4999
▁dang	-5000
▁data	-5001
▁mile	-5002
▁Miami	-5003
▁corre	-5004
▁prompt	-5005
▁actress	-5006
▁agricult	-5007
▁organized	-5008
▁54	-5009
clus	-5010
▁700	-5011
▁repl	-5012
▁pitch	-5013
▁speak	-5014
▁actors	-5015
▁deploy	-5016
▁relief	-5017
▁believe	-5018
▁expanded	-5019
▁Philadelphia	-5020
po	-5021
▁Mel	-5022
▁Run	-5023
▁seat	-5024
▁citiz	-5025
▁males	-5026
▁Andrew	-5027
▁simple	-5028
▁briefly	-5029
ev	-5030
ji	-5031
ipl	-5032
nest	-5033
▁mic	-5034
▁pet	-5035
▁pip	-5036
▁eyes	-5037
ifying	-5038
▁calls	-5039
▁motion	-5040
▁trying	-5041
▁wolves	-5042
▁Addition	-5043
▁Festival	-5044
▁Revolution	-5045
aces	-5046
iana	-5047
llig	-5048
▁Ari	-5049
▁aid	-5050
ishes	-5051
itled	-5052
worth	-5053
▁Four	-5054
▁frag	-5055
▁defin	-5056
▁defined	-5057
▁purpose	-5058
▁provides	-5059
▁800	-5060
▁Rom	-5061
▁Tri	-5062
▁fat	-5063
▁try	-5064
▁mole	-5065
▁pict	-5066
▁tank	-5067
▁beaut	-5068
▁thing	-5069
▁filmed	-5070
▁plants	-5071
ographer	-5072
▁Tropical	-5073
▁flooding	-5074
▁intellig	-5075
▁expedition	-5076
TC	-5077
lab	-5078
uct	-5079
▁Rap	-5080
▁Homer	-5081
▁cells	-5082
ocratic	-5083
▁casual	-5084
▁Further	-5085
▁medical	-5086
▁seventh	-5087
▁worldwide	-5088
yr	-5089
▁Ka	-5090
mann	-5091
▁Joe	-5092
▁NBA	-5093
▁Pre	-5094
water	-5095
▁Each	-5096
▁fict	-5097
▁fired	-5098
▁losses	-5099
▁policy	-5100
▁Jardine	-5101
▁Theatre	-5102
▁declined	-5103
▁publication	-5104
iva	-5105
▁Jo	-5106
pson	-5107
ordon	-5108
▁mist	-5109
▁strik	-5110
▁severe	-5111
▁volume	-5112
▁roughly	-5113
▁entirely	-5114
▁repeated	-5115
▁Oh	-5116
▁Arg	-5117
▁HMS	-5118
▁auth	-5119
▁trav	-5120
▁finds	-5121
▁starts	-5122
▁programs	-5123
▁household	-5124
▁parliament	-5125
▁successfully	-5126
▁SR	-5127
asty	-5128
While	-5129
▁coal	-5130
▁Italy	-5131
▁viewed	-5132
▁digital	-5133
▁landing	-5134
▁railway	-5135
▁families	-5136
▁Cambridge	-5137
▁criticism	-5138
▁increasingly	-5139
zy	-5140
▁Mat	-5141
▁Barb	-5142
▁Bois	-5143
▁save	-5144
▁boats	-5145
▁react	-5146
▁singing	-5147
▁witness	-5148
▁existing	-5149
▁intensity	-5150
elsh	-5151
gers	-5152
▁Mir	-5153
ients	-5154
▁1968	-5155
▁Fred	-5156
▁Test	-5157
▁heard	-5158
▁baseball	-5159
▁entrance	-5160
▁Institute	-5161
▁kilometres	-5162
▁technology	-5163
▁NH	-5164
▁ow	-5165
lsen	-5166
pread	-5167
rence	-5168
▁Like	-5169
▁Hawai	-5170
▁carry	-5171
▁council	-5172
eno	-5173
ses	-5174
▁Die	-5175
▁Pet	-5176
▁row	-5177
ulate	-5178
verse	-5179
▁evac	-5180
▁indu	-5181
▁cited	-5182
▁Engine	-5183
▁Hebrew	-5184
▁astron	-5185
standing	-5186
▁females	-5187
idespread	-5188
▁committee	-5189
▁purchased	-5190
▁contributed	-5191
▁experienced	-5192
▁FA	-5193
▁Tw	-5194
▁Ash	-5195
▁Ele	-5196
▁poly	-5197
▁wolf	-5198
▁occas	-5199
▁budget	-5200
▁Project	-5201
▁closely	-5202
▁secondary	-5203
▁176	-5204
▁Gir	-5205
▁Even	-5206
▁Once	-5207
▁Team	-5208
▁acid	-5209
▁goes	-5210
ilding	-5211
▁Child	-5212
▁Douglas	-5213
▁article	-5214
▁failure	-5215
▁opposition	-5216
▁performing	-5217
▁Ret	-5218
▁ice	-5219
antic	-5220
essed	-5221
inity	-5222
itian	-5223
▁wick	-5224
▁sites	-5225
▁filled	-5226
▁reflect	-5227
▁anything	-5228
▁standing	-5229
▁supporting	-5230
omew	-5231
▁Mod	-5232
intin	-5233
▁1918	-5234
▁Prem	-5235
▁agent	-5236
▁roads	-5237
▁Daniel	-5238
▁suppor	-5239
▁distingu	-5240
▁prepared	-5241
▁conference	-5242
▁57	-5243
icks	-5244
▁Mas	-5245
▁sun	-5246
▁arms	-5247
▁cool	-5248
▁hits	-5249
▁Steve	-5250
▁arran	-5251
▁daily	-5252
▁buried	-5253
▁ceremony	-5254
▁earliest	-5255
▁improved	-5256
▁security	-5257
▁accompanied	-5258
erc	-5259
pse	-5260
thur	-5261
▁bul	-5262
▁Life	-5263
hedral	-5264
▁Welsh	-5265
▁delay	-5266
▁castle	-5267
▁Airport	-5268
▁Imperial	-5269
▁missions	-5270
▁locations	-5271
mal	-5272
omy	-5273
▁MD	-5274
▁bra	-5275
▁Gilbert	-5276
▁connected	-5277
▁currently	-5278
▁facilities	-5279
▁settlement	-5280
SB	-5281
▁Ra	-5282
ayer	-5283
▁Vol	-5284
apers	-5285
▁1943	-5286
▁1972	-5287
ampion	-5288
ceived	-5289
▁Prime	-5290
▁Summer	-5291
▁responded	-5292
hat	-5293
▁Jam	-5294
▁Ten	-5295
▁tim	-5296
asure	-5297
▁alle	-5298
▁laws	-5299
▁note	-5300
▁rend	-5301
▁unus	-5302
uccess	-5303
▁Short	-5304
▁Office	-5305
▁animal	-5306
▁Roberts	-5307
According	-5308
▁offensive	-5309
gn	-5310
lam	-5311
nel	-5312
▁73	-5313
▁120	-5314
▁Raf	-5315
▁egg	-5316
▁pup	-5317
▁bott	-5318
▁chair	-5319
▁paint	-5320
▁Scully	-5321
▁oldest	-5322
▁safety	-5323
▁symbol	-5324
▁Ottoman	-5325
▁dismiss	-5326
tor	-5327
agle	-5328
▁Jin	-5329
▁tru	-5330
ansas	-5331
essee	-5332
ockey	-5333
▁1969	-5334
▁1971	-5335
▁Norm	-5336
bridge	-5337
▁lands	-5338
▁quite	-5339
▁towns	-5340
▁Indust	-5341
▁fought	-5342
▁reform	-5343
▁twelve	-5344
▁wounded	-5345
essor	-5346
iling	-5347
▁1974	-5348
▁Swed	-5349
▁drew	-5350
▁conqu	-5351
▁mouth	-5352
▁McCain	-5353
▁allows	-5354
▁younger	-5355
▁advanced	-5356
▁capacity	-5357
▁products	-5358
▁shooting	-5359
▁scheduled	-5360
For	-5361
▁Jud	-5362
▁Lee	-5363
▁enl	-5364
▁bask	-5365
iments	-5366
▁belief	-5367
▁fashion	-5368
▁occupied	-5369
▁artillery	-5370
arp	-5371
lim	-5372
▁67	-5373
▁1916	-5374
▁Down	-5375
▁Serb	-5376
▁tree	-5377
▁trip	-5378
▁split	-5379
▁museum	-5380
ographic	-5381
▁perhaps	-5382
▁employed	-5383
▁fictional	-5384
▁literature	-5385
▁widespread	-5386
10	-5387
zep	-5388
eman	-5389
rete	-5390
▁Cra	-5391
▁ans	-5392
▁fan	-5393
▁nin	-5394
▁pul	-5395
burgh	-5396
▁Orig	-5397
▁phil	-5398
▁Early	-5399
▁hired	-5400
pective	-5401
rations	-5402
▁Commun	-5403
▁Assembly	-5404
▁collected	-5405
▁providing	-5406
▁"<	-5407
▁96	-5408
▁dy	-5409
▁Rol	-5410
▁1915	-5411
▁Bart	-5412
▁Writ	-5413
▁isol	-5414
▁nucle	-5415
▁Scient	-5416
▁charts	-5417
▁Tennessee	-5418
lan	-5419
war	-5420
chers	-5421
▁Form	-5422
▁cold	-5423
▁edge	-5424
▁pric	-5425
▁comic	-5426
▁hydro	-5427
▁Gordon	-5428
▁deaths	-5429
▁admitted	-5430
▁gameplay	-5431
▁identity	-5432
▁producing	-5433
▁significantly	-5434
▁Burn	-5435
▁Prof	-5436
▁Stan	-5437
▁prem	-5438
▁rise	-5439
▁labor	-5440
▁Before	-5441
▁Tintin	-5442
▁images	-5443
GN	-5444
▁Sy	-5445
anny	-5446
▁Men	-5447
▁why	-5448
stone	-5449
▁Drag	-5450
▁fuel	-5451
▁bands	-5452
▁seems	-5453
▁Common	-5454
poration	-5455
▁proceed	-5456
▁regions	-5457
▁constant	-5458
▁descript	-5459
▁sustained	-5460
Ch	-5461
phy	-5462
zer	-5463
▁Kes	-5464
unnel	-5465
▁1973	-5466
▁1979	-5467
▁Wild	-5468
▁knots	-5469
▁store	-5470
▁speech	-5471
▁details	-5472
▁analysis	-5473
▁gradually	-5474
▁receiving	-5475
▁importance	-5476
▁72	-5477
▁Ly	-5478
▁Bla	-5479
▁Sus	-5480
▁bat	-5481
▁ven	-5482
▁normal	-5483
▁temple	-5484
▁Colonel	-5485
▁engaged	-5486
▁vehicles	-5487
▁Secretary	-5488
FA	-5489
era	-5490
oir	-5491
rif	-5492
vis	-5493
mosp	-5494
▁End	-5495
▁Pot	-5496
▁Top	-5497
▁1975	-5498
▁Sand	-5499
▁Upon	-5500
former	-5501
▁drawn	-5502
▁dream	-5503
▁medal	-5504
▁worth	-5505
▁achieve	-5506
▁protected	-5507
▁opportunity	-5508
awa	-5509
▁62	-5510
hetic	-5511
ieval	-5512
tendo	-5513
ubble	-5514
▁1947	-5515
▁sand	-5516
▁sort	-5517
ivered	-5518
▁crime	-5519
▁faith	-5520
▁genre	-5521
▁Public	-5522
▁express	-5523
▁finding	-5524
▁Magazine	-5525
▁substant	-5526
▁temperature	-5527
▁PC	-5528
ilton	-5529
inton	-5530
▁Cuba	-5531
▁dial	-5532
▁hall	-5533
▁soft	-5534
▁rules	-5535
▁strengt	-5536
▁Nintendo	-5537
▁consists	-5538
▁credited	-5539
▁sections	-5540
▁defensive	-5541
ua	-5542
▁Ye	-5543
outs	-5544
ware	-5545
wise	-5546
▁Kim	-5547
▁Pla	-5548
aware	-5549
▁1956	-5550
▁1981	-5551
▁Duke	-5552
▁prey	-5553
▁tact	-5554
▁Never	-5555
▁Press	-5556
▁depth	-5557
▁exclus	-5558
▁survey	-5559
▁enjoyed	-5560
▁resident	-5561
▁centuries	-5562
▁delivered	-5563
▁DNA	-5564
▁dry	-5565
abeth	-5566
iable	-5567
▁1946	-5568
▁Mean	-5569
ection	-5570
▁equal	-5571
▁psych	-5572
▁table	-5573
▁turns	-5574
osaurus	-5575
▁People	-5576
▁Turner	-5577
▁adding	-5578
▁caught	-5579
▁headed	-5580
▁Federer	-5581
▁learned	-5582
▁notable	-5583
▁showing	-5584
▁distinct	-5585
One	-5586
▁Vi	-5587
▁Sle	-5588
▁1967	-5589
▁1976	-5590
▁Stew	-5591
▁cong	-5592
▁gods	-5593
unicip	-5594
▁Chart	-5595
▁steel	-5596
▁Mulder	-5597
▁shared	-5598
▁focused	-5599
▁journey	-5600
▁connection	-5601
ja	-5602
▁Bol	-5603
▁ign	-5604
▁1953	-5605
▁Nash	-5606
▁Ryan	-5607
▁firm	-5608
▁rebu	-5609
▁wave	-5610
▁Broad	-5611
▁dated	-5612
▁Rachel	-5613
▁estate	-5614
▁shaped	-5615
▁undert	-5616
▁teacher	-5617
▁regarding	-5618
oln	-5619
set	-5620
▁81	-5621
▁AD	-5622
▁Ul	-5623
aved	-5624
onic	-5625
▁Mur	-5626
▁Ven	-5627
onder	-5628
▁Asia	-5629
▁Portug	-5630
▁destru	-5631
▁writes	-5632
▁Russian	-5633
▁library	-5634
▁rapidly	-5635
▁neighbor	-5636
▁converted	-5637
▁everything	-5638
▁reputation	-5639
▁aer	-5640
▁lin	-5641
tical	-5642
▁1965	-5643
▁Also	-5644
▁Sega	-5645
▁hang	-5646
▁roof	-5647
▁salt	-5648
▁semi	-5649
▁somew	-5650
▁disapp	-5651
▁retire	-5652
▁filming	-5653
▁islands	-5654
▁reading	-5655
▁landfall	-5656
▁survived	-5657
▁industrial	-5658
oma	-5659
▁arc	-5660
▁dim	-5661
cture	-5662
erset	-5663
▁Bern	-5664
▁Jane	-5665
▁Wolf	-5666
▁vote	-5667
avalry	-5668
▁Order	-5669
▁urban	-5670
▁views	-5671
▁concer	-5672
▁finish	-5673
▁stages	-5674
▁mounted	-5675
▁Independ	-5676
▁domestic	-5677
▁entertain	-5678
▁technical	-5679
▁populations	-5680
ika	-5681
reme	-5682
roll	-5683
▁160	-5684
▁Gib	-5685
▁Jac	-5686
emies	-5687
▁Andy	-5688
▁Arts	-5689
▁ring	-5690
▁Among	-5691
▁brand	-5692
▁exact	-5693
▁liber	-5694
▁phase	-5695
▁Newton	-5696
▁defence	-5697
▁pitched	-5698
▁entitled	-5699
▁revolution	-5700
eles	-5701
▁bal	-5702
▁cra	-5703
▁nor	-5704
▁Video	-5705
▁items	-5706
▁Jersey	-5707
▁noting	-5708
▁submar	-5709
▁suffic	-5710
▁developing	-5711
met	-5712
▁Ba	-5713
▁Ca	-5714
ptun	-5715
▁Ger	-5716
▁Eliz	-5717
▁adap	-5718
▁glob	-5719
▁sole	-5720
iminal	-5721
▁Medal	-5722
▁dates	-5723
▁elimin	-5724
▁expect	-5725
▁favour	-5726
▁aspects	-5727
▁Mit	-5728
rates	-5729
state	-5730
▁1958	-5731
▁roll	-5732
mented	-5733
▁spons	-5734
▁atmosp	-5735
entially	-5736
▁Matthew	-5737
▁emperor	-5738
▁Olympics	-5739
▁constitution	-5740
bb	-5741
bar	-5742
och	-5743
pet	-5744
▁69	-5745
▁CD	-5746
okes	-5747
▁IGN	-5748
▁Sud	-5749
▁fur	-5750
inary	-5751
▁1948	-5752
▁virt	-5753
incoln	-5754
▁Clark	-5755
▁Sound	-5756
▁immig	-5757
▁Oldham	-5758
▁manner	-5759
▁Stephen	-5760
▁attract	-5761
▁protect	-5762
▁reasons	-5763
▁crossing	-5764
▁99	-5765
▁aim	-5766
▁ways	-5767
▁cancer	-5768
▁holding	-5769
▁typical	-5770
▁indicated	-5771
ds	-5772
eg	-5773
amin	-5774
very	-5775
amber	-5776
▁1977	-5777
▁Band	-5778
▁Budd	-5779
ushing	-5780
agonist	-5781
▁compon	-5782
▁franch	-5783
▁occurs	-5784
▁offers	-5785
▁parallel	-5786
asa	-5787
cope	-5788
ixed	-5789
▁130	-5790
idden	-5791
▁1919	-5792
▁1963	-5793
▁Elect	-5794
izations	-5795
▁stopped	-5796
▁Scottish	-5797
▁battalion	-5798
▁protection	-5799
▁alternative	-5800
lik	-5801
▁Av	-5802
▁IV	-5803
ugos	-5804
▁rot	-5805
▁unf	-5806
bound	-5807
▁Allied	-5808
▁eighth	-5809
▁Lincoln	-5810
▁Olivier	-5811
▁derived	-5812
▁unsuccess	-5813
▁scientific	-5814
aka	-5815
ees	-5816
sey	-5817
yer	-5818
▁Fam	-5819
▁tow	-5820
▁von	-5821
ember	-5822
▁1982	-5823
▁rated	-5824
iations	-5825
▁bought	-5826
▁instru	-5827
▁preced	-5828
▁renamed	-5829
ico	-5830
▁ERA	-5831
ingly	-5832
▁1937	-5833
▁Balt	-5834
▁door	-5835
▁mart	-5836
▁Songs	-5837
▁entry	-5838
theless	-5839
▁Review	-5840
▁Express	-5841
▁economy	-5842
▁existence	-5843
▁59	-5844
cies	-5845
ixon	-5846
▁Ell	-5847
nesota	-5848
▁Marsh	-5849
▁funds	-5850
▁giant	-5851
issance	-5852
▁product	-5853
▁musicians	-5854
▁approached	-5855
▁popularity	-5856
▁introduction	-5857
>"}	-5858
don	-5859
mun	-5860
▁Ut	-5861
ican	-5862
omic	-5863
opes	-5864
▁Ast	-5865
▁Due	-5866
▁Fre	-5867
▁lic	-5868
▁Hard	-5869
▁knew	-5870
▁Chron	-5871
▁hotel	-5872
▁navig	-5873
▁decade	-5874
▁denied	-5875
▁Instead	-5876
▁missing	-5877
▁session	-5878
▁Croatian	-5879
▁Somerset	-5880
▁selection	-5881
hou	-5882
ibl	-5883
iot	-5884
▁py	-5885
agan	-5886
▁Naz	-5887
▁Ros	-5888
▁Sub	-5889
ician	-5890
▁1917	-5891
▁Corn	-5892
▁crop	-5893
▁flat	-5894
▁ones	-5895
▁About	-5896
▁Argent	-5897
▁triang	-5898
▁getting	-5899
▁opinion	-5900
▁watched	-5901
▁Minnesota	-5902
▁rob	-5903
▁tied	-5904
▁torn	-5905
▁penal	-5906
▁chance	-5907
▁serves	-5908
▁reaction	-5909
▁candidate	-5910
▁consisting	-5911
▁leadership	-5912
▁93	-5913
undy	-5914
unior	-5915
▁1978	-5916
▁Jean	-5917
▁erup	-5918
inking	-5919
▁Brian	-5920
▁Mario	-5921
▁Phoen	-5922
▁absor	-5923
▁online	-5924
▁poetry	-5925
▁supplies	-5926
▁Lieutenant	-5927
mod	-5928
uan	-5929
▁Lib	-5930
▁Rod	-5931
▁Tam	-5932
▁sam	-5933
▁1957	-5934
▁1966	-5935
▁skin	-5936
▁Michel	-5937
▁dissip	-5938
heastern	-5939
▁Clinton	-5940
▁channel	-5941
▁objects	-5942
▁parties	-5943
▁ratings	-5944
▁arranged	-5945
▁weakened	-5946
crib	-5947
▁Bon	-5948
▁Jes	-5949
▁MTV	-5950
▁eth	-5951
oting	-5952
▁1983	-5953
▁Gram	-5954
▁Main	-5955
▁coll	-5956
▁Paral	-5957
▁acres	-5958
olished	-5959
▁affect	-5960
▁orchest	-5961
▁obtained	-5962
▁scholars	-5963
▁Hollywood	-5964
▁casualties	-5965
▁Su	-5966
▁Dra	-5967
▁Moh	-5968
▁bed	-5969
▁Howe	-5970
▁Mars	-5971
▁dens	-5972
▁Honor	-5973
▁Space	-5974
▁clubs	-5975
▁steam	-5976
▁Disney	-5977
▁consequ	-5978
▁extremely	-5979
▁succeeded	-5980
▁Ur	-5981
▁ha	-5982
eral	-5983
▁Let	-5984
opher	-5985
▁Braz	-5986
▁Your	-5987
▁begun	-5988
▁limit	-5989
▁Islands	-5990
▁applied	-5991
▁decades	-5992
▁neither	-5993
▁synthes	-5994
▁southeast	-5995
▁thousands	-5996
▁nomination	-5997
AR	-5998
ifa	-5999
wen	-6000
▁61	-6001
▁Es	-6002
iece	-6003
▁Obs	-6004
▁Ray	-6005
▁ina	-6006
achus	-6007
enger	-6008
▁1952	-6009
▁Wars	-6010
▁cart	-6011
ridges	-6012
▁Offic	-6013
▁Produ	-6014
▁basic	-6015
ugoslav	-6016
▁Carlsen	-6017
▁minister	-6018
▁certified	-6019
▁74	-6020
▁Id	-6021
0161	-6022
aire	-6023
aste	-6024
elly	-6025
ucky	-6026
▁Rog	-6027
▁Six	-6028
ights	-6029
▁Only	-6030
▁Phill	-6031
▁Swift	-6032
▁decre	-6033
▁outer	-6034
uration	-6035
▁Castle	-6036
▁bottom	-6037
▁lasted	-6038
▁philos	-6039
▁Yugoslav	-6040
▁brothers	-6041
▁infantry	-6042
▁railroad	-6043
▁promotion	-6044
▁occasionally	-6045
oys	-6046
▁"1	-6047
▁Li	-6048
▁Sk	-6049
iege	-6050
▁Dev	-6051
ensus	-6052
▁1955	-6053
▁Daily	-6054
▁Every	-6055
▁solid	-6056
western	-6057
▁Paralym	-6058
▁Railway	-6059
▁accompl	-6060
▁address	-6061
▁disappe	-6062
▁exchange	-6063
▁religion	-6064
▁attracted	-6065
It	-6066
ava	-6067
▁71	-6068
rell	-6069
▁Hin	-6070
▁Nas	-6071
iller	-6072
overe	-6073
▁sons	-6074
▁vary	-6075
▁accur	-6076
▁exerc	-6077
▁impos	-6078
▁Native	-6079
▁Spring	-6080
▁Square	-6081
▁overse	-6082
▁supern	-6083
▁appoint	-6084
▁capable	-6085
▁turning	-6086
▁volunte	-6087
▁Columbia	-6088
▁bacteria	-6089
▁painting	-6090
ifications	-6091
▁Meanwhile	-6092
Sh	-6093
▁88	-6094
come	-6095
rets	-6096
tees	-6097
uble	-6098
▁tal	-6099
usted	-6100
▁Prin	-6101
▁Trib	-6102
▁fish	-6103
▁shif	-6104
▁toll	-6105
odiazep	-6106
▁fields	-6107
▁posted	-6108
overeign	-6109
▁Premier	-6110
▁cricket	-6111
▁87	-6112
▁alt	-6113
▁ham	-6114
ropri	-6115
▁Gall	-6116
lected	-6117
▁clean	-6118
▁heads	-6119
▁merch	-6120
▁Player	-6121
▁circum	-6122
▁upgrad	-6123
▁enemies	-6124
▁restaur	-6125
▁theatre	-6126
▁internal	-6127
▁narrative	-6128
▁classified	-6129
▁#	-6130
kan	-6131
▁68	-6132
illy	-6133
▁din	-6134
ivals	-6135
▁1954	-6136
▁Head	-6137
engers	-6138
friend	-6139
▁shark	-6140
▁youth	-6141
ivalent	-6142
▁Walter	-6143
▁select	-6144
▁chapter	-6145
▁invited	-6146
▁reality	-6147
▁studied	-6148
▁principal	-6149
▁possibility	-6150
▁Additionally	-6151
▁distribution	-6152
bery	-6153
▁shr	-6154
agues	-6155
itzer	-6156
▁1962	-6157
▁shel	-6158
rating	-6159
tenden	-6160
▁Alice	-6161
▁Brook	-6162
▁crest	-6163
▁theat	-6164
▁verse	-6165
▁resour	-6166
▁Channel	-6167
▁Emperor	-6168
▁acclaim	-6169
▁designs	-6170
▁attached	-6171
hm	-6172
▁86	-6173
▁NC	-6174
elson	-6175
itting	-6176
▁autom	-6177
▁mount	-6178
ception	-6179
▁convin	-6180
▁missed	-6181
▁Wheeler	-6182
▁authors	-6183
▁classes	-6184
▁message	-6185
▁carrying	-6186
▁entering	-6187
▁graphics	-6188
▁recalled	-6189
▁supposed	-6190
▁violence	-6191
▁Elizabeth	-6192
▁58	-6193
▁AI	-6194
ulpt	-6195
▁Alf	-6196
▁Dog	-6197
▁wed	-6198
▁Cape	-6199
▁Lock	-6200
▁neck	-6201
▁shop	-6202
▁rural	-6203
▁Brazil	-6204
▁camera	-6205
▁secure	-6206
▁stayed	-6207
▁wealth	-6208
▁Station	-6209
▁decline	-6210
▁proposal	-6211
▁portrayed	-6212
▁southwest	-6213
▁department	-6214
pers	-6215
rupt	-6216
▁Bre	-6217
▁McG	-6218
▁UTC	-6219
▁rit	-6220
iques	-6221
▁bond	-6222
▁myth	-6223
▁catch	-6224
▁solar	-6225
▁Singles	-6226
▁Univers	-6227
▁feeling	-6228
achusetts	-6229
▁proteins	-6230
▁Alexander	-6231
▁Francisco	-6232
▁discovery	-6233
▁recommended	-6234
var	-6235
arsh	-6236
ella	-6237
pped	-6238
▁lob	-6239
▁mig	-6240
abled	-6241
iders	-6242
▁Anth	-6243
▁Color	-6244
▁Mills	-6245
▁conve	-6246
▁moder	-6247
▁Wilson	-6248
▁speaking	-6249
▁difficulty	-6250
▁specifically	-6251
rec	-6252
ador	-6253
onia	-6254
▁Inn	-6255
▁lov	-6256
▁Iron	-6257
▁Prov	-6258
▁wars	-6259
ranean	-6260
▁apart	-6261
▁Sunday	-6262
▁escort	-6263
▁inhabit	-6264
▁kingdom	-6265
▁massive	-6266
▁someone	-6267
▁Hamilton	-6268
▁publisher	-6269
▁remainder	-6270
▁basketball	-6271
▁threatened	-6272
ker	-6273
▁"2	-6274
▁Abb	-6275
▁Raj	-6276
▁1910	-6277
▁Nick	-6278
▁Ward	-6279
▁Horse	-6280
▁stret	-6281
stances	-6282
▁Temple	-6283
▁Weekly	-6284
▁inspir	-6285
▁greatly	-6286
▁longest	-6287
▁Military	-6288
▁medieval	-6289
▁reviewers	-6290
▁Corporation	-6291
▁battleships	-6292
pat	-6293
▁1936	-6294
▁bats	-6295
irates	-6296
▁colour	-6297
▁easily	-6298
▁accused	-6299
▁approved	-6300
▁breaking	-6301
▁challenge	-6302
▁committed	-6303
▁intention	-6304
▁considerable	-6305
▁Massachusetts	-6306
rog	-6307
aked	-6308
gest	-6309
▁gal	-6310
antly	-6311
labor	-6312
organ	-6313
▁Adam	-6314
▁Barn	-6315
▁Hell	-6316
▁Turk	-6317
▁mort	-6318
▁Heart	-6319
▁needs	-6320
▁opera	-6321
▁schem	-6322
▁Golden	-6323
▁actual	-6324
▁concur	-6325
▁custom	-6326
▁descend	-6327
▁evening	-6328
▁Director	-6329
▁register	-6330
▁interested	-6331
eed	-6332
lah	-6333
eyer	-6334
oard	-6335
oles	-6336
ugby	-6337
▁Low	-6338
▁Ped	-6339
reets	-6340
▁Cold	-6341
▁Power	-6342
▁flank	-6343
▁glass	-6344
▁inner	-6345
▁Around	-6346
▁rarely	-6347
▁reduce	-6348
▁skills	-6349
▁sounds	-6350
▁adapted	-6351
▁penalty	-6352
▁superior	-6353
▁storyline	-6354
▁describing	-6355
fc	-6356
ysc	-6357
▁DE	-6358
▁od	-6359
This	-6360
rane	-6361
▁Bul	-6362
anium	-6363
imony	-6364
itors	-6365
▁Beat	-6366
▁Rome	-6367
▁folk	-6368
▁stem	-6369
▁voted	-6370
▁downlo	-6371
▁flights	-6372
▁settled	-6373
▁communities	-6374
gon	-6375
▁79	-6376
▁98	-6377
isms	-6378
ooth	-6379
▁Der	-6380
▁dub	-6381
▁flu	-6382
▁Rain	-6383
▁fled	-6384
▁gall	-6385
▁hope	-6386
ooking	-6387
veston	-6388
▁owner	-6389
onymous	-6390
▁Illino	-6391
▁sculpt	-6392
▁outbreak	-6393
▁planning	-6394
▁Operation	-6395
▁installed	-6396
▁permanent	-6397
▁replacement	-6398
▁independence	-6399
BI	-6400
ipe	-6401
irt	-6402
inet	-6403
time	-6404
▁NBC	-6405
▁Greg	-6406
▁Kong	-6407
▁plas	-6408
▁sell	-6409
▁Staff	-6410
▁Forest	-6411
▁winner	-6412
▁History	-6413
▁disturb	-6414
▁citizens	-6415
▁operating	-6416
▁combination	-6417
aha	-6418
aska	-6419
yles	-6420
▁250	-6421
▁Bat	-6422
▁ago	-6423
▁rum	-6424
icate	-6425
▁1961	-6426
▁Moon	-6427
▁Anton	-6428
▁dress	-6429
▁freed	-6430
▁moves	-6431
ptunium	-6432
▁Norway	-6433
▁format	-6434
▁resear	-6435
▁slowly	-6436
▁Rolling	-6437
▁Science	-6438
▁regional	-6439
enzodiazep	-6440
▁appearing	-6441
▁statement	-6442
▁completion	-6443
FL	-6444
iti	-6445
▁63	-6446
kins	-6447
▁Kap	-6448
▁Who	-6449
▁Walk	-6450
▁rose	-6451
etroit	-6452
▁hoped	-6453
▁Carter	-6454
▁assass	-6455
▁corner	-6456
▁mathem	-6457
▁Detroit	-6458
▁brigade	-6459
▁protein	-6460
▁vessels	-6461
▁restored	-6462
▁strongly	-6463
▁commanded	-6464
▁effectively	-6465
ez	-6466
uy	-6467
▁Leg	-6468
▁Wat	-6469
▁ban	-6470
▁cul	-6471
hered	-6472
▁remn	-6473
▁Blood	-6474
▁decor	-6475
▁appeal	-6476
▁causes	-6477
▁satisf	-6478
▁Hospital	-6479
▁colonial	-6480
▁purchase	-6481
▁somewhat	-6482
▁separated	-6483
▁composition	-6484
een	-6485
rep	-6486
ader	-6487
enon	-6488
ione	-6489
mble	-6490
sole	-6491
▁Bir	-6492
▁Jay	-6493
after	-6494
matic	-6495
▁tell	-6496
▁Hotel	-6497
▁Today	-6498
▁superv	-6499
iversary	-6500
▁airport	-6501
▁charged	-6502
▁constit	-6503
▁concerns	-6504
▁discussed	-6505
▁franchise	-6506
▁Crittenden	-6507
▁discussion	-6508
▁supporters	-6509
▁involvement	-6510
ii	-6511
aba	-6512
▁Jr	-6513
mith	-6514
▁Cab	-6515
acent	-6516
erted	-6517
owler	-6518
▁Back	-6519
▁Glen	-6520
▁card	-6521
▁chorus	-6522
▁courts	-6523
▁Journal	-6524
▁driving	-6525
▁injured	-6526
▁criminal	-6527
▁retained	-6528
▁involving	-6529
▁regularly	-6530
▁surviving	-6531
▁generation	-6532
▁Scientology	-6533
ato	-6534
ima	-6535
▁77	-6536
acon	-6537
apes	-6538
helm	-6539
▁Lis	-6540
▁die	-6541
▁mut	-6542
ropol	-6543
▁1912	-6544
▁acts	-6545
▁pure	-6546
▁tick	-6547
▁ninth	-6548
▁predec	-6549
▁Mexican	-6550
▁pointed	-6551
▁sessions	-6552
▁reception	-6553
▁establishment	-6554
Des	-6555
olph	-6556
▁Dor	-6557
▁hal	-6558
ansen	-6559
cknow	-6560
eless	-6561
going	-6562
▁Dark	-6563
▁Horn	-6564
▁nick	-6565
▁warm	-6566
▁Canal	-6567
▁Palest	-6568
▁consum	-6569
▁stands	-6570
▁thirty	-6571
▁crossed	-6572
▁passage	-6573
▁Baseball	-6574
▁equipped	-6575
▁otherwise	-6576
▁recovered	-6577
▁association	-6578
aver	-6579
unch	-6580
▁bor	-6581
▁cad	-6582
▁cin	-6583
earch	-6584
▁gard	-6585
▁poll	-6586
▁excav	-6587
▁Arthur	-6588
▁Berlin	-6589
▁Ernest	-6590
▁duties	-6591
▁routes	-6592
▁Destiny	-6593
▁charges	-6594
▁strateg	-6595
▁arrested	-6596
▁compounds	-6597
▁extension	-6598
▁intersection	-6599
ano	-6600
idge	-6601
insula	-6602
▁Davis	-6603
▁canal	-6604
▁integ	-6605
▁Marine	-6606
▁vision	-6607
▁Persian	-6608
▁battery	-6609
▁Maryland	-6610
▁challeng	-6611
▁literary	-6612
▁politics	-6613
▁distributed	-6614
▁responsibility	-6615
ES	-6616
rum	-6617
▁89	-6618
▁Dj	-6619
mium	-6620
▁,"}	-6621
▁USA	-6622
acing	-6623
▁1938	-6624
▁Alan	-6625
▁Rang	-6626
▁Flight	-6627
▁depict	-6628
▁desire	-6629
▁meters	-6630
▁grounds	-6631
▁worship	-6632
velopment	-6633
▁chemical	-6634
▁reviewer	-6635
▁songwrit	-6636
▁finishing	-6637
▁attributed	-6638
aph	-6639
▁Sn	-6640
▁Hor	-6641
▁Sem	-6642
ables	-6643
ramid	-6644
▁Cole	-6645
▁emerg	-6646
▁sight	-6647
▁acknow	-6648
▁legend	-6649
▁wearing	-6650
▁Colorado	-6651
▁Illinois	-6652
▁accounts	-6653
▁athletes	-6654
▁concrete	-6655
▁engineer	-6656
▁dominated	-6657
▁reinforce	-6658
nh	-6659
ali	-6660
aman	-6661
kare	-6662
▁Inc	-6663
▁Mov	-6664
▁Sky	-6665
▁bid	-6666
▁nob	-6667
▁1931	-6668
▁calc	-6669
▁plane	-6670
▁truth	-6671
▁Queens	-6672
▁Indones	-6673
▁assumed	-6674
▁coastal	-6675
▁assistant	-6676
▁programme	-6677
▁assistance	-6678
▁intelligence	-6679
44	-6680
Ar	-6681
olt	-6682
tty	-6683
▁DC	-6684
omar	-6685
rait	-6686
▁eat	-6687
ashed	-6688
▁rich	-6689
▁shut	-6690
urches	-6691
▁debate	-6692
▁novels	-6693
▁stream	-6694
▁opposite	-6695
▁terminus	-6696
ographical	-6697
▁preferred	-6698
▁legislation	-6699
▁presidential	-6700
chen	-6701
hatt	-6702
▁Alb	-6703
▁1935	-6704
▁Benz	-6705
▁teen	-6706
ameter	-6707
▁Crown	-6708
▁Georg	-6709
▁Haifa	-6710
▁indig	-6711
▁raise	-6712
ignment	-6713
▁formal	-6714
▁resemb	-6715
▁Shortly	-6716
▁emerged	-6717
▁offices	-6718
▁Constant	-6719
▁believes	-6720
▁bringing	-6721
▁determine	-6722
▁successor	-6723
box	-6724
itt	-6725
▁Ey	-6726
pany	-6727
▁Age	-6728
▁hot	-6729
itals	-6730
risis	-6731
▁Bang	-6732
▁Bros	-6733
▁Five	-6734
▁Open	-6735
▁copy	-6736
▁impr	-6737
▁ster	-6738
▁Nixon	-6739
▁treaty	-6740
▁Mediter	-6741
▁Turkish	-6742
▁consult	-6743
▁uranium	-6744
▁formally	-6745
▁interpret	-6746
▁suffering	-6747
▁techniques	-6748
▁recognition	-6749
▁Mediterranean	-6750
▁91	-6751
umin	-6752
usic	-6753
▁Cer	-6754
▁bes	-6755
ching	-6756
▁1933	-6757
▁Fire	-6758
▁page	-6759
▁send	-6760
▁Bundy	-6761
▁Nether	-6762
▁gather	-6763
▁seeing	-6764
ervative	-6765
▁municip	-6766
▁playoff	-6767
▁resistance	-6768
va	-6769
▁AR	-6770
▁WW	-6771
▁mo	-6772
▁sy	-6773
char	-6774
ears	-6775
ogen	-6776
▁Nap	-6777
▁Rem	-6778
▁sud	-6779
imore	-6780
inger	-6781
▁Shir	-6782
▁mine	-6783
ewhere	-6784
ihanna	-6785
▁Shiva	-6786
▁holds	-6787
▁loyal	-6788
▁Poland	-6789
▁picked	-6790
▁rebels	-6791
▁accommod	-6792
▁depicted	-6793
▁relative	-6794
▁destruction	-6795
▁underground	-6796
via	-6797
zen	-6798
imet	-6799
rove	-6800
▁vac	-6801
riers	-6802
▁1890	-6803
▁1949	-6804
▁spin	-6805
▁zone	-6806
▁clock	-6807
▁cloth	-6808
▁pregn	-6809
▁quant	-6810
▁shore	-6811
▁sleep	-6812
▁income	-6813
▁reserv	-6814
▁tribes	-6815
cription	-6816
▁correct	-6817
▁funding	-6818
▁hunting	-6819
▁Domitian	-6820
▁Portland	-6821
▁imperial	-6822
▁settlers	-6823
▁Commander	-6824
▁concerned	-6825
▁strengthen	-6826
▁instruments	-6827
quez	-6828
rich	-6829
▁110	-6830
▁Mik	-6831
▁mir	-6832
▁legs	-6833
labama	-6834
▁armor	-6835
▁beach	-6836
▁displ	-6837
▁incom	-6838
▁races	-6839
▁skysc	-6840
▁worst	-6841
▁Athlet	-6842
▁Wright	-6843
▁ancest	-6844
▁hosted	-6845
elescope	-6846
▁alleged	-6847
▁segment	-6848
▁behavior	-6849
▁romantic	-6850
▁Recording	-6851
▁Television	-6852
▁surrounded	-6853
▁Ak	-6854
▁Kir	-6855
▁ash	-6856
▁fal	-6857
▁rib	-6858
ronic	-6859
▁Baby	-6860
▁Prog	-6861
coming	-6862
encies	-6863
iddles	-6864
pecies	-6865
▁Labor	-6866
▁Tower	-6867
▁panel	-6868
▁Nelson	-6869
▁praise	-6870
▁sequel	-6871
▁methods	-6872
▁animated	-6873
▁incorporated	-6874
ati	-6875
▁92	-6876
▁CE	-6877
anas	-6878
▁Cur	-6879
▁Now	-6880
arked	-6881
▁Fame	-6882
▁duty	-6883
▁else	-6884
▁jazz	-6885
▁sees	-6886
▁vent	-6887
▁cloud	-6888
▁crash	-6889
▁judge	-6890
▁ready	-6891
▁spoke	-6892
▁McCart	-6893
▁Winter	-6894
▁seemed	-6895
▁adjacent	-6896
▁detailed	-6897
▁isolated	-6898
▁watching	-6899
▁Galveston	-6900
▁emotional	-6901
▁premiered	-6902
▁specimens	-6903
▁resolution	-6904
anz	-6905
eld	-6906
fle	-6907
atus	-6908
body	-6909
emed	-6910
▁App	-6911
▁Roy	-6912
▁Plan	-6913
▁dipl	-6914
▁wins	-6915
▁Bonds	-6916
▁Domin	-6917
▁chain	-6918
▁joint	-6919
▁micro	-6920
▁noise	-6921
▁adults	-6922
▁resign	-6923
▁sudden	-6924
▁wooden	-6925
▁Between	-6926
▁Special	-6927
▁Stadium	-6928
▁falling	-6929
▁forests	-6930
▁victims	-6931
▁convinced	-6932
▁journalist	-6933
har	-6934
igg	-6935
▁82	-6936
0103	-6937
From	-6938
osis	-6939
rams	-6940
▁Cru	-6941
psons	-6942
▁Leon	-6943
▁costs	-6944
▁bright	-6945
▁Madonna	-6946
▁Rihanna	-6947
▁classic	-6948
▁proport	-6949
▁starred	-6950
▁unusual	-6951
▁interior	-6952
▁traveled	-6953
▁Transport	-6954
▁exception	-6955
▁questions	-6956
▁Democratic	-6957
▁historians	-6958
jo	-6959
cton	-6960
pete	-6961
▁sed	-6962
orous	-6963
using	-6964
▁eggs	-6965
▁pool	-6966
▁pull	-6967
▁check	-6968
▁leads	-6969
▁magic	-6970
▁Social	-6971
▁ensure	-6972
▁taught	-6973
▁trains	-6974
lsewhere	-6975
ologists	-6976
▁Similar	-6977
▁creator	-6978
▁promote	-6979
▁retreat	-6980
▁Simpsons	-6981
▁academic	-6982
▁attacking	-6983
▁paintings	-6984
▁technique	-6985
▁inspiration	-6986
SBN	-6987
oli	-6988
tic	-6989
aret	-6990
rage	-6991
▁ble	-6992
▁flo	-6993
▁map	-6994
akers	-6995
rator	-6996
▁1959	-6997
▁ISBN	-6998
▁Thus	-6999
▁Wall	-7000
▁Adams	-7001
▁Kevin	-7002
▁alleg	-7003
▁cargo	-7004
▁poems	-7005
▁wrong	-7006
▁Howard	-7007
▁aboard	-7008
▁purpos	-7009
▁weapon	-7010
▁fighter	-7011
▁returns	-7012
▁personnel	-7013
▁electronic	-7014
▁equivalent	-7015
▁passengers	-7016
▁references	-7017
▁transition	-7018
▁protagonist	-7019
Be	-7020
▁et	-7021
atty	-7022
bird	-7023
icit	-7024
▁Hou	-7025
▁Oak	-7026
▁Sab	-7027
▁Thi	-7028
▁1932	-7029
▁Ball	-7030
▁Real	-7031
▁lung	-7032
active	-7033
▁Apple	-7034
▁Beach	-7035
▁imple	-7036
▁meets	-7037
▁votes	-7038
▁lowest	-7039
▁theore	-7040
▁Thunder	-7041
▁install	-7042
▁protest	-7043
▁composer	-7044
▁province	-7045
▁Baltimore	-7046
▁McCartney	-7047
▁encouraged	-7048
wa	-7049
yo	-7050
AAF	-7051
gus	-7052
▁Hy	-7053
dale	-7054
oked	-7055
▁ABC	-7056
ennis	-7057
▁Vice	-7058
▁vide	-7059
▁Seven	-7060
▁Malays	-7061
▁Samuel	-7062
▁sailed	-7063
▁Alabama	-7064
▁drawing	-7065
▁Ministry	-7066
▁executed	-7067
▁frequent	-7068
▁visitors	-7069
▁dimension	-7070
▁continuing	-7071
▁anniversary	-7072
▁representative	-7073
aft	-7074
alo	-7075
essa	-7076
rior	-7077
▁Hay	-7078
ydney	-7079
▁1880	-7080
▁Earl	-7081
▁drug	-7082
▁sale	-7083
▁Bowie	-7084
▁Carib	-7085
▁doesn	-7086
▁veter	-7087
▁Kansas	-7088
▁Rhodes	-7089
▁anyone	-7090
▁behavi	-7091
▁dating	-7092
▁memory	-7093
▁Kennedy	-7094
▁Mississ	-7095
▁Phoenix	-7096
▁collaps	-7097
▁Building	-7098
▁adventure	-7099
▁immediate	-7100
▁impressed	-7101
▁requested	-7102
▁characterized	-7103
▁classification	-7104
eper	-7105
vens	-7106
▁Jur	-7107
▁san	-7108
sible	-7109
▁1934	-7110
▁1951	-7111
▁Dean	-7112
▁Herg	-7113
▁Prot	-7114
▁hear	-7115
▁impl	-7116
alions	-7117
ingham	-7118
▁Treat	-7119
▁persu	-7120
ogether	-7121
▁colony	-7122
▁demand	-7123
▁volcan	-7124
▁Fantasy	-7125
▁dollars	-7126
▁existed	-7127
▁intense	-7128
▁villages	-7129
▁materials	-7130
▁subspecies	-7131
▁description	-7132
reb	-7133
uty	-7134
bean	-7135
fare	-7136
owed	-7137
rang	-7138
▁Cat	-7139
▁Cop	-7140
▁Hug	-7141
▁Ron	-7142
▁cod	-7143
▁fil	-7144
▁ray	-7145
▁vic	-7146
irman	-7147
▁Ohio	-7148
▁Well	-7149
▁inse	-7150
▁Smart	-7151
▁drums	-7152
▁grant	-7153
▁plate	-7154
▁remix	-7155
▁spend	-7156
▁teeth	-7157
▁Friend	-7158
▁Territ	-7159
▁divers	-7160
▁eleven	-7161
▁vessel	-7162
▁Seattle	-7163
▁Missoula	-7164
▁category	-7165
▁claiming	-7166
▁feelings	-7167
▁hundreds	-7168
▁properties	-7169
▁representing	-7170
cho	-7171
oba	-7172
lets	-7173
▁Hun	-7174
▁Lyn	-7175
▁NFL	-7176
▁lap	-7177
▁Garc	-7178
▁Mort	-7179
▁none	-7180
▁tack	-7181
hattan	-7182
▁cycle	-7183
▁depos	-7184
▁Advent	-7185
▁Master	-7186
▁looked	-7187
▁crosses	-7188
▁visible	-7189
▁changing	-7190
▁diameter	-7191
▁downtown	-7192
▁Caribbean	-7193
▁Manhattan	-7194
▁departure	-7195
▁controversy	-7196
▁temperatures	-7197
iac	-7198
▁sem	-7199
▁Sher	-7200
▁bear	-7201
▁gray	-7202
▁subt	-7203
▁genes	-7204
ighters	-7205
ilation	-7206
resents	-7207
▁closer	-7208
▁dollar	-7209
▁linked	-7210
▁refuge	-7211
▁Justice	-7212
▁indicate	-7213
▁normally	-7214
▁interests	-7215
▁characteristics	-7216
ns	-7217
▁<	-7218
put	-7219
gate	-7220
path	-7221
▁Bed	-7222
▁Edu	-7223
aford	-7224
ender	-7225
▁1909	-7226
▁mode	-7227
▁tone	-7228
cribed	-7229
itated	-7230
▁rhyth	-7231
▁siege	-7232
▁stood	-7233
▁wings	-7234
▁Country	-7235
▁reserve	-7236
▁scatter	-7237
▁streets	-7238
▁treated	-7239
▁whereas	-7240
▁Memorial	-7241
▁churches	-7242
▁injuries	-7243
▁standards	-7244
▁victories	-7245
▁apparently	-7246
▁atmosphere	-7247
▁difference	-7248
▁benzodiazep	-7249
OK	-7250
pes	-7251
▁78	-7252
pole	-7253
▁Yan	-7254
▁pig	-7255
cious	-7256
erick	-7257
racks	-7258
▁Charl	-7259
▁audio	-7260
▁renew	-7261
▁ruled	-7262
▁trail	-7263
▁veget	-7264
▁Sydney	-7265
▁partly	-7266
▁convent	-7267
▁convers	-7268
▁Delaware	-7269
▁Industry	-7270
▁Research	-7271
▁teaching	-7272
▁occasions	-7273
▁resources	-7274
▁represents	-7275
▁organizations	-7276
abil	-7277
gery	-7278
wich	-7279
▁140	-7280
▁Gab	-7281
▁obl	-7282
▁vig	-7283
▁Glob	-7284
▁code	-7285
▁ille	-7286
▁lane	-7287
ultane	-7288
▁recre	-7289
▁Norman	-7290
▁retain	-7291
▁Switzer	-7292
▁fantasy	-7293
▁warning	-7294
▁controll	-7295
▁defended	-7296
▁informed	-7297
▁instance	-7298
▁pipeline	-7299
▁temporary	-7300
▁foundation	-7301
▁circulation	-7302
axy	-7303
▁Om	-7304
▁ru	-7305
ilst	-7306
▁900	-7307
▁Sym	-7308
▁Tok	-7309
where	-7310
▁Rand	-7311
▁shots	-7312
borough	-7313
▁Fowler	-7314
▁Nicole	-7315
▁diplom	-7316
▁handed	-7317
▁strate	-7318
▁Shirley	-7319
▁operate	-7320
▁civilian	-7321
▁neptunium	-7322
onnaissance	-7323
▁Switzerland	-7324
▁experiences	-7325
▁influential	-7326
▁agricultural	-7327
▁observations	-7328
zz	-7329
All	-7330
apo	-7331
aya	-7332
owa	-7333
lock	-7334
ollo	-7335
rapy	-7336
▁NHL	-7337
▁tie	-7338
olute	-7339
▁1913	-7340
▁Area	-7341
▁gone	-7342
▁thin	-7343
▁Simon	-7344
▁happy	-7345
▁scand	-7346
Despite	-7347
▁Sports	-7348
▁Within	-7349
▁medium	-7350
▁Germans	-7351
▁coordin	-7352
▁engines	-7353
▁habitat	-7354
▁offense	-7355
▁painted	-7356
▁Confeder	-7357
▁classical	-7358
▁elections	-7359
▁Throughout	-7360
▁possession	-7361
OC	-7362
nt	-7363
aga	-7364
eke	-7365
▁ere	-7366
▁1921	-7367
▁Circ	-7368
▁Hann	-7369
▁Lody	-7370
▁Marc	-7371
▁Pass	-7372
▁aged	-7373
▁baby	-7374
▁grav	-7375
arning	-7376
essing	-7377
▁Miles	-7378
▁Santa	-7379
▁ocean	-7380
▁Albums	-7381
▁option	-7382
▁cruiser	-7383
▁dispute	-7384
▁secured	-7385
▁typhoon	-7386
▁Lawrence	-7387
▁announce	-7388
▁dismissed	-7389
▁opponents	-7390
▁criticised	-7391
▁thereafter	-7392
▁Netherlands	-7393
▁interesting	-7394
▁relationships	-7395
nic	-7396
osm	-7397
▁Ts	-7398
iger	-7399
otus	-7400
▁Isa	-7401
▁Jup	-7402
lders	-7403
onnet	-7404
scape	-7405
▁1870	-7406
▁Bosn	-7407
▁Bron	-7408
▁Utah	-7409
▁proc	-7410
father	-7411
▁crown	-7412
▁mayor	-7413
▁orbit	-7414
▁pound	-7415
▁Butler	-7416
▁Palace	-7417
▁driven	-7418
▁driver	-7419
▁elabor	-7420
▁firing	-7421
▁Philipp	-7422
▁notably	-7423
▁Sudirman	-7424
▁restrict	-7425
▁strategy	-7426
▁accompany	-7427
▁preserved	-7428
▁submarine	-7429
AT	-7430
Le	-7431
ira	-7432
anth	-7433
eing	-7434
gets	-7435
urop	-7436
▁cry	-7437
▁van	-7438
akota	-7439
power	-7440
▁Leno	-7441
▁fine	-7442
▁musc	-7443
▁span	-7444
atinum	-7445
wealth	-7446
▁Naval	-7447
▁gross	-7448
▁recip	-7449
ishment	-7450
▁Mosley	-7451
▁agents	-7452
▁convoy	-7453
▁pounds	-7454
▁prosec	-7455
▁scheme	-7456
▁underw	-7457
▁Houston	-7458
▁stadium	-7459
▁resigned	-7460
▁displayed	-7461
▁expensive	-7462
▁movements	-7463
▁photograph	-7464
▁recognised	-7465
▁encountered	-7466
▁personality	-7467
▁unsuccessful	-7468
▁collaboration	-7469
bec	-7470
obi	-7471
anar	-7472
aria	-7473
illo	-7474
oses	-7475
▁Fey	-7476
▁RAF	-7477
chang	-7478
iform	-7479
osure	-7480
▁enth	-7481
▁huge	-7482
▁ment	-7483
▁prol	-7484
▁soul	-7485
▁sunk	-7486
aments	-7487
ricted	-7488
▁Maria	-7489
▁Meyer	-7490
▁Organ	-7491
▁climb	-7492
▁virus	-7493
▁refers	-7494
▁surviv	-7495
▁Supreme	-7496
▁collect	-7497
▁Egyptian	-7498
▁astronom	-7499
▁facility	-7500
▁learning	-7501
▁remember	-7502
▁afterwards	-7503
▁conclusion	-7504
▁understand	-7505
▁designation	-7506
▁controversial	-7507
iary	-7508
ophy	-7509
▁Bru	-7510
▁Ken	-7511
▁Mah	-7512
▁Mot	-7513
mouth	-7514
riors	-7515
▁Snow	-7516
▁Type	-7517
▁easy	-7518
▁lies	-7519
▁util	-7520
rupted	-7521
▁chest	-7522
▁divor	-7523
▁tests	-7524
▁union	-7525
▁Silver	-7526
▁credit	-7527
▁rescue	-7528
▁tunnel	-7529
▁bridges	-7530
▁condoms	-7531
▁chairman	-7532
▁withdrew	-7533
▁cathedral	-7534
▁spacecraft	-7535
▁84	-7536
▁ec	-7537
aced	-7538
▁Bas	-7539
▁kid	-7540
▁Bird	-7541
▁heat	-7542
▁load	-7543
▁Media	-7544
▁tries	-7545
▁patron	-7546
▁serial	-7547
▁valley	-7548
▁context	-7549
▁Internet	-7550
▁purposes	-7551
▁partially	-7552
▁expression	-7553
▁retirement	-7554
▁differences	-7555
oyd	-7556
host	-7557
▁avo	-7558
ateur	-7559
▁Hart	-7560
▁grey	-7561
urally	-7562
▁Death	-7563
▁Front	-7564
▁threw	-7565
certain	-7566
▁assemb	-7567
▁trials	-7568
▁Middles	-7569
▁Stewart	-7570
▁biggest	-7571
▁Guardian	-7572
▁meetings	-7573
▁upgraded	-7574
▁battleship	-7575
▁reportedly	-7576
▁inhabitants	-7577
▁investigation	-7578
lag	-7579
ois	-7580
▁Ll	-7581
ifer	-7582
oust	-7583
▁Sav	-7584
▁phr	-7585
▁ske	-7586
entle	-7587
▁Juan	-7588
▁foss	-7589
▁snow	-7590
▁suit	-7591
▁Eagle	-7592
▁initi	-7593
▁recru	-7594
▁stock	-7595
▁Morgan	-7596
▁facing	-7597
▁Anthony	-7598
▁Jupiter	-7599
▁charter	-7600
▁generated	-7601
▁sequences	-7602
▁attempting	-7603
▁influences	-7604
▁arrangement	-7605
▁engineering	-7606
law	-7607
uma	-7608
▁06	-7609
▁07	-7610
▁83	-7611
▁Np	-7612
send	-7613
▁Nob	-7614
▁Ran	-7615
▁enh	-7616
ublin	-7617
▁Niel	-7618
▁Stef	-7619
▁canc	-7620
ambers	-7621
▁Busch	-7622
▁grade	-7623
▁hypot	-7624
▁prime	-7625
uscript	-7626
▁Record	-7627
▁pushed	-7628
▁storms	-7629
berforce	-7630
▁absence	-7631
▁delayed	-7632
▁prosper	-7633
▁comments	-7634
▁describe	-7635
▁mathemat	-7636
▁evolution	-7637
▁residence	-7638
▁impossible	-7639
▁Commonwealth	-7640
▁architecture	-7641
▁understanding	-7642
amy	-7643
ogy	-7644
urd	-7645
usal	-7646
▁Dri	-7647
▁Nes	-7648
▁tub	-7649
▁vul	-7650
aired	-7651
▁Belg	-7652
▁outf	-7653
icians	-7654
▁aware	-7655
▁crews	-7656
▁falls	-7657
▁radar	-7658
▁Connor	-7659
▁honour	-7660
▁videos	-7661
▁compete	-7662
▁forming	-7663
▁tornado	-7664
▁wedding	-7665
▁modified	-7666
▁functions	-7667
▁Mississipp	-7668
▁circumstances	-7669
una	-7670
book	-7671
▁Ice	-7672
▁1911	-7673
▁evil	-7674
▁flew	-7675
▁Along	-7676
iveness	-7677
▁Kapoor	-7678
▁condem	-7679
▁global	-7680
▁models	-7681
▁Benzema	-7682
▁Library	-7683
▁Network	-7684
▁moments	-7685
▁Sleaford	-7686
▁Hungarian	-7687
▁reactions	-7688
▁territories	-7689
bra	-7690
aron	-7691
cott	-7692
▁Hit	-7693
▁Lev	-7694
▁Rel	-7695
▁Tit	-7696
▁Ult	-7697
▁lat	-7698
▁Mint	-7699
▁Wing	-7700
▁exit	-7701
▁tele	-7702
▁Jesus	-7703
▁Kelly	-7704
▁overw	-7705
▁rooms	-7706
▁Centre	-7707
▁carbon	-7708
▁junior	-7709
▁plasma	-7710
▁styles	-7711
▁Greeley	-7712
▁Wilhelm	-7713
▁assisted	-7714
▁measured	-7715
▁beautiful	-7716
▁adaptation	-7717
▁scientists	-7718
▁substantial	-7719
AC	-7720
▁=	-7721
gov	-7722
pir	-7723
aran	-7724
icop	-7725
itia	-7726
uese	-7727
istan	-7728
named	-7729
oster	-7730
rants	-7731
rquez	-7732
▁asks	-7733
▁gene	-7734
▁soil	-7735
▁Attor	-7736
▁advis	-7737
▁alien	-7738
▁effic	-7739
▁liked	-7740
tenance	-7741
viation	-7742
▁Doctor	-7743
▁Dublin	-7744
▁Family	-7745
▁Forces	-7746
▁colors	-7747
▁excess	-7748
▁unlike	-7749
▁climate	-7750
▁housing	-7751
▁picture	-7752
▁reprodu	-7753
▁scholar	-7754
▁vehicle	-7755
▁cruisers	-7756
▁favorite	-7757
▁formerly	-7758
▁documents	-7759
▁manuscript	-7760
▁application	-7761
▁MS	-7762
▁Ark	-7763
▁Hok	-7764
▁Mrs	-7765
leton	-7766
▁1900	-7767
▁1925	-7768
▁hill	-7769
▁lock	-7770
ounced	-7771
▁Third	-7772
▁coins	-7773
▁deleg	-7774
▁inaug	-7775
▁Grammy	-7776
▁aftern	-7777
▁enters	-7778
▁deliber	-7779
▁extreme	-7780
▁wickets	-7781
▁appropri	-7782
▁examples	-7783
▁thousand	-7784
▁Portuguese	-7785
▁withdrawal	-7786
▁Hu	-7787
▁ca	-7788
▁ic	-7789
bitt	-7790
yard	-7791
▁Pow	-7792
▁nom	-7793
ekend	-7794
▁Brig	-7795
▁Here	-7796
▁diet	-7797
▁jack	-7798
▁lose	-7799
▁ride	-7800
rapped	-7801
▁Jacob	-7802
▁Laure	-7803
▁Norwe	-7804
▁Techn	-7805
▁girls	-7806
▁multi	-7807
▁shift	-7808
▁commem	-7809
▁deemed	-7810
▁excell	-7811
▁prohib	-7812
▁stable	-7813
▁Federal	-7814
▁Moncton	-7815
▁conduct	-7816
▁footage	-7817
▁hearing	-7818
▁historic	-7819
▁publicly	-7820
▁documentary	-7821
▁*	-7822
han	-7823
odon	-7824
▁Hop	-7825
▁Ira	-7826
▁Kat	-7827
otype	-7828
▁1924	-7829
▁Bran	-7830
▁Buff	-7831
▁Tony	-7832
▁Vinc	-7833
▁dock	-7834
▁plum	-7835
forced	-7836
▁Perry	-7837
▁brain	-7838
▁cooper	-7839
▁sector	-7840
atically	-7841
▁Stanley	-7842
▁ceremon	-7843
▁minimal	-7844
▁partner	-7845
▁rebuilt	-7846
▁violent	-7847
▁Attorney	-7848
▁everyone	-7849
▁releases	-7850
▁sovereign	-7851
▁spiritual	-7852
LC	-7853
ban	-7854
▁ML	-7855
onto	-7856
▁bon	-7857
piece	-7858
sters	-7859
▁Bure	-7860
▁Free	-7861
▁belt	-7862
▁bron	-7863
▁dies	-7864
▁gets	-7865
▁jump	-7866
▁memb	-7867
▁Hindu	-7868
▁Usher	-7869
▁frame	-7870
▁holid	-7871
▁overs	-7872
▁Bishop	-7873
▁Treaty	-7874
▁Unlike	-7875
▁engage	-7876
▁powered	-7877
▁suspend	-7878
▁telling	-7879
▁tribute	-7880
▁deployed	-7881
▁garrison	-7882
▁measures	-7883
▁motorway	-7884
▁simultane	-7885
▁difficulties	-7886
▁reconnaissance	-7887
err	-7888
▁05	-7889
▁08	-7890
bell	-7891
mate	-7892
udes	-7893
weet	-7894
▁164	-7895
▁Alt	-7896
▁Orb	-7897
agasc	-7898
enses	-7899
iliar	-7900
onica	-7901
uable	-7902
▁Brun	-7903
cation	-7904
iamond	-7905
ivated	-7906
umping	-7907
▁Alkan	-7908
▁Pitts	-7909
▁Swiss	-7910
▁disag	-7911
▁tenth	-7912
▁Apollo	-7913
▁throne	-7914
▁Senator	-7915
▁minimum	-7916
▁Kentucky	-7917
▁happened	-7918
▁promised	-7919
▁situated	-7920
pty	-7921
uls	-7922
▁Mu	-7923
oral	-7924
race	-7925
▁Non	-7926
▁mad	-7927
▁ori	-7928
aurus	-7929
ichol	-7930
laire	-7931
nings	-7932
plete	-7933
▁Cook	-7934
▁Late	-7935
azines	-7936
rising	-7937
▁abund	-7938
▁expon	-7939
▁flags	-7940
▁inher	-7941
▁recur	-7942
▁skull	-7943
▁Russia	-7944
▁listen	-7945
▁Cardiff	-7946
▁Nielsen	-7947
▁degrees	-7948
▁nations	-7949
▁ranking	-7950
▁Category	-7951
▁champion	-7952
▁premiere	-7953
▁dissipated	-7954
▁restricted	-7955
▁territorial	-7956
avel	-7957
beer	-7958
fted	-7959
inor	-7960
pled	-7961
▁Bad	-7962
▁Eug	-7963
▁alc	-7964
▁buy	-7965
bours	-7966
▁Buck	-7967
▁Room	-7968
▁Tang	-7969
▁Then	-7970
▁mush	-7971
▁safe	-7972
▁plain	-7973
▁price	-7974
▁rates	-7975
▁xenon	-7976
▁advice	-7977
▁factors	-7978
▁feather	-7979
▁fishing	-7980
▁removal	-7981
▁sisters	-7982
▁arriving	-7983
▁creative	-7984
▁download	-7985
▁Robertson	-7986
▁Underwood	-7987
▁acknowled	-7988
▁emergency	-7989
▁sufficient	-7990
▁suggesting	-7991
▁negotiations	-7992
▁neighborhood	-7993
▁distinguished	-7994
agg	-7995
bla	-7996
nce	-7997
sex	-7998
▁168	-7999
▁Cam	-8000
▁Dig	-8001
▁Tar	-8002
inals	-8003
▁Kart	-8004
▁Pear	-8005
▁vice	-8006
▁Herze	-8007
iblical	-8008
▁blocks	-8009
▁founder	-8010
▁soldier	-8011
sequently	-8012
▁Madagasc	-8013
▁Princess	-8014
▁explains	-8015
▁imprison	-8016
▁Norwegian	-8017
▁afternoon	-8018
▁childhood	-8019
▁intercept	-8020
▁languages	-8021
▁Independent	-8022
▁distinctive	-8023
ya	-8024
bro	-8025
uda	-8026
▁AM	-8027
▁ho	-8028
Some	-8029
inct	-8030
▁tip	-8031
atops	-8032
otton	-8033
tario	-8034
▁1908	-8035
▁1929	-8036
▁Khan	-8037
▁Sora	-8038
▁Braat	-8039
▁Minor	-8040
▁feels	-8041
▁usual	-8042
▁Claire	-8043
▁Peters	-8044
▁Philip	-8045
▁Rafale	-8046
▁repair	-8047
▁retail	-8048
▁towers	-8049
▁useful	-8050
▁Ontario	-8051
▁bearing	-8052
▁genetic	-8053
▁periods	-8054
▁ranging	-8055
▁resumed	-8056
▁signing	-8057
▁coverage	-8058
▁covering	-8059
▁delivery	-8060
▁severely	-8061
▁specimen	-8062
▁magazines	-8063
▁prisoners	-8064
▁submitted	-8065
▁destroyers	-8066
▁intensified	-8067
24	-8068
SP	-8069
sta	-8070
corn	-8071
rows	-8072
▁Cas	-8073
inder	-8074
llect	-8075
▁Bush	-8076
▁Carr	-8077
▁boys	-8078
▁phen	-8079
▁turb	-8080
inally	-8081
▁Diego	-8082
▁alter	-8083
▁camps	-8084
▁categ	-8085
▁coinc	-8086
▁queen	-8087
olition	-8088
▁Flying	-8089
antastic	-8090
▁Toronto	-8091
▁succeed	-8092
▁Matthews	-8093
▁argument	-8094
▁collapse	-8095
▁friendly	-8096
▁monument	-8097
▁thinking	-8098
▁professor	-8099
fct	-8100
▁Az	-8101
ocal	-8102
real	-8103
reck	-8104
rien	-8105
unes	-8106
utor	-8107
▁166	-8108
▁Sox	-8109
akapo	-8110
odore	-8111
▁1905	-8112
▁Ariz	-8113
▁Call	-8114
▁Iowa	-8115
▁cann	-8116
▁lake	-8117
▁puzz	-8118
▁ramp	-8119
▁sure	-8120
emeter	-8121
ulture	-8122
▁Tales	-8123
▁simpl	-8124
▁fitted	-8125
▁regime	-8126
▁remove	-8127
▁Gardner	-8128
▁amongst	-8129
▁anticip	-8130
▁benefit	-8131
▁willing	-8132
▁behaviour	-8133
▁percentage	-8134
▁Mississippi	-8135
nik	-8136
osh	-8137
▁09	-8138
edar	-8139
ilty	-8140
iyar	-8141
teor	-8142
▁Bal	-8143
▁Wic	-8144
▁Yue	-8145
Since	-8146
athus	-8147
▁Dave	-8148
▁Eric	-8149
▁Hugh	-8150
▁Marg	-8151
▁Stro	-8152
▁arts	-8153
rothes	-8154
▁Brist	-8155
▁amend	-8156
▁anime	-8157
▁lists	-8158
▁metab	-8159
▁Burton	-8160
▁Davies	-8161
▁devast	-8162
▁enthus	-8163
▁landed	-8164
▁dynasty	-8165
▁tension	-8166
ropolitan	-8167
▁memorial	-8168
▁regiment	-8169
▁Interstate	-8170
▁maintenance	-8171
▁quarterback	-8172
OT	-8173
lee	-8174
oto	-8175
appy	-8176
face	-8177
hire	-8178
▁Ali	-8179
▁Tal	-8180
▁wet	-8181
oking	-8182
▁1860	-8183
▁Init	-8184
▁myst	-8185
▁twin	-8186
▁Isaac	-8187
▁Watch	-8188
▁angle	-8189
▁basin	-8190
▁grown	-8191
▁partn	-8192
elstein	-8193
ichmann	-8194
▁extent	-8195
▁smooth	-8196
▁values	-8197
▁Arizona	-8198
▁artwork	-8199
▁bombard	-8200
▁freedom	-8201
▁reveals	-8202
▁artistic	-8203
▁cyclones	-8204
▁dominant	-8205
▁schedule	-8206
▁spending	-8207
▁Argentina	-8208
▁Represent	-8209
▁divisions	-8210
▁encounter	-8211
▁Madagascar	-8212
▁Nevertheless	-8213
PA	-8214
To	-8215
din	-8216
gro	-8217
lyn	-8218
▁Ok	-8219
▁Wu	-8220
▁ju	-8221
aine	-8222
ista	-8223
▁Dyn	-8224
▁pin	-8225
▁upd	-8226
inian	-8227
orage	-8228
▁Gate	-8229
▁Last	-8230
▁Pict	-8231
▁blow	-8232
▁infl	-8233
▁beats	-8234
▁bones	-8235
▁dynam	-8236
▁surge	-8237
▁Alfred	-8238
▁arrive	-8239
▁autobi	-8240
▁choose	-8241
▁contra	-8242
▁rounds	-8243
▁signal	-8244
▁Patrick	-8245
▁Pirates	-8246
▁batting	-8247
▁cavalry	-8248
▁surgery	-8249
▁trained	-8250
▁Herzegov	-8251
▁Rosebery	-8252
▁struggle	-8253
▁Frederick	-8254
▁dangerous	-8255
▁candidates	-8256
aki	-8257
bes	-8258
cru	-8259
tex	-8260
gett	-8261
▁Bry	-8262
▁Dec	-8263
▁Guy	-8264
▁wel	-8265
itter	-8266
▁1927	-8267
▁Bald	-8268
▁Benn	-8269
▁Clem	-8270
▁Plat	-8271
▁reun	-8272
▁swim	-8273
glades	-8274
▁diver	-8275
▁faces	-8276
▁fixed	-8277
▁wants	-8278
▁Bright	-8279
▁Cooper	-8280
▁Giants	-8281
▁Hubble	-8282
▁Quebec	-8283
▁citing	-8284
▁crisis	-8285
▁riding	-8286
▁Simpson	-8287
▁artific	-8288
▁circuit	-8289
▁density	-8290
▁fifteen	-8291
▁helicop	-8292
▁seeking	-8293
▁absolute	-8294
inkelstein	-8295
▁elsewhere	-8296
▁execution	-8297
▁prevented	-8298
▁conversion	-8299
▁demolished	-8300
▁Wilberforce	-8301
▁institution	-8302
▁demonstrated	-8303
mo	-8304
▁Dw	-8305
Most	-8306
burn	-8307
othy	-8308
rett	-8309
▁Fif	-8310
▁Key	-8311
▁orb	-8312
icide	-8313
night	-8314
▁1926	-8315
▁Boys	-8316
▁Lost	-8317
▁cous	-8318
▁pron	-8319
▁raid	-8320
▁Files	-8321
▁Roger	-8322
▁marks	-8323
▁polar	-8324
▁redsh	-8325
▁squad	-8326
▁Bureau	-8327
▁Health	-8328
▁Mohave	-8329
▁Bristol	-8330
▁pyramid	-8331
▁Townsend	-8332
▁prompted	-8333
▁sentence	-8334
▁intellect	-8335
▁uncertain	-8336
▁concurrent	-8337
▁impression	-8338
▁Herzegovina	-8339
▁participate	-8340
▁residential	-8341
Re	-8342
amm	-8343
gie	-8344
▁105	-8345
▁169	-8346
▁Cyr	-8347
▁Sid	-8348
▁adm	-8349
▁1904	-8350
▁1906	-8351
▁Clar	-8352
▁Shak	-8353
▁anth	-8354
▁boil	-8355
▁Blues	-8356
▁Sarah	-8357
▁kings	-8358
▁tight	-8359
emetery	-8360
▁Garden	-8361
▁Modern	-8362
▁comfort	-8363
▁reaches	-8364
▁shorter	-8365
▁slavery	-8366
▁Bellaire	-8367
▁Malaysia	-8368
▁commemor	-8369
▁concerts	-8370
▁dramatic	-8371
▁interpre	-8372
▁remnants	-8373
▁vertical	-8374
▁essential	-8375
▁biographer	-8376
▁mainstream	-8377
▁permission	-8378
▁Christopher	-8379
PC	-8380
ivan	-8381
olen	-8382
orer	-8383
rine	-8384
▁Kra	-8385
enous	-8386
▁1864	-8387
▁Frid	-8388
▁Lisa	-8389
▁Meth	-8390
ieties	-8391
inding	-8392
▁Colts	-8393
▁craft	-8394
▁elder	-8395
▁pages	-8396
▁relie	-8397
▁tanks	-8398
▁covers	-8399
▁ranges	-8400
▁subsid	-8401
▁Georgia	-8402
▁Rangers	-8403
▁carrier	-8404
▁earthqu	-8405
▁funeral	-8406
▁profile	-8407
▁samples	-8408
▁testing	-8409
▁Illmatic	-8410
▁Morrison	-8411
▁dialogue	-8412
▁disaster	-8413
▁displays	-8414
▁solution	-8415
▁abilities	-8416
▁surrender	-8417
▁Everglades	-8418
MA	-8419
ela	-8420
sea	-8421
tel	-8422
▁Ga	-8423
hist	-8424
▁Cre	-8425
▁Las	-8426
▁Mes	-8427
▁Son	-8428
▁Web	-8429
▁cup	-8430
▁err	-8431
▁hat	-8432
agher	-8433
aiden	-8434
▁Clay	-8435
▁Fall	-8436
▁Lind	-8437
▁clim	-8438
▁jobs	-8439
▁wasn	-8440
▁bases	-8441
▁doubt	-8442
▁moral	-8443
▁burned	-8444
▁notice	-8445
▁owners	-8446
▁rhythm	-8447
▁streak	-8448
▁Belgium	-8449
▁Driberg	-8450
▁Protest	-8451
▁assists	-8452
▁forcing	-8453
▁neutral	-8454
▁walking	-8455
▁birthday	-8456
▁controls	-8457
▁offering	-8458
▁Louisiana	-8459
▁elevation	-8460
▁employees	-8461
▁occupation	-8462
▁Development	-8463
▁improvements	-8464
gi	-8465
kes	-8466
oven	-8467
pent	-8468
▁BCE	-8469
cules	-8470
overs	-8471
▁1923	-8472
▁1928	-8473
▁Conc	-8474
▁Stri	-8475
incial	-8476
▁Tessa	-8477
▁Yanke	-8478
▁acids	-8479
▁drain	-8480
▁explo	-8481
▁wrest	-8482
▁finals	-8483
▁intent	-8484
▁precip	-8485
▁rivers	-8486
▁decides	-8487
▁designer	-8488
▁festival	-8489
▁defeating	-8490
▁Depression	-8491
▁restaurant	-8492
▁advertising	-8493
▁competitions	-8494
ori	-8495
▁02	-8496
▁Cy	-8497
▁SS	-8498
Mont	-8499
olve	-8500
osph	-8501
▁Hyd	-8502
▁Ing	-8503
▁Edge	-8504
▁Ford	-8505
▁Gang	-8506
▁Lanc	-8507
▁Pier	-8508
▁Zhou	-8509
▁bran	-8510
▁Asian	-8511
▁Prior	-8512
▁diagn	-8513
▁pairs	-8514
▁seats	-8515
▁Leslie	-8516
▁Muslim	-8517
▁Nathan	-8518
▁Police	-8519
▁discip	-8520
▁medals	-8521
▁window	-8522
▁Nesbitt	-8523
▁keeping	-8524
▁monarch	-8525
▁pitcher	-8526
▁turrets	-8527
▁weekend	-8528
▁Veronica	-8529
▁musician	-8530
▁shipping	-8531
▁triangle	-8532
▁animation	-8533
▁disappoin	-8534
▁permitted	-8535
▁components	-8536
▁predecessor	-8537
▁preparation	-8538
▁establishing	-8539
32	-8540
▁MV	-8541
scar	-8542
▁Aud	-8543
▁orn	-8544
anasi	-8545
uther	-8546
▁Hope	-8547
▁Maur	-8548
▁Prix	-8549
▁diff	-8550
▁scar	-8551
celand	-8552
▁Grove	-8553
▁Metal	-8554
▁Omaha	-8555
▁Prize	-8556
▁Stein	-8557
▁comed	-8558
▁fifty	-8559
▁subst	-8560
▁trend	-8561
▁Chapel	-8562
▁Having	-8563
▁argues	-8564
▁guilty	-8565
▁poorly	-8566
▁rebell	-8567
▁amateur	-8568
▁clearly	-8569
▁boundary	-8570
▁overseas	-8571
▁remarked	-8572
▁requires	-8573
▁starring	-8574
▁Braathens	-8575
▁Communist	-8576
▁Dreamcast	-8577
▁Meyerbeer	-8578
▁depending	-8579
▁municipal	-8580
▁perceived	-8581
▁compliment	-8582
▁perspective	-8583
IA	-8584
Un	-8585
ala	-8586
boy	-8587
idel	-8588
ints	-8589
▁165	-8590
▁Gun	-8591
▁Hod	-8592
▁Ian	-8593
▁Lam	-8594
arnia	-8595
chell	-8596
onium	-8597
▁Iraq	-8598
▁Josh	-8599
▁cars	-8600
▁gang	-8601
▁tiss	-8602
▁vast	-8603
imeter	-8604
▁Athen	-8605
▁forty	-8606
▁lanes	-8607
▁ridge	-8608
▁ritual	-8609
▁tempor	-8610
atherine	-8611
▁Indians	-8612
▁charity	-8613
▁depicts	-8614
▁illness	-8615
▁joining	-8616
▁ongoing	-8617
▁windows	-8618
ationally	-8619
▁Eichmann	-8620
▁confront	-8621
▁counties	-8622
▁departed	-8623
▁apartment	-8624
▁audiences	-8625
▁suspended	-8626
▁battalions	-8627
▁eliminated	-8628
▁Constitution	-8629
fe	-8630
nal	-8631
rot	-8632
bets	-8633
ifts	-8634
urst	-8635
▁Bab	-8636
▁USS	-8637
▁cub	-8638
▁Lane	-8639
▁bare	-8640
▁frig	-8641
▁isot	-8642
▁outs	-8643
iently	-8644
▁analy	-8645
▁bombs	-8646
▁chrom	-8647
▁crops	-8648
▁drove	-8649
▁false	-8650
▁roots	-8651
▁Hokies	-8652
▁Korean	-8653
▁culmin	-8654
▁pursue	-8655
▁traded	-8656
▁Walpole	-8657
▁readers	-8658
▁approval	-8659
▁platinum	-8660
▁predomin	-8661
▁reflected	-8662
▁stationed	-8663
▁travelled	-8664
▁Yugoslavia	-8665
▁institutions	-8666
▁publications	-8667
11	-8668
wh	-8669
aks	-8670
asm	-8671
equ	-8672
nan	-8673
ogad	-8674
oken	-8675
olid	-8676
▁VII	-8677
▁gat	-8678
▁kne	-8679
▁sky	-8680
uster	-8681
▁1861	-8682
▁1922	-8683
▁Curt	-8684
▁Dram	-8685
▁Oslo	-8686
▁mand	-8687
▁rect	-8688
▁tale	-8689
▁Guide	-8690
▁Women	-8691
▁acted	-8692
▁releg	-8693
ologies	-8694
▁Dragon	-8695
▁Hearts	-8696
▁affili	-8697
▁asking	-8698
▁invent	-8699
▁revers	-8700
▁backing	-8701
▁demands	-8702
▁helping	-8703
▁survive	-8704
▁targets	-8705
▁Mitchell	-8706
▁annually	-8707
▁moderate	-8708
▁opportun	-8709
▁subjects	-8710
▁telescope	-8711
▁Glenrothes	-8712
▁colleagues	-8713
▁households	-8714
▁navigation	-8715
▁Outstanding	-8716
▁programming	-8717
Sp	-8718
015	-8719
▁AC	-8720
▁Si	-8721
▁Wy	-8722
mers	-8723
ohol	-8724
▁Neb	-8725
phone	-8726
▁Know	-8727
▁Leop	-8728
▁Soon	-8729
▁gust	-8730
▁plus	-8731
▁synd	-8732
weight	-8733
▁Hills	-8734
▁Islam	-8735
▁Point	-8736
▁badly	-8737
▁fatal	-8738
▁forth	-8739
▁gates	-8740
▁innov	-8741
▁Friday	-8742
▁allies	-8743
▁apprec	-8744
▁doctor	-8745
▁factor	-8746
▁inland	-8747
▁merely	-8748
▁strict	-8749
▁triple	-8750
▁Denmark	-8751
▁columns	-8752
▁console	-8753
▁earning	-8754
▁advertise	-8755
▁increases	-8756
▁northward	-8757
▁similarly	-8758
▁survivors	-8759
▁considering	-8760
ta	-8761
uv	-8762
012	-8763
aku	-8764
ardo	-8765
olis	-8766
▁174	-8767
▁Bou	-8768
▁Dal	-8769
▁Fut	-8770
▁Kil	-8771
▁McL	-8772
▁Rat	-8773
▁Sha	-8774
▁Voy	-8775
▁ped	-8776
▁Comb	-8777
▁Shel	-8778
▁Sign	-8779
▁bulk	-8780
iously	-8781
▁Brand	-8782
▁frust	-8783
▁surve	-8784
lington	-8785
▁circle	-8786
▁finale	-8787
▁racing	-8788
▁rising	-8789
▁seized	-8790
▁whilst	-8791
▁Mission	-8792
▁cadmium	-8793
▁closing	-8794
▁multipl	-8795
▁prepare	-8796
▁Administ	-8797
▁assembly	-8798
▁youngest	-8799
▁Peninsula	-8800
▁Pittsburgh	-8801
▁originated	-8802
▁researchers	-8803
▁environmental	-8804
▁benzodiazepines	-8805
Ne	-8806
ng	-8807
lax	-8808
uts	-8809
vet	-8810
zym	-8811
▁Ve	-8812
adow	-8813
daen	-8814
ovic	-8815
rous	-8816
▁;"}	-8817
▁Kit	-8818
▁Nik	-8819
▁Pam	-8820
▁Tig	-8821
▁bot	-8822
▁ski	-8823
▁tot	-8824
child	-8825
icine	-8826
order	-8827
▁Mack	-8828
▁Sony	-8829
▁loan	-8830
urance	-8831
▁Again	-8832
▁Stock	-8833
▁molec	-8834
▁overt	-8835
▁truck	-8836
▁users	-8837
itively	-8838
▁Humber	-8839
▁Method	-8840
▁answer	-8841
▁expert	-8842
▁hidden	-8843
▁shares	-8844
▁spaces	-8845
▁voiced	-8846
▁Liberal	-8847
▁Perform	-8848
▁altered	-8849
▁chamber	-8850
▁obvious	-8851
▁waiting	-8852
daenathus	-8853
▁junction	-8854
▁opponent	-8855
▁visiting	-8856
▁Education	-8857
▁frequency	-8858
▁practices	-8859
▁underwent	-8860
▁comparison	-8861
▁connecting	-8862
▁convention	-8863
▁definition	-8864
▁operational	-8865
▁archaeological	-8866
VN	-8867
ohn	-8868
Many	-8869
acle	-8870
brid	-8871
cham	-8872
olly	-8873
▁Aff	-8874
▁Box	-8875
▁Eva	-8876
▁Lim	-8877
▁Pic	-8878
▁duo	-8879
azing	-8880
othes	-8881
▁Gary	-8882
▁Mand	-8883
▁Pope	-8884
▁answ	-8885
▁coat	-8886
▁mixt	-8887
estone	-8888
▁Human	-8889
▁Korea	-8890
▁Place	-8891
▁Sweet	-8892
▁Tokyo	-8893
▁advoc	-8894
▁laugh	-8895
▁layer	-8896
▁prove	-8897
▁wider	-8898
▁Author	-8899
▁Labour	-8900
▁bypass	-8901
▁copper	-8902
▁limits	-8903
▁salary	-8904
▁Austria	-8905
▁carries	-8906
▁cleared	-8907
▁partial	-8908
▁trouble	-8909
▁armament	-8910
▁hydrogen	-8911
▁suitable	-8912
▁celebrated	-8913
▁touchdowns	-8914
▁communication	-8915
▁parliamentary	-8916
TW	-8917
cu	-8918
uli	-8919
asha	-8920
ishu	-8921
olia	-8922
uits	-8923
wall	-8924
▁kit	-8925
▁lem	-8926
▁nat	-8927
lings	-8928
venge	-8929
▁Dick	-8930
▁Gill	-8931
▁Hind	-8932
▁Isab	-8933
▁Jews	-8934
▁RAAF	-8935
▁Such	-8936
▁exha	-8937
▁offs	-8938
▁Crazy	-8939
▁Haiti	-8940
▁Prote	-8941
▁brill	-8942
▁flash	-8943
▁innoc	-8944
▁looks	-8945
▁sheep	-8946
Several	-8947
assador	-8948
ometric	-8949
ructure	-8950
▁Graham	-8951
▁aerial	-8952
▁fallen	-8953
▁kakapo	-8954
▁lacked	-8955
▁parish	-8956
▁profit	-8957
▁pulled	-8958
▁stores	-8959
▁supple	-8960
ogadishu	-8961
▁Friends	-8962
▁airline	-8963
▁closest	-8964
▁exposed	-8965
▁illegal	-8966
▁justice	-8967
▁peaking	-8968
▁volumes	-8969
▁produces	-8970
▁believing	-8971
▁excellent	-8972
▁initiated	-8973
▁passenger	-8974
▁struggled	-8975
▁Federation	-8976
▁Paralympic	-8977
▁artificial	-8978
▁appointment	-8979
▁partnership	-8980
▁administrative	-8981
Te	-8982
ea	-8983
emb	-8984
▁04	-8985
inje	-8986
▁360	-8987
▁Fur	-8988
▁McD	-8989
▁Ton	-8990
anger	-8991
etime	-8992
prise	-8993
▁Publ	-8994
▁conj	-8995
▁coup	-8996
▁fles	-8997
▁horn	-8998
▁jury	-8999
aceous	-9000
akespe	-9001
asters	-9002
atever	-9003
▁Jason	-9004
▁Tamil	-9005
▁exter	-9006
▁Dwight	-9007
▁affair	-9008
▁chapel	-9009
▁desert	-9010
▁hockey	-9011
ensively	-9012
▁compens	-9013
▁hitting	-9014
▁Township	-9015
▁familiar	-9016
▁reducing	-9017
▁relation	-9018
▁engineers	-9019
▁mountains	-9020
▁aggressive	-9021
▁publishing	-9022
▁announcement	-9023
icy	-9024
▁Bh	-9025
▁121	-9026
▁fox	-9027
birds	-9028
ifies	-9029
ighth	-9030
mates	-9031
oming	-9032
ultan	-9033
▁1895	-9034
▁Holy	-9035
▁Pyth	-9036
▁Rick	-9037
▁hull	-9038
edkare	-9039
oustic	-9040
▁Helms	-9041
▁compr	-9042
▁uncle	-9043
eratops	-9044
▁Greece	-9045
▁device	-9046
▁eating	-9047
▁guaran	-9048
▁vulner	-9049
▁Runcorn	-9050
▁amounts	-9051
▁bombers	-9052
▁explain	-9053
▁physics	-9054
▁printed	-9055
▁touring	-9056
▁trading	-9057
▁uniform	-9058
urricanes	-9059
▁Historic	-9060
▁phenomen	-9061
▁collapsed	-9062
▁directors	-9063
▁businesses	-9064
▁completing	-9065
▁indigenous	-9066
▁grandfather	-9067
lap	-9068
mes	-9069
ohl	-9070
rip	-9071
enet	-9072
orge	-9073
wald	-9074
▁Dub	-9075
▁Lil	-9076
▁MVP	-9077
▁Nov	-9078
▁abb	-9079
Other	-9080
▁Disc	-9081
▁Emmy	-9082
▁Lion	-9083
▁Nine	-9084
▁Ship	-9085
▁Xbox	-9086
▁dogs	-9087
▁pole	-9088
▁wore	-9089
▁Oscar	-9090
▁funny	-9091
▁teach	-9092
rincham	-9093
▁Harris	-9094
▁Torres	-9095
▁dubbed	-9096
inations	-9097
▁Atlanta	-9098
▁Holland	-9099
▁Iceland	-9100
▁Swedish	-9101
▁armored	-9102
▁balance	-9103
▁centers	-9104
▁confron	-9105
▁deities	-9106
▁erected	-9107
▁nucleus	-9108
▁mainland	-9109
▁overwhel	-9110
▁Mountains	-9111
▁Territory	-9112
▁exclusive	-9113
▁explosion	-9114
▁indicates	-9115
▁scattered	-9116
▁respective	-9117
▁restoration	-9118
▁architectural	-9119
▁entertainment	-9120
▁transportation	-9121
ASA	-9122
▁GA	-9123
▁295	-9124
▁Anc	-9125
▁Ara	-9126
▁Ext	-9127
▁Jag	-9128
▁Ted	-9129
ester	-9130
outon	-9131
▁1850	-9132
▁Cart	-9133
▁Usta	-9134
▁bone	-9135
▁rede	-9136
▁tomb	-9137
anking	-9138
▁Jimmy	-9139
▁Sheff	-9140
▁altar	-9141
▁blues	-9142
▁ideal	-9143
▁lying	-9144
▁miner	-9145
▁print	-9146
ulating	-9147
▁Bonnet	-9148
▁Miller	-9149
▁propag	-9150
▁shield	-9151
▁Program	-9152
▁Tribune	-9153
▁putting	-9154
▁clothing	-9155
▁enlisted	-9156
▁realized	-9157
▁Similarly	-9158
▁traveling	-9159
▁convection	-9160
▁personally	-9161
▁Finkelstein	-9162
▁temporarily	-9163
bl	-9164
eto	-9165
▁PA	-9166
fire	-9167
ogan	-9168
▁pir	-9169
iston	-9170
ulous	-9171
▁Nazi	-9172
rapers	-9173
▁Palau	-9174
▁Spart	-9175
▁bears	-9176
▁rugby	-9177
▁yield	-9178
▁Sweden	-9179
▁agency	-9180
▁reveal	-9181
▁cabinet	-9182
▁neutron	-9183
imination	-9184
▁surprise	-9185
▁Greenland	-9186
▁decisions	-9187
▁predicted	-9188
▁earthquake	-9189
▁employment	-9190
▁indicating	-9191
▁lieutenant	-9192
▁newspapers	-9193
▁simultaneously	-9194
CA	-9195
soft	-9196
umps	-9197
yson	-9198
▁Arn	-9199
raham	-9200
urday	-9201
▁1907	-9202
▁Maya	-9203
▁NCAA	-9204
▁fill	-9205
betsch	-9206
veland	-9207
▁Allen	-9208
▁Anglo	-9209
▁Story	-9210
▁Witch	-9211
▁aimed	-9212
▁burns	-9213
▁overl	-9214
▁prize	-9215
▁sharp	-9216
▁signs	-9217
achment	-9218
▁Herald	-9219
▁Rivers	-9220
▁banned	-9221
▁weekly	-9222
munition	-9223
▁Charlie	-9224
▁Keswick	-9225
▁Without	-9226
▁distant	-9227
akespeare	-9228
aulbetsch	-9229
▁Banagher	-9230
▁Business	-9231
▁Chambers	-9232
▁Engineer	-9233
▁merchant	-9234
▁policies	-9235
▁protests	-9236
▁defending	-9237
▁favorable	-9238
▁provision	-9239
▁Odaenathus	-9240
▁Queensland	-9241
▁attraction	-9242
▁Australians	-9243
▁Philippines	-9244
▁Construction	-9245
▁contribution	-9246
oz	-9247
fts	-9248
mat	-9249
▁EP	-9250
▁Pu	-9251
▁au	-9252
Tube	-9253
acre	-9254
elli	-9255
▁111	-9256
▁Pul	-9257
▁vel	-9258
angel	-9259
anyon	-9260
endar	-9261
oples	-9262
otten	-9263
shore	-9264
▁Anne	-9265
▁Fish	-9266
▁Whit	-9267
▁fate	-9268
▁liqu	-9269
itudes	-9270
▁Girls	-9271
▁Haven	-9272
▁banks	-9273
▁const	-9274
▁renov	-9275
▁strip	-9276
▁Johnny	-9277
▁airing	-9278
▁ceased	-9279
▁crimes	-9280
▁ethnic	-9281
▁gentle	-9282
▁margin	-9283
▁mining	-9284
▁pretty	-9285
▁proced	-9286
▁string	-9287
▁Stevens	-9288
▁dispers	-9289
▁raising	-9290
▁Jonathan	-9291
▁Saturday	-9292
▁embarked	-9293
▁feathers	-9294
▁fighters	-9295
▁patterns	-9296
▁Cleveland	-9297
▁conservation	-9298
wan	-9299
▁03	-9300
ials	-9301
iley	-9302
uras	-9303
▁112	-9304
▁115	-9305
▁Nad	-9306
▁Ple	-9307
▁bay	-9308
▁rig	-9309
aniel	-9310
esses	-9311
▁1896	-9312
▁brig	-9313
▁cuts	-9314
▁fold	-9315
▁hook	-9316
▁sank	-9317
▁sulf	-9318
▁sung	-9319
ellite	-9320
▁Abbey	-9321
▁Ceres	-9322
▁Danny	-9323
▁alive	-9324
▁dense	-9325
▁flesh	-9326
▁ratio	-9327
▁shock	-9328
cussion	-9329
uations	-9330
▁Archae	-9331
▁Warren	-9332
▁stress	-9333
▁switch	-9334
▁courses	-9335
▁marking	-9336
▁storage	-9337
▁Thompson	-9338
▁compound	-9339
▁interact	-9340
▁striking	-9341
▁Sheffield	-9342
▁Victorian	-9343
▁marketing	-9344
▁Laboratory	-9345
▁ammunition	-9346
▁transformer	-9347
▁Christianity	-9348
▁strengthened	-9349
▁opportunities	-9350
hum	-9351
ubb	-9352
ghan	-9353
▁Adv	-9354
▁Tru	-9355
▁UBS	-9356
▁clin	-9357
▁dict	-9358
▁eval	-9359
▁pace	-9360
▁prev	-9361
▁seed	-9362
bourne	-9363
▁Blair	-9364
▁goods	-9365
▁paras	-9366
▁phone	-9367
ruption	-9368
▁Agency	-9369
▁fungus	-9370
▁promin	-9371
▁shells	-9372
▁topped	-9373
▁Alberta	-9374
▁Digital	-9375
▁Periyar	-9376
▁YouTube	-9377
▁Robinson	-9378
▁attained	-9379
▁colonies	-9380
▁graduate	-9381
▁magnetic	-9382
▁Initially	-9383
▁cancelled	-9384
▁investment	-9385
▁provincial	-9386
▁registered	-9387
▁Furthermore	-9388
▁instrumental	-9389
▁Championships	-9390
zel	-9391
zow	-9392
itic	-9393
omes	-9394
onso	-9395
rome	-9396
▁Gre	-9397
▁Tel	-9398
▁WWE	-9399
▁vow	-9400
▁1830	-9401
▁Fern	-9402
▁Jess	-9403
▁murd	-9404
▁Burns	-9405
▁Cyrus	-9406
▁Grant	-9407
▁brick	-9408
▁flown	-9409
▁memor	-9410
▁toler	-9411
▁wheel	-9412
▁Canyon	-9413
▁exclud	-9414
▁phrase	-9415
▁Abraham	-9416
▁Stefani	-9417
▁dancing	-9418
▁exactly	-9419
▁farmers	-9420
▁matters	-9421
▁shifted	-9422
▁tactics	-9423
▁Varanasi	-9424
▁counterp	-9425
▁drinking	-9426
▁battlecru	-9427
▁confusion	-9428
▁considers	-9429
▁construct	-9430
▁ownership	-9431
▁continuous	-9432
▁engagement	-9433
▁repeatedly	-9434
▁educational	-9435
▁productions	-9436
▁arrangements	-9437
DH	-9438
die	-9439
arth	-9440
elle	-9441
otte	-9442
xual	-9443
▁Abu	-9444
▁Rox	-9445
▁fra	-9446
ashes	-9447
ernal	-9448
▁Girl	-9449
▁Hamp	-9450
▁fram	-9451
▁nurs	-9452
▁sang	-9453
fctzow	-9454
▁Bible	-9455
▁Event	-9456
▁Micro	-9457
▁saved	-9458
▁slave	-9459
▁waves	-9460
▁Mother	-9461
▁Mouton	-9462
▁aggreg	-9463
▁backed	-9464
▁edited	-9465
▁exists	-9466
▁horror	-9467
▁housed	-9468
▁victim	-9469
▁Buffalo	-9470
▁cutting	-9471
▁escaped	-9472
▁evolved	-9473
▁sitting	-9474
▁surrend	-9475
▁Phillips	-9476
▁Railroad	-9477
▁Stroheim	-9478
▁acoustic	-9479
▁exposure	-9480
▁westward	-9481
▁brilliant	-9482
▁portrayal	-9483
▁replacing	-9484
▁translated	-9485
▁Shakespeare	-9486
▁improvement	-9487
▁legislature	-9488
eu	-9489
evo	-9490
isy	-9491
oel	-9492
lete	-9493
urer	-9494
▁161	-9495
▁Ren	-9496
icing	-9497
laced	-9498
▁Anna	-9499
▁Coll	-9500
▁Hand	-9501
▁Mall	-9502
▁Rest	-9503
▁boss	-9504
▁doct	-9505
▁thor	-9506
▁worn	-9507
laimed	-9508
otions	-9509
▁Neigh	-9510
▁Peace	-9511
▁Ridge	-9512
▁abuse	-9513
▁bonus	-9514
▁patri	-9515
▁pione	-9516
▁unlik	-9517
▁Dakota	-9518
▁Pythag	-9519
▁Sarnia	-9520
▁atomic	-9521
▁behalf	-9522
▁faster	-9523
▁indeed	-9524
▁mobile	-9525
▁varied	-9526
▁Writing	-9527
▁charted	-9528
▁fastest	-9529
▁persons	-9530
▁sending	-9531
▁transit	-9532
▁constitu	-9533
▁defences	-9534
▁portions	-9535
▁inclusion	-9536
▁objective	-9537
▁predators	-9538
▁proposals	-9539
▁seriously	-9540
▁Altrincham	-9541
▁understood	-9542
▁maintaining	-9543
▁concentrated	-9544
▁reconstruction	-9545
oda	-9546
opl	-9547
ieth	-9548
urre	-9549
▁Amy	-9550
▁Cob	-9551
▁Hib	-9552
▁Nar	-9553
▁Tak	-9554
▁Yam	-9555
jamin	-9556
lined	-9557
▁Deep	-9558
▁Jere	-9559
▁Near	-9560
▁fasc	-9561
semble	-9562
▁Lucas	-9563
▁Nancy	-9564
▁mines	-9565
▁proof	-9566
▁ranks	-9567
▁skill	-9568
▁weigh	-9569
lection	-9570
▁DuMont	-9571
▁McCall	-9572
▁Nichol	-9573
▁acquis	-9574
▁blacks	-9575
▁extrat	-9576
▁tasked	-9577
▁bombing	-9578
▁handled	-9579
▁origins	-9580
▁terrain	-9581
▁theater	-9582
▁Champion	-9583
▁Franklin	-9584
▁accurate	-9585
▁certainly	-9586
▁nominations	-9587
▁subtropical	-9588
▁presentation	-9589
▁transmission	-9590
▁extratropical	-9591
▁reinforcements	-9592
rac	-9593
erto	-9594
life	-9595
odge	-9596
oshi	-9597
racy	-9598
vada	-9599
▁Aer	-9600
▁CBS	-9601
▁Rio	-9602
▁Sel	-9603
▁Zag	-9604
▁lad	-9605
▁sad	-9606
onsin	-9607
orkin	-9608
ospel	-9609
white	-9610
▁Fund	-9611
▁Wisc	-9612
▁cens	-9613
▁meat	-9614
▁unex	-9615
▁Camer	-9616
▁Stand	-9617
▁walks	-9618
ullivan	-9619
▁Father	-9620
▁wonder	-9621
▁Antonio	-9622
▁Marines	-9623
▁Mounted	-9624
▁Village	-9625
▁burning	-9626
▁suspect	-9627
abilities	-9628
▁branches	-9629
▁conquest	-9630
▁praising	-9631
▁Mogadishu	-9632
▁Wisconsin	-9633
▁civilians	-9634
▁agriculture	-9635
▁exclusively	-9636
▁potentially	-9637
▁promotional	-9638
Hg	-9639
esp	-9640
pus	-9641
▁Ep	-9642
ails	-9643
omot	-9644
otal	-9645
pert	-9646
zant	-9647
▁Div	-9648
▁Fem	-9649
▁Ist	-9650
▁Nat	-9651
▁Ral	-9652
▁owl	-9653
ricts	-9654
▁Bass	-9655
▁Drum	-9656
▁Gray	-9657
▁Marl	-9658
▁Sout	-9659
▁cook	-9660
▁encl	-9661
▁sack	-9662
▁scen	-9663
▁styl	-9664
▁Parks	-9665
▁Simba	-9666
▁Somet	-9667
▁quiet	-9668
▁witch	-9669
avalona	-9670
▁Hockey	-9671
▁Morris	-9672
▁Sultan	-9673
▁Trophy	-9674
▁parent	-9675
▁poison	-9676
▁Beatles	-9677
▁Brother	-9678
▁Connect	-9679
▁Defence	-9680
▁advised	-9681
▁dressed	-9682
▁talking	-9683
ibilities	-9684
▁Benjamin	-9685
▁Djedkare	-9686
▁flagship	-9687
▁throwing	-9688
▁Princeton	-9689
▁Radiohead	-9690
▁Universal	-9691
▁friendship	-9692
▁profession	-9693
▁prosperity	-9694
▁recordings	-9695
▁interaction	-9696
▁conservative	-9697
▁similarities	-9698
And	-9699
ito	-9700
▁Ay	-9701
▁Bi	-9702
▁pm	-9703
oves	-9704
▁125	-9705
▁Abd	-9706
▁Amb	-9707
▁ing	-9708
aping	-9709
enged	-9710
odium	-9711
▁1901	-9712
▁Chel	-9713
▁Gran	-9714
▁Magn	-9715
▁anch	-9716
▁inHg	-9717
▁rhym	-9718
▁ther	-9719
ossett	-9720
▁Keats	-9721
▁Minaj	-9722
▁Wells	-9723
▁accum	-9724
▁amino	-9725
▁enzym	-9726
▁kills	-9727
▁steps	-9728
▁Branca	-9729
▁Byzant	-9730
▁Tigers	-9731
▁Walker	-9732
▁conven	-9733
▁cousin	-9734
▁fisher	-9735
▁regist	-9736
▁reluct	-9737
▁unless	-9738
▁visits	-9739
▁Belgian	-9740
▁Dorothy	-9741
▁affairs	-9742
▁comprom	-9743
▁failing	-9744
▁passion	-9745
▁suicide	-9746
▁Computer	-9747
▁emphasis	-9748
▁unlikely	-9749
▁orchestra	-9750
▁referring	-9751
▁Maulbetsch	-9752
▁Protestant	-9753
▁attendance	-9754
▁theatrical	-9755
▁approaching	-9756
▁compilation	-9757
▁organisation	-9758
▁representatives	-9759
DS	-9760
OS	-9761
AFE	-9762
arr	-9763
ggy	-9764
▁Da	-9765
▁Lh	-9766
▁Ob	-9767
akot	-9768
iche	-9769
▁155	-9770
▁Fat	-9771
▁ion	-9772
▁nut	-9773
▁1894	-9774
▁Celt	-9775
▁SAFE	-9776
▁fulf	-9777
▁wait	-9778
▁Burke	-9779
▁Found	-9780
▁Pedra	-9781
▁marry	-9782
▁sized	-9783
▁trust	-9784
eredith	-9785
▁Clarke	-9786
▁Madrid	-9787
▁ballad	-9788
▁orange	-9789
▁priest	-9790
▁Edition	-9791
▁Natural	-9792
▁Springs	-9793
▁Yankees	-9794
▁discont	-9795
▁evident	-9796
▁feeding	-9797
▁lyrical	-9798
▁peoples	-9799
▁surpass	-9800
▁Michelle	-9801
▁determin	-9802
▁duration	-9803
▁highways	-9804
▁thirteen	-9805
▁alignment	-9806
▁organisms	-9807
▁authorized	-9808
▁documented	-9809
TA	-9810
hu	-9811
Man	-9812
aja	-9813
pez	-9814
▁kW	-9815
▁sq	-9816
▁NOK	-9817
▁net	-9818
adier	-9819
regon	-9820
yline	-9821
▁Grey	-9822
▁Mans	-9823
▁Stra	-9824
▁exem	-9825
▁pale	-9826
▁slip	-9827
▁fault	-9828
▁steep	-9829
▁upset	-9830
▁Butter	-9831
▁Dennis	-9832
▁palace	-9833
▁Hungary	-9834
▁Monster	-9835
▁Russell	-9836
▁alcohol	-9837
▁holiday	-9838
▁hostile	-9839
▁mixture	-9840
▁wealthy	-9841
▁attitude	-9842
▁machines	-9843
▁prospect	-9844
▁valuable	-9845
▁biography	-9846
▁depicting	-9847
▁destroyer	-9848
▁proceeded	-9849
▁reduction	-9850
▁proportion	-9851
▁reinforced	-9852
▁settlements	-9853
▁revolutionary	-9854
ami	-9855
tes	-9856
▁SN	-9857
John	-9858
asts	-9859
lake	-9860
oons	-9861
ovac	-9862
▁167	-9863
▁171	-9864
▁173	-9865
▁240	-9866
▁Joy	-9867
▁Sax	-9868
▁scr	-9869
borne	-9870
obile	-9871
place	-9872
▁1903	-9873
▁Goth	-9874
▁Next	-9875
▁clan	-9876
▁cock	-9877
▁danc	-9878
▁garn	-9879
▁rout	-9880
▁tort	-9881
▁wish	-9882
rehens	-9883
uating	-9884
▁Heavy	-9885
▁Lloyd	-9886
▁chess	-9887
▁maneu	-9888
▁taste	-9889
▁uncom	-9890
▁venue	-9891
amental	-9892
▁Nansen	-9893
▁Oregon	-9894
▁Zagreb	-9895
▁breeds	-9896
▁cancel	-9897
▁corpor	-9898
▁cotton	-9899
▁lawyer	-9900
▁myster	-9901
▁sacrif	-9902
▁sample	-9903
▁Clemson	-9904
▁electro	-9905
▁revised	-9906
▁warfare	-9907
▁Athletic	-9908
▁Campaign	-9909
▁identify	-9910
▁insisted	-9911
▁supplied	-9912
▁universe	-9913
▁writings	-9914
▁conflicts	-9915
▁elaborate	-9916
▁extending	-9917
▁followers	-9918
▁graduated	-9919
▁intermedi	-9920
▁preparing	-9921
▁releasing	-9922
▁strongest	-9923
▁politicians	-9924
92	-9925
EC	-9926
dod	-9927
iph	-9928
uez	-9929
▁Fa	-9930
asks	-9931
urse	-9932
▁Our	-9933
▁Pra	-9934
▁Ses	-9935
▁USD	-9936
▁Wiz	-9937
itage	-9938
▁Chen	-9939
▁Skin	-9940
▁ages	-9941
▁beam	-9942
▁vers	-9943
Before	-9944
apolis	-9945
▁Baker	-9946
▁Globe	-9947
▁Mayor	-9948
▁Those	-9949
▁dolph	-9950
▁redes	-9951
▁smoke	-9952
▁valid	-9953
jection	-9954
▁Heaven	-9955
▁Return	-9956
▁explan	-9957
▁summit	-9958
▁talent	-9959
▁toured	-9960
etheless	-9961
▁Bernard	-9962
▁Classic	-9963
▁Defense	-9964
▁Brighton	-9965
▁Heritage	-9966
▁creature	-9967
▁gathered	-9968
▁Northwest	-9969
▁Professor	-9970
▁conceived	-9971
▁radiation	-9972
▁relatives	-9973
▁sponsored	-9974
▁supernova	-9975
▁exhibition	-9976
▁accompanying	-9977
▁assassination	-9978
gra	-9979
pen	-9980
zed	-9981
▁VC	-9982
away	-9983
gson	-9984
lain	-9985
rene	-9986
▁117	-9987
▁Bah	-9988
▁Dur	-9989
▁Hud	-9990
▁Leo	-9991
▁Stu	-9992
▁liv	-9993
isive	-9994
itate	-9995
▁1863	-9996
▁Lamb	-9997
▁kiss	-9998
▁mini	-9999
▁tonn	-10000
aining	-10001
boards	-10002
cially	-10003
▁Actor	-10004
▁Marie	-10005
▁attor	-10006
▁guide	-10007
▁helps	-10008
▁stuff	-10009
▁assess	-10010
▁decide	-10011
▁expand	-10012
▁fossil	-10013
▁mental	-10014
▁pilots	-10015
▁solely	-10016
▁spores	-10017
▁Bennett	-10018
▁Compton	-10019
▁Nanking	-10020
▁magical	-10021
▁placing	-10022
▁renewed	-10023
formation	-10024
▁Margaret	-10025
▁external	-10026
▁pregnant	-10027
▁rendered	-10028
▁neighbour	-10029
▁organised	-10030
▁Operations	-10031
▁mechanical	-10032
▁disappeared	-10033
▁extensively	-10034
▁conversation	-10035
ko	-10036
opy	-10037
yll	-10038
bons	-10039
idae	-10040
iner	-10041
irty	-10042
orph	-10043
othe	-10044
▁350	-10045
▁Roc	-10046
▁jur	-10047
▁urg	-10048
ajevo	-10049
antle	-10050
grade	-10051
▁Bert	-10052
▁Flow	-10053
▁Kang	-10054
▁kidn	-10055
▁pink	-10056
▁pump	-10057
▁Grade	-10058
▁Symph	-10059
▁admin	-10060
▁horiz	-10061
▁truly	-10062
▁wreck	-10063
inental	-10064
▁Fleury	-10065
▁Hawaii	-10066
▁Studio	-10067
▁exceed	-10068
▁funded	-10069
▁learns	-10070
▁mature	-10071
▁ruling	-10072
▁Critics	-10073
▁Jeffrey	-10074
▁imagery	-10075
▁replied	-10076
▁revenue	-10077
▁reverse	-10078
▁theorem	-10079
▁travels	-10080
▁Sarajevo	-10081
▁Sullivan	-10082
▁carriers	-10083
▁demanded	-10084
▁deterior	-10085
▁networks	-10086
▁numbered	-10087
▁qualified	-10088
▁strategic	-10089
▁universal	-10090
▁consistent	-10091
▁photographs	-10092
▁conventional	-10093
acc	-10094
how	-10095
isp	-10096
unc	-10097
▁ax	-10098
asis	-10099
hous	-10100
pike	-10101
▁Cow	-10102
▁Int	-10103
▁Sac	-10104
▁Sin	-10105
▁Tow	-10106
▁anx	-10107
▁fru	-10108
▁lip	-10109
Brien	-10110
agger	-10111
itely	-10112
senal	-10113
yself	-10114
▁1000	-10115
▁1889	-10116
▁Cond	-10117
▁Mong	-10118
▁Slam	-10119
▁bull	-10120
▁cosm	-10121
▁moon	-10122
offman	-10123
▁Trust	-10124
▁Yeats	-10125
▁aside	-10126
▁decay	-10127
▁hosts	-10128
▁infer	-10129
▁mouse	-10130
▁oblig	-10131
▁tubes	-10132
reement	-10133
▁Forbes	-10134
▁Market	-10135
▁cougar	-10136
▁danger	-10137
▁divine	-10138
▁stones	-10139
▁Commons	-10140
▁Typhoon	-10141
▁closure	-10142
▁credits	-10143
▁flowers	-10144
▁infrast	-10145
▁tourist	-10146
▁Armoured	-10147
▁Broadway	-10148
▁humanity	-10149
▁receives	-10150
▁vocalist	-10151
▁conscious	-10152
▁decorated	-10153
▁encourage	-10154
▁magnitude	-10155
▁satellite	-10156
▁Eventually	-10157
▁Management	-10158
▁commenting	-10159
▁incomplete	-10160
▁initiative	-10161
▁philosophy	-10162
▁requirements	-10163
▁contributions	-10164
."}	-10165
rik	-10166
utt	-10167
▁Kr	-10168
enna	-10169
iper	-10170
irts	-10171
warf	-10172
▁108	-10173
▁Vis	-10174
▁Wol	-10175
▁jaw	-10176
▁lie	-10177
▁unw	-10178
▁voy	-10179
arker	-10180
ewise	-10181
▁Kirk	-10182
▁Owen	-10183
▁elig	-10184
▁rice	-10185
master	-10186
▁Solid	-10187
▁Works	-10188
▁drugs	-10189
▁fewer	-10190
▁manga	-10191
▁usage	-10192
▁veloc	-10193
terbury	-10194
▁Legend	-10195
▁Napole	-10196
▁armies	-10197
▁memoir	-10198
▁mounts	-10199
▁recept	-10200
▁rivals	-10201
▁suspic	-10202
▁Doggett	-10203
▁Fleming	-10204
▁Million	-10205
▁beneath	-10206
▁clothes	-10207
▁repairs	-10208
▁spotted	-10209
▁Campbell	-10210
▁Hawaiian	-10211
▁Register	-10212
▁Richmond	-10213
▁eruption	-10214
▁generals	-10215
▁opposing	-10216
▁portrait	-10217
▁Palestine	-10218
▁districts	-10219
▁molecules	-10220
▁Activision	-10221
▁Applewhite	-10222
▁approaches	-10223
▁contestant	-10224
▁positively	-10225
▁travelling	-10226
▁interpreted	-10227
Two	-10228
oom	-10229
▁da	-10230
alia	-10231
egas	-10232
ilem	-10233
inea	-10234
inus	-10235
mont	-10236
phan	-10237
rawn	-10238
tery	-10239
▁Bod	-10240
▁FIA	-10241
▁Vic	-10242
▁nit	-10243
ensed	-10244
raska	-10245
▁1902	-10246
▁Body	-10247
▁Tina	-10248
▁Trek	-10249
▁gift	-10250
▁lamb	-10251
▁loud	-10252
▁outd	-10253
encing	-10254
ennium	-10255
ulates	-10256
▁Aston	-10257
▁Barry	-10258
▁Vegas	-10259
▁flows	-10260
▁manip	-10261
▁rever	-10262
▁sings	-10263
▁sympt	-10264
▁urged	-10265
itarian	-10266
▁Arabic	-10267
▁Curtis	-10268
▁Hamels	-10269
▁Observ	-10270
▁armour	-10271
▁bronze	-10272
▁curren	-10273
▁gender	-10274
▁warned	-10275
▁Foreign	-10276
▁acceler	-10277
▁formula	-10278
▁planets	-10279
▁temples	-10280
▁volcano	-10281
▁Together	-10282
▁mushroom	-10283
▁pitching	-10284
▁campaigns	-10285
▁daughters	-10286
▁Canterbury	-10287
▁commanders	-10288
▁surrendered	-10289
▁translation	-10290
▁transported	-10291
▁restrictions	-10292
dy	-10293
ui	-10294
agu	-10295
erk	-10296
▁AP	-10297
ashi	-10298
isen	-10299
opic	-10300
orms	-10301
▁Gon	-10302
▁Kal	-10303
▁RNA	-10304
erver	-10305
ettel	-10306
inery	-10307
readn	-10308
stock	-10309
▁1897	-10310
▁Lang	-10311
▁Quar	-10312
▁debt	-10313
▁forg	-10314
▁loop	-10315
▁root	-10316
▁soph	-10317
ancell	-10318
oelina	-10319
▁Innis	-10320
▁Lords	-10321
▁Years	-10322
▁cinem	-10323
▁loved	-10324
▁penet	-10325
▁texts	-10326
Through	-10327
regular	-10328
▁Harvey	-10329
▁Vettel	-10330
▁autumn	-10331
▁census	-10332
▁labour	-10333
▁tribut	-10334
▁Overall	-10335
▁explore	-10336
▁sixteen	-10337
▁Children	-10338
▁Greatest	-10339
▁Province	-10340
▁alliance	-10341
▁articles	-10342
▁audition	-10343
▁advancing	-10344
▁commenced	-10345
▁evacuated	-10346
▁challenges	-10347
▁questioned	-10348
▁structural	-10349
▁skyscrapers	-10350
▁speculation	-10351
iga	-10352
igs	-10353
ods	-10354
ulu	-10355
anks	-10356
ario	-10357
ctic	-10358
icut	-10359
lyss	-10360
ques	-10361
rank	-10362
▁Est	-10363
▁Gen	-10364
▁Mun	-10365
▁Ono	-10366
▁ton	-10367
▁1840	-10368
▁Bath	-10369
▁Finn	-10370
▁Irat	-10371
▁Mach	-10372
▁Race	-10373
▁Unas	-10374
▁View	-10375
▁caps	-10376
▁earn	-10377
▁mood	-10378
▁sick	-10379
pector	-10380
rolled	-10381
▁Liter	-10382
▁Wrest	-10383
▁grows	-10384
▁parks	-10385
▁vigil	-10386
▁waste	-10387
▁Barrow	-10388
▁Living	-10389
▁Murray	-10390
▁patrol	-10391
▁Officer	-10392
▁Voyager	-10393
▁arguing	-10394
▁exhibit	-10395
▁insects	-10396
▁options	-10397
▁Georgian	-10398
▁Nebraska	-10399
▁competed	-10400
▁Community	-10401
▁assembled	-10402
▁infection	-10403
▁occurring	-10404
▁watershed	-10405
▁Christians	-10406
▁challenged	-10407
▁songwriter	-10408
▁substitute	-10409
▁universities	-10410
▁precipitation	-10411
xim	-10412
alla	-10413
roph	-10414
▁123	-10415
▁202	-10416
▁mac	-10417
ieber	-10418
iency	-10419
illes	-10420
inces	-10421
unzel	-10422
▁1883	-10423
▁1899	-10424
▁Farm	-10425
▁Kate	-10426
▁Move	-10427
▁bowl	-10428
▁dual	-10429
▁genu	-10430
▁tape	-10431
alling	-10432
enesis	-10433
ported	-10434
usalem	-10435
▁Cuban	-10436
▁facil	-10437
▁inhab	-10438
▁stead	-10439
▁tours	-10440
▁twent	-10441
autical	-10442
▁Indies	-10443
▁Justin	-10444
▁Potter	-10445
▁Puerto	-10446
▁happen	-10447
▁harmon	-10448
▁manage	-10449
▁tenure	-10450
▁Formula	-10451
▁Players	-10452
▁factory	-10453
▁circular	-10454
▁eventual	-10455
▁playoffs	-10456
▁alternate	-10457
▁component	-10458
▁discovers	-10459
▁irregular	-10460
▁variation	-10461
▁Ranavalona	-10462
▁immigrants	-10463
▁occasional	-10464
▁percussion	-10465
▁Connecticut	-10466
▁Performance	-10467
▁essentially	-10468
▁governments	-10469
▁observation	-10470
▁Organization	-10471
▁accomplished	-10472
▁northeastern	-10473
▁corresponding	-10474
▁interpretation	-10475
bal	-10476
erg	-10477
hop	-10478
lus	-10479
mel	-10480
olm	-10481
ums	-10482
▁CP	-10483
cell	-10484
math	-10485
uded	-10486
▁Cad	-10487
▁Din	-10488
▁Mix	-10489
▁ben	-10490
▁fed	-10491
▁sar	-10492
enson	-10493
▁Hast	-10494
▁joke	-10495
rieved	-10496
▁Bacon	-10497
▁Banks	-10498
▁Geoff	-10499
▁Lynch	-10500
▁links	-10501
▁shear	-10502
▁spots	-10503
▁stick	-10504
▁swall	-10505
▁talks	-10506
▁tempo	-10507
osexual	-10508
▁cattle	-10509
▁operas	-10510
▁tested	-10511
▁Brosnan	-10512
▁Cavalry	-10513
▁Finally	-10514
▁Marsden	-10515
▁congreg	-10516
▁continu	-10517
▁devoted	-10518
▁donated	-10519
▁flooded	-10520
▁focuses	-10521
▁absorbed	-10522
▁educated	-10523
▁nautical	-10524
▁suddenly	-10525
▁warriors	-10526
▁Jerusalem	-10527
▁Indonesian	-10528
▁connections	-10529
▁illustrated	-10530
▁complimented	-10531
▁experimental	-10532
▁intervention	-10533
▁Administration	-10534
▁characteristic	-10535
HL	-10536
ni	-10537
aho	-10538
esi	-10539
▁01	-10540
▁Lt	-10541
▁af	-10542
star	-10543
ules	-10544
umph	-10545
▁152	-10546
▁170	-10547
▁Fel	-10548
▁Gem	-10549
▁Mig	-10550
▁Saf	-10551
▁Str	-10552
acles	-10553
rific	-10554
▁1891	-10555
▁Beck	-10556
▁Dead	-10557
▁Hong	-10558
▁Knut	-10559
▁Less	-10560
▁Mind	-10561
▁NASA	-10562
▁coff	-10563
▁knee	-10564
▁maps	-10565
▁mbar	-10566
lysses	-10567
▁Boris	-10568
▁Marge	-10569
▁choir	-10570
▁drown	-10571
▁enact	-10572
▁morph	-10573
▁resid	-10574
▁trick	-10575
legraph	-10576
▁Colomb	-10577
▁abroad	-10578
▁crowds	-10579
▁dislik	-10580
▁empire	-10581
▁fairly	-10582
▁sacred	-10583
▁wicket	-10584
▁Irataba	-10585
▁dealing	-10586
▁drivers	-10587
▁emotion	-10588
▁equally	-10589
▁gaining	-10590
▁heading	-10591
▁martial	-10592
▁restore	-10593
▁sailing	-10594
▁symbols	-10595
▁unclear	-10596
▁Massenet	-10597
▁Meredith	-10598
▁Original	-10599
▁antimony	-10600
▁founding	-10601
▁operates	-10602
▁reviewed	-10603
▁shoulder	-10604
▁sporting	-10605
▁Champions	-10606
▁Rajoelina	-10607
▁chemistry	-10608
▁estimates	-10609
▁identical	-10610
▁preceding	-10611
▁secretary	-10612
▁diplomatic	-10613
▁accommodate	-10614
▁appropriate	-10615
▁tournaments	-10616
▁Conservation	-10617
▁Thunderbirds	-10618
▁infrastructure	-10619
fax	-10620
nda	-10621
rur	-10622
sis	-10623
aton	-10624
vant	-10625
▁"19	-10626
▁163	-10627
▁Att	-10628
▁Raw	-10629
▁Sor	-10630
▁pap	-10631
Music	-10632
abric	-10633
amous	-10634
▁Boji	-10635
▁Cass	-10636
▁Full	-10637
▁Karl	-10638
▁Link	-10639
▁Luke	-10640
▁Sold	-10641
▁Vick	-10642
▁alph	-10643
▁demo	-10644
▁forb	-10645
bishop	-10646
estion	-10647
▁Beaut	-10648
▁Rosen	-10649
▁Schum	-10650
▁Tourn	-10651
▁essay	-10652
▁humor	-10653
▁metre	-10654
▁rocks	-10655
uropium	-10656
▁Fisher	-10657
▁Kartik	-10658
▁Saturn	-10659
▁beauty	-10660
▁brings	-10661
▁guests	-10662
▁phosph	-10663
▁verses	-10664
▁Dynasty	-10665
▁Fernand	-10666
▁Skinner	-10667
▁Ulysses	-10668
▁beating	-10669
▁bowling	-10670
▁lengths	-10671
▁minority	-10672
▁rotation	-10673
▁displaced	-10674
▁guitarist	-10675
▁rebellion	-10676
▁sentiment	-10677
▁torpedoes	-10678
▁Richardson	-10679
▁calculated	-10680
▁confidence	-10681
▁developers	-10682
▁industries	-10683
▁separation	-10684
▁highlighted	-10685
▁historically	-10686
▁measurements	-10687
New	-10688
eff	-10689
esh	-10690
ovi	-10691
▁AA	-10692
▁MI	-10693
▁MP	-10694
▁ST	-10695
▁id	-10696
2026	-10697
etta	-10698
▁McK	-10699
▁Moz	-10700
▁NDH	-10701
▁Pom	-10702
▁See	-10703
▁fee	-10704
ensis	-10705
▁Auto	-10706
▁Bapt	-10707
▁Gwen	-10708
▁Pete	-10709
▁Phys	-10710
▁epic	-10711
▁grid	-10712
▁heir	-10713
▁obsc	-10714
▁oxid	-10715
▁sket	-10716
actory	-10717
itched	-10718
strong	-10719
▁Aaron	-10720
▁Bobby	-10721
▁Evita	-10722
▁Freed	-10723
▁Jamal	-10724
▁Keith	-10725
▁Lhasa	-10726
▁Magic	-10727
▁Month	-10728
▁Navig	-10729
▁Serbs	-10730
▁Venus	-10731
▁elite	-10732
▁legit	-10733
▁liner	-10734
▁stere	-10735
▁stern	-10736
▁sweet	-10737
▁tribe	-10738
▁Democr	-10739
▁glands	-10740
▁inning	-10741
▁rapper	-10742
▁Israeli	-10743
▁Sitting	-10744
▁contrad	-10745
▁descent	-10746
▁dischar	-10747
▁pursuit	-10748
▁Marshall	-10749
▁Montreal	-10750
▁refugees	-10751
▁reporter	-10752
▁Microsoft	-10753
▁Middlesex	-10754
▁competing	-10755
▁condemned	-10756
▁naturally	-10757
▁sculpture	-10758
▁virtually	-10759
▁witnesses	-10760
▁Adventures	-10761
▁Neighbours	-10762
▁administer	-10763
▁commentary	-10764
▁statements	-10765
▁vulnerable	-10766
▁collections	-10767
▁examination	-10768
▁significance	-10769
▁manufacturing	-10770
▁Transportation	-10771
60	-10772
oca	-10773
vor	-10774
▁DJ	-10775
2044	-10776
Leod	-10777
cour	-10778
gary	-10779
seud	-10780
tage	-10781
ught	-10782
▁101	-10783
▁Hip	-10784
▁Maj	-10785
▁rej	-10786
▁sif	-10787
isons	-10788
ranes	-10789
raper	-10790
▁1878	-10791
▁1881	-10792
▁1893	-10793
▁Priv	-10794
▁boot	-10795
▁gate	-10796
▁mate	-10797
▁navy	-10798
▁ward	-10799
astery	-10800
estyle	-10801
▁Spike	-10802
▁Wicca	-10803
▁breat	-10804
▁dimin	-10805
▁draws	-10806
▁melod	-10807
▁nurse	-10808
▁Athens	-10809
▁Rowell	-10810
▁Serbia	-10811
▁Sesame	-10812
▁Sorkin	-10813
▁ashore	-10814
▁bishop	-10815
▁kilome	-10816
▁merger	-10817
▁opined	-10818
▁Fairfax	-10819
▁Madison	-10820
▁batsman	-10821
▁boilers	-10822
▁locomot	-10823
▁militia	-10824
▁onwards	-10825
▁predict	-10826
▁reorgan	-10827
▁veteran	-10828
▁Atlantis	-10829
▁Watchmen	-10830
▁attorney	-10831
▁consolid	-10832
▁fourteen	-10833
▁garnered	-10834
▁involves	-10835
▁preserve	-10836
▁recovery	-10837
▁studying	-10838
▁variable	-10839
▁champions	-10840
▁measuring	-10841
▁provinces	-10842
▁relocated	-10843
▁boundaries	-10844
▁complement	-10845
▁concerning	-10846
▁intersects	-10847
▁interviews	-10848
▁laboratory	-10849
▁acknowledged	-10850
▁considerably	-10851
▁interactions	-10852
▁representation	-10853
Car	-10854
Con	-10855
ido	-10856
lon	-10857
▁"3	-10858
cont	-10859
fish	-10860
izer	-10861
rose	-10862
ygen	-10863
▁127	-10864
▁Liu	-10865
▁gam	-10866
▁rub	-10867
▁sin	-10868
▁sor	-10869
etary	-10870
izers	-10871
orean	-10872
▁Brah	-10873
▁Cory	-10874
▁Crus	-10875
▁FIFA	-10876
▁Hans	-10877
▁Jain	-10878
▁flaw	-10879
▁harm	-10880
▁hind	-10881
▁rays	-10882
▁zero	-10883
rurier	-10884
▁Evans	-10885
▁Happy	-10886
▁Idaho	-10887
▁Oklah	-10888
▁drink	-10889
▁filed	-10890
▁rifle	-10891
▁Ashdod	-10892
▁Chains	-10893
▁Mortal	-10894
▁Nature	-10895
▁Stuart	-10896
▁anthem	-10897
▁golden	-10898
▁slaves	-10899
▁tissue	-10900
▁Chelsea	-10901
▁Liberty	-10902
▁Studies	-10903
▁Vincent	-10904
▁disband	-10905
▁diverse	-10906
▁farming	-10907
▁locally	-10908
▁rescued	-10909
▁tracked	-10910
▁Cardinal	-10911
▁Paterson	-10912
▁hypothes	-10913
▁lighting	-10914
▁memories	-10915
▁software	-10916
▁subordin	-10917
▁survival	-10918
▁recurring	-10919
▁withdrawn	-10920
▁Convention	-10921
▁Originally	-10922
▁biological	-10923
▁constantly	-10924
▁Constantine	-10925
▁Headquarters	-10926
▁southeastern	-10927
▁participation	-10928
▁internationally	-10929
FC	-10930
LI	-10931
SA	-10932
umi	-10933
umo	-10934
▁AT	-10935
0142	-10936
core	-10937
idal	-10938
oise	-10939
▁113	-10940
▁Acc	-10941
▁Blu	-10942
▁Oil	-10943
▁Rub	-10944
▁gap	-10945
▁hem	-10946
▁hyp	-10947
▁sav	-10948
▁spr	-10949
arded	-10950
olith	-10951
onian	-10952
raser	-10953
reens	-10954
▁1892	-10955
▁Cant	-10956
▁Case	-10957
▁Hold	-10958
▁Joan	-10959
▁Kurt	-10960
▁List	-10961
▁Stat	-10962
▁hunt	-10963
ustees	-10964
▁Trail	-10965
▁Until	-10966
▁Wayne	-10967
▁doors	-10968
▁dwarf	-10969
▁error	-10970
▁noisy	-10971
▁sweep	-10972
▁Hooper	-10973
▁Nevada	-10974
▁Timber	-10975
▁merged	-10976
▁metall	-10977
▁metric	-10978
▁parody	-10979
▁reader	-10980
▁terror	-10981
▁voices	-10982
▁Fossett	-10983
▁Morning	-10984
▁Theater	-10985
▁Volunte	-10986
▁colored	-10987
▁drafted	-10988
▁enthusi	-10989
▁lacking	-10990
▁monster	-10991
▁persist	-10992
▁promise	-10993
▁Clarkson	-10994
▁Paralymp	-10995
▁doctrine	-10996
▁pleasure	-10997
▁Dominican	-10998
▁directing	-10999
▁platforms	-11000
▁requiring	-11001
▁membership	-11002
▁succession	-11003
▁traditions	-11004
▁astronomers	-11005
▁challenging	-11006
▁sovereignty	-11007
▁intellectual	-11008
vy	-11009
dal	-11010
nen	-11011
▁Ps	-11012
agen	-11013
amps	-11014
anim	-11015
born	-11016
odox	-11017
▁Fla	-11018
▁Got	-11019
▁MLB	-11020
▁Miy	-11021
aders	-11022
eness	-11023
irect	-11024
▁Boat	-11025
▁Cher	-11026
▁Punk	-11027
▁Shep	-11028
▁acre	-11029
▁bell	-11030
▁fest	-11031
▁mild	-11032
▁plut	-11033
ampire	-11034
atemal	-11035
castle	-11036
outing	-11037
ulsion	-11038
▁Dance	-11039
▁Edwin	-11040
▁Hutch	-11041
▁Lotus	-11042
▁Mikan	-11043
▁Ninja	-11044
▁Winds	-11045
▁cliff	-11046
▁grave	-11047
▁harsh	-11048
▁portr	-11049
▁Alonso	-11050
▁Donald	-11051
▁Triple	-11052
▁Watson	-11053
▁couldn	-11054
▁deeply	-11055
▁stolen	-11056
▁Affairs	-11057
▁Weather	-11058
▁casting	-11059
▁divorce	-11060
▁enabled	-11061
▁enforce	-11062
▁prefect	-11063
▁viruses	-11064
▁Guatemal	-11065
▁Movement	-11066
▁Rapunzel	-11067
▁asserted	-11068
▁membrane	-11069
▁stronger	-11070
▁teachers	-11071
▁whatever	-11072
▁capturing	-11073
▁investigate	-11074
▁deliberately	-11075
▁traditionally	-11076
Mc	-11077
sp	-11078
▁Tu	-11079
acts	-11080
edia	-11081
ilda	-11082
itis	-11083
lies	-11084
olar	-11085
unta	-11086
▁162	-11087
▁Get	-11088
▁Rif	-11089
▁bol	-11090
▁cel	-11091
▁mit	-11092
athon	-11093
itime	-11094
▁1851	-11095
▁Bomb	-11096
▁Much	-11097
▁fron	-11098
▁susp	-11099
brough	-11100
▁Books	-11101
▁Bruce	-11102
▁Chase	-11103
▁Pearl	-11104
▁Small	-11105
▁Still	-11106
▁Tommy	-11107
▁encom	-11108
▁enlar	-11109
▁grain	-11110
▁herit	-11111
▁meter	-11112
▁relax	-11113
imetres	-11114
ivation	-11115
underst	-11116
▁Gibson	-11117
▁Parker	-11118
▁dispat	-11119
▁linear	-11120
▁oxygen	-11121
▁reward	-11122
▁Fighter	-11123
▁Hodgson	-11124
▁MacLeod	-11125
▁Rowland	-11126
▁lasting	-11127
▁varying	-11128
▁Austrian	-11129
▁Oklahoma	-11130
▁Sciences	-11131
▁centered	-11132
▁diseases	-11133
▁explicit	-11134
▁fortress	-11135
▁pictures	-11136
▁vicinity	-11137
▁Charlotte	-11138
▁Hampshire	-11139
▁distances	-11140
▁persuaded	-11141
▁electrical	-11142
▁punishment	-11143
▁collaborated	-11144
▁southwestern	-11145
She	-11146
ags	-11147
iat	-11148
arte	-11149
avia	-11150
hell	-11151
hero	-11152
inae	-11153
oded	-11154
quir	-11155
▁Ode	-11156
▁Pas	-11157
▁Sak	-11158
▁aft	-11159
▁jet	-11160
emark	-11161
hurst	-11162
uters	-11163
▁1800	-11164
▁1865	-11165
▁Salt	-11166
▁fame	-11167
▁feud	-11168
▁leaf	-11169
▁repr	-11170
▁seas	-11171
▁wine	-11172
▁Billy	-11173
▁Elder	-11174
▁Glass	-11175
▁Lower	-11176
▁Peggy	-11177
▁Ralph	-11178
▁Upper	-11179
▁crack	-11180
▁cryst	-11181
▁femin	-11182
▁spawn	-11183
▁sugar	-11184
▁tooth	-11185
ginning	-11186
▁Barnes	-11187
▁Branch	-11188
▁Compan	-11189
▁Hudson	-11190
▁afford	-11191
▁burial	-11192
▁calcul	-11193
▁hybrid	-11194
▁mixing	-11195
▁strain	-11196
▁thrown	-11197
ancellor	-11198
▁Calgary	-11199
▁Chamber	-11200
▁crashed	-11201
▁extinct	-11202
▁revival	-11203
▁undergo	-11204
▁altitude	-11205
▁compiled	-11206
▁exercise	-11207
▁lifetime	-11208
▁ordinary	-11209
▁Cathedral	-11210
▁attending	-11211
▁contracts	-11212
▁implement	-11213
▁searching	-11214
▁undergrad	-11215
▁Enterprise	-11216
▁principles	-11217
CC	-11218
Pa	-11219
ARP	-11220
TWC	-11221
▁ib	-11222
edge	-11223
iang	-11224
▁Kaz	-11225
▁Pak	-11226
▁Set	-11227
▁Wag	-11228
▁isn	-11229
▁sic	-11230
eling	-11231
inter	-11232
ouver	-11233
point	-11234
umble	-11235
▁Ages	-11236
▁Cris	-11237
▁Edin	-11238
▁Hend	-11239
▁JTWC	-11240
▁Nand	-11241
▁Sean	-11242
▁barn	-11243
▁cash	-11244
▁dece	-11245
levard	-11246
overty	-11247
unning	-11248
▁Alvar	-11249
▁Andre	-11250
▁Larry	-11251
▁conce	-11252
▁edges	-11253
▁opens	-11254
▁raids	-11255
▁shirt	-11256
▁taxon	-11257
▁trunk	-11258
▁Brooks	-11259
▁Finals	-11260
▁Fraser	-11261
▁Guinea	-11262
▁Legisl	-11263
▁Steven	-11264
▁genres	-11265
▁lights	-11266
▁myself	-11267
▁remote	-11268
▁strand	-11269
▁wishes	-11270
▁Romania	-11271
▁avoided	-11272
▁lighter	-11273
▁roadway	-11274
▁trapped	-11275
▁confused	-11276
▁disabled	-11277
▁editions	-11278
▁heritage	-11279
▁inducted	-11280
▁quarters	-11281
▁resolved	-11282
▁velocity	-11283
▁Edinburgh	-11284
▁Methodist	-11285
▁acclaimed	-11286
▁aftermath	-11287
▁depiction	-11288
▁explosive	-11289
▁plutonium	-11290
▁possessed	-11291
▁principle	-11292
▁reconstru	-11293
▁commanding	-11294
▁controller	-11295
▁battlefield	-11296
▁competitive	-11297
▁electricity	-11298
▁inscription	-11299
▁constitutional	-11300
Ad	-11301
ST	-11302
ti	-11303
jib	-11304
▁CN	-11305
▁NS	-11306
avar	-11307
rels	-11308
wend	-11309
▁104	-11310
▁Imp	-11311
▁ecc	-11312
▁gla	-11313
▁rac	-11314
▁une	-11315
adows	-11316
atton	-11317
berry	-11318
eland	-11319
itted	-11320
neath	-11321
works	-11322
▁1862	-11323
▁1885	-11324
▁Kann	-11325
▁Laur	-11326
▁Roth	-11327
▁ampl	-11328
▁pref	-11329
▁push	-11330
▁reop	-11331
▁spur	-11332
▁tune	-11333
akotay	-11334
leased	-11335
penter	-11336
▁Chess	-11337
▁Johor	-11338
▁Joint	-11339
▁Neves	-11340
▁Prest	-11341
▁Robin	-11342
▁Teika	-11343
▁blind	-11344
▁vital	-11345
aration	-11346
areness	-11347
landers	-11348
▁Hannah	-11349
▁Julian	-11350
▁Season	-11351
▁Tunnel	-11352
▁accord	-11353
▁beaten	-11354
▁gaming	-11355
▁naming	-11356
▁racial	-11357
▁wished	-11358
▁Ancient	-11359
▁Working	-11360
▁beliefs	-11361
▁ignored	-11362
▁mystery	-11363
▁overlap	-11364
▁sympath	-11365
▁Hastings	-11366
▁Isabella	-11367
▁Portugal	-11368
▁Tennyson	-11369
▁landmark	-11370
▁patients	-11371
▁symptoms	-11372
▁Anonymous	-11373
▁Nevesinje	-11374
▁discontin	-11375
▁realistic	-11376
▁surprised	-11377
▁suspected	-11378
▁Navigation	-11379
▁categories	-11380
▁complained	-11381
▁impressive	-11382
▁physically	-11383
▁legislative	-11384
▁outstanding	-11385
▁consistently	-11386
DA	-11387
OM	-11388
Pl	-11389
RE	-11390
fa	-11391
ho	-11392
mn	-11393
Upon	-11394
gged	-11395
inis	-11396
omed	-11397
zing	-11398
▁230	-11399
▁750	-11400
▁978	-11401
▁Ale	-11402
▁Pur	-11403
▁Sri	-11404
annon	-11405
asury	-11406
ighed	-11407
ipher	-11408
pling	-11409
uyves	-11410
▁Adri	-11411
▁Expo	-11412
▁Mond	-11413
▁Poly	-11414
▁Tale	-11415
▁aest	-11416
▁mask	-11417
ocracy	-11418
▁Pruss	-11419
▁march	-11420
▁parad	-11421
▁wound	-11422
lorious	-11423
▁Invest	-11424
▁Yellow	-11425
▁borrow	-11426
▁breaks	-11427
▁curved	-11428
▁feared	-11429
▁finest	-11430
▁genera	-11431
▁pupils	-11432
▁refere	-11433
▁scores	-11434
▁spokes	-11435
▁voyage	-11436
uyvesant	-11437
▁Gibbons	-11438
▁Maurice	-11439
▁Mitford	-11440
▁Section	-11441
▁blocked	-11442
▁chronic	-11443
▁pursued	-11444
▁venture	-11445
▁Alvarado	-11446
▁armoured	-11447
▁decrease	-11448
▁segments	-11449
▁Armstrong	-11450
▁belonging	-11451
▁creatures	-11452
▁exhibited	-11453
▁landscape	-11454
▁processes	-11455
▁reservoir	-11456
▁helicopter	-11457
▁integrated	-11458
▁undertaken	-11459
▁unexpected	-11460
▁Millionaire	-11461
▁consequence	-11462
▁dimensional	-11463
▁exploration	-11464
▁progression	-11465
▁participants	-11466
▁autobiography	-11467
▁Representatives	-11468
cco	-11469
enb	-11470
ugu	-11471
uto	-11472
aser	-11473
avor	-11474
guan	-11475
rice	-11476
▁106	-11477
▁114	-11478
▁220	-11479
▁Cin	-11480
▁Dod	-11481
▁Lad	-11482
▁Nag	-11483
▁fro	-11484
apped	-11485
ushes	-11486
▁1857	-11487
▁Mega	-11488
▁Ojib	-11489
▁bore	-11490
▁tube	-11491
aneous	-11492
riages	-11493
▁Amber	-11494
▁Eugen	-11495
▁Falls	-11496
▁Fried	-11497
▁Kesha	-11498
▁chann	-11499
▁dozen	-11500
▁dying	-11501
▁juven	-11502
▁marsh	-11503
▁Bulgar	-11504
▁Greeks	-11505
▁Harold	-11506
▁Nation	-11507
▁Warner	-11508
▁agrees	-11509
▁killer	-11510
▁liquid	-11511
▁papers	-11512
▁retros	-11513
▁ticket	-11514
▁tonnes	-11515
▁Baldwin	-11516
▁Diamond	-11517
▁Freeway	-11518
▁arrives	-11519
▁cartoon	-11520
▁drummer	-11521
▁poverty	-11522
▁starter	-11523
▁Johnston	-11524
▁Persians	-11525
▁Services	-11526
▁Indonesia	-11527
▁defenders	-11528
▁fragments	-11529
▁molecular	-11530
▁particles	-11531
▁populated	-11532
▁weakening	-11533
▁Tournament	-11534
▁explaining	-11535
▁propaganda	-11536
▁remembered	-11537
▁suggestion	-11538
▁Confederate	-11539
▁disturbance	-11540
▁immigration	-11541
▁specialized	-11542
ED	-11543
Ex	-11544
hr	-11545
py	-11546
yc	-11547
elin	-11548
ndom	-11549
pler	-11550
rium	-11551
▁Gri	-11552
▁Hob	-11553
▁Ker	-11554
▁Kid	-11555
▁cyl	-11556
arthy	-11557
ended	-11558
iente	-11559
▁ARVN	-11560
▁Cena	-11561
▁Merc	-11562
▁Zone	-11563
▁atop	-11564
▁hole	-11565
▁nose	-11566
▁trig	-11567
▁Bomar	-11568
▁Rocky	-11569
▁chase	-11570
▁eagle	-11571
▁enorm	-11572
▁hopes	-11573
▁rains	-11574
▁taxes	-11575
▁tools	-11576
▁Energy	-11577
▁chains	-11578
▁cinema	-11579
▁garden	-11580
▁mirror	-11581
▁panels	-11582
▁random	-11583
▁Edwards	-11584
▁acquire	-11585
▁colours	-11586
▁graphic	-11587
▁marched	-11588
▁radical	-11589
▁revived	-11590
▁spacing	-11591
▁speaker	-11592
▁emotions	-11593
▁exterior	-11594
▁offshore	-11595
▁redshift	-11596
▁resemble	-11597
▁Churchill	-11598
▁signature	-11599
▁substance	-11600
▁functional	-11601
▁interviewed	-11602
▁applications	-11603
▁sufficiently	-11604
▁communications	-11605
rus	-11606
the	-11607
vid	-11608
▁EC	-11609
▁Py	-11610
vard	-11611
velt	-11612
▁Env	-11613
▁Hem	-11614
▁Ike	-11615
▁Jun	-11616
▁Liz	-11617
▁unt	-11618
asant	-11619
icity	-11620
rises	-11621
ucker	-11622
▁1898	-11623
▁Alph	-11624
▁Anim	-11625
▁Dale	-11626
▁Nord	-11627
▁inex	-11628
▁nice	-11629
▁rehe	-11630
▁salv	-11631
▁trap	-11632
▁wake	-11633
arting	-11634
▁Fifth	-11635
▁Lakes	-11636
▁Maeda	-11637
▁Rhode	-11638
▁Roose	-11639
▁saves	-11640
▁subsc	-11641
mitting	-11642
ourning	-11643
▁Austro	-11644
▁Bosnia	-11645
▁Exeter	-11646
▁Oliver	-11647
▁Sussex	-11648
▁cannon	-11649
▁muscle	-11650
▁reprin	-11651
▁spoken	-11652
▁turret	-11653
▁Alexand	-11654
▁Perfect	-11655
▁Serbian	-11656
▁imposed	-11657
▁markets	-11658
▁metabol	-11659
▁rectang	-11660
asketball	-11661
▁Arkansas	-11662
▁Buddhist	-11663
▁McCarthy	-11664
▁abundant	-11665
▁advances	-11666
▁coaching	-11667
▁landings	-11668
▁requests	-11669
▁Chronicle	-11670
▁Roosevelt	-11671
▁communist	-11672
▁contempor	-11673
▁Constantin	-11674
▁Electronic	-11675
▁objectives	-11676
▁qualifying	-11677
▁speculated	-11678
▁Metropolitan	-11679
▁disappointed	-11680
▁concentration	-11681
09	-11682
IS	-11683
cos	-11684
haw	-11685
▁Ku	-11686
0111	-11687
anka	-11688
ante	-11689
ilee	-11690
ulty	-11691
▁Cit	-11692
▁Eve	-11693
▁McN	-11694
▁Vit	-11695
▁guy	-11696
▁mos	-11697
▁tom	-11698
▁web	-11699
ancey	-11700
music	-11701
ormal	-11702
phant	-11703
ridor	-11704
rooms	-11705
▁1849	-11706
▁1884	-11707
▁1888	-11708
▁Gene	-11709
▁Pick	-11710
▁Prom	-11711
▁Todd	-11712
▁Zero	-11713
▁amph	-11714
▁echo	-11715
▁kits	-11716
▁Gabri	-11717
▁Mayer	-11718
▁Pedro	-11719
▁Qedar	-11720
▁Wilde	-11721
▁chron	-11722
▁lover	-11723
▁manif	-11724
▁worse	-11725
However	-11726
▁Assist	-11727
▁Austin	-11728
▁Hibari	-11729
▁Romani	-11730
▁Wonder	-11731
▁carved	-11732
▁convey	-11733
▁dinner	-11734
▁melody	-11735
▁quoted	-11736
▁resort	-11737
▁sympat	-11738
▁tailed	-11739
▁varies	-11740
position	-11741
▁Batista	-11742
▁Strange	-11743
▁contend	-11744
▁knocked	-11745
▁shallow	-11746
ressional	-11747
▁Chakotay	-11748
▁deciding	-11749
▁examined	-11750
▁infected	-11751
▁keyboard	-11752
▁ordering	-11753
▁theology	-11754
▁convicted	-11755
▁developer	-11756
▁sentenced	-11757
▁twentieth	-11758
▁Foundation	-11759
▁ceremonies	-11760
▁mysterious	-11761
▁skyscraper	-11762
▁anticipated	-11763
▁cooperation	-11764
▁distinguish	-11765
▁experiments	-11766
▁commercially	-11767
bd	-11768
EFA	-11769
isd	-11770
oux	-11771
pow	-11772
rix	-11773
ugg	-11774
▁hi	-11775
alog	-11776
wind	-11777
▁Hur	-11778
▁mud	-11779
▁nep	-11780
aland	-11781
jillo	-11782
ritic	-11783
▁1848	-11784
▁Aren	-11785
▁Ferr	-11786
▁McTe	-11787
▁godd	-11788
▁gram	-11789
▁plag	-11790
▁stro	-11791
ampton	-11792
orious	-11793
reated	-11794
▁Chall	-11795
▁Local	-11796
▁aided	-11797
▁corps	-11798
▁gusts	-11799
▁noble	-11800
▁optim	-11801
▁ports	-11802
▁posts	-11803
▁prest	-11804
▁rally	-11805
▁snake	-11806
mingham	-11807
ocation	-11808
▁Stewie	-11809
▁lesser	-11810
▁rejoin	-11811
▁timber	-11812
fficient	-11813
isations	-11814
▁Looking	-11815
▁chromos	-11816
▁confirm	-11817
▁devices	-11818
▁heavier	-11819
▁involve	-11820
▁liberal	-11821
▁organic	-11822
▁reforms	-11823
▁rounded	-11824
▁studios	-11825
▁Turnpike	-11826
▁connects	-11827
▁horizont	-11828
▁expanding	-11829
▁practical	-11830
▁witnessed	-11831
▁Birmingham	-11832
▁decoration	-11833
▁provisions	-11834
▁Paralympics	-11835
▁acquisition	-11836
▁fundamental	-11837
▁Independence	-11838
▁independently	-11839
tt	-11840
bow	-11841
ste	-11842
uea	-11843
anza	-11844
auge	-11845
geon	-11846
pets	-11847
ugar	-11848
ulum	-11849
▁102	-11850
▁137	-11851
▁AML	-11852
▁Equ	-11853
▁Gaz	-11854
▁Kam	-11855
▁Tai	-11856
▁reh	-11857
agers	-11858
rible	-11859
swick	-11860
unker	-11861
▁Cand	-11862
▁Fear	-11863
▁Pant	-11864
▁clar	-11865
estock	-11866
▁Draft	-11867
▁Grace	-11868
▁Guild	-11869
▁Monte	-11870
▁admir	-11871
▁incur	-11872
▁kilog	-11873
▁motif	-11874
▁raven	-11875
▁scrap	-11876
▁sword	-11877
▁width	-11878
limited	-11879
minster	-11880
▁Gothic	-11881
▁Mozamb	-11882
▁Romney	-11883
▁Spears	-11884
▁Strand	-11885
▁Thames	-11886
▁authen	-11887
▁chicks	-11888
▁comics	-11889
▁desper	-11890
▁dreadn	-11891
▁honest	-11892
▁paying	-11893
▁trough	-11894
▁Mansion	-11895
▁Reserve	-11896
▁Somalia	-11897
▁conspir	-11898
▁posthum	-11899
▁scandal	-11900
▁triumph	-11901
▁Adriatic	-11902
▁Phillies	-11903
▁handling	-11904
▁indirect	-11905
▁steadily	-11906
▁weakness	-11907
▁Brunswick	-11908
▁awareness	-11909
▁bacterial	-11910
▁celebrate	-11911
▁confident	-11912
▁encompass	-11913
▁trademark	-11914
▁accomplish	-11915
▁compromise	-11916
▁extraordin	-11917
▁Environment	-11918
▁complicated	-11919
▁threatening	-11920
▁northwestern	-11921
VC	-11922
no	-11923
adi	-11924
utz	-11925
▁RI	-11926
uber	-11927
zech	-11928
▁154	-11929
▁159	-11930
▁Lin	-11931
▁Pil	-11932
▁Rey	-11933
▁Tib	-11934
▁Vul	-11935
▁jew	-11936
▁vib	-11937
elsin	-11938
imson	-11939
leans	-11940
▁Mult	-11941
▁Neil	-11942
▁Pine	-11943
▁Unit	-11944
▁nerv	-11945
▁pine	-11946
ficial	-11947
icular	-11948
tering	-11949
unnels	-11950
ximity	-11951
▁Chile	-11952
▁Colin	-11953
▁Drive	-11954
▁Rugby	-11955
▁Yoshi	-11956
▁angry	-11957
▁curve	-11958
▁nests	-11959
▁reass	-11960
▁ruler	-11961
▁spell	-11962
▁tasks	-11963
▁Knight	-11964
▁Wagner	-11965
▁assign	-11966
▁celebr	-11967
▁deputy	-11968
▁jurisd	-11969
▁radius	-11970
▁slopes	-11971
▁submer	-11972
▁venues	-11973
guanodon	-11974
issioned	-11975
▁Bradman	-11976
▁Freedom	-11977
▁Janeiro	-11978
▁Workman	-11979
▁harbour	-11980
▁lengthy	-11981
▁pressed	-11982
▁threats	-11983
criptions	-11984
▁Cambodia	-11985
▁belonged	-11986
▁channels	-11987
▁disliked	-11988
▁dropping	-11989
▁explored	-11990
▁invented	-11991
▁isotopes	-11992
▁prisoner	-11993
▁rational	-11994
▁surfaces	-11995
▁teammate	-11996
▁Guatemala	-11997
▁Therefore	-11998
▁abolition	-11999
▁comprised	-12000
▁contacted	-12001
▁gathering	-12002
▁listening	-12003
▁mythology	-12004
▁prompting	-12005
▁proximity	-12006
▁Schumacher	-12007
▁encounters	-12008
▁imprisoned	-12009
▁Observatory	-12010
▁interrupted	-12011
BO	-12012
ahn	-12013
edn	-12014
iah	-12015
ila	-12016
▁IC	-12017
▁NL	-12018
▁NM	-12019
▁Ni	-12020
▁RP	-12021
amel	-12022
beat	-12023
bing	-12024
eded	-12025
hang	-12026
hews	-12027
icia	-12028
imon	-12029
sson	-12030
wing	-12031
▁109	-12032
▁Kau	-12033
▁mal	-12034
arest	-12035
emics	-12036
ilemu	-12037
torio	-12038
umped	-12039
▁Angl	-12040
▁Ches	-12041
▁Corb	-12042
▁Gonz	-12043
▁LARP	-12044
▁Lith	-12045
▁Stop	-12046
▁Tree	-12047
▁brut	-12048
▁epid	-12049
▁fixt	-12050
▁gran	-12051
▁pige	-12052
▁unve	-12053
igious	-12054
unders	-12055
▁Arabs	-12056
▁Boise	-12057
▁Gully	-12058
▁Helen	-12059
▁Kings	-12060
▁Movie	-12061
▁Plate	-12062
▁anger	-12063
▁bread	-12064
▁cable	-12065
▁hills	-12066
▁knows	-12067
▁poets	-12068
▁proud	-12069
▁shops	-12070
▁unrel	-12071
▁vault	-12072
ecutive	-12073
hemical	-12074
▁Barker	-12075
▁Beyond	-12076
▁fabric	-12077
▁planes	-12078
▁propri	-12079
▁shaman	-12080
▁thanks	-12081
ichilemu	-12082
▁Advance	-12083
▁Barbara	-12084
▁Members	-12085
▁Orleans	-12086
▁Support	-12087
▁ceiling	-12088
▁citizen	-12089
▁dancers	-12090
▁desired	-12091
▁listing	-12092
▁reminis	-12093
▁revenge	-12094
▁thereby	-12095
▁tickets	-12096
▁viewing	-12097
▁weighed	-12098
umberland	-12099
▁McTeague	-12100
▁Trujillo	-12101
▁detected	-12102
▁petition	-12103
▁presents	-12104
▁repaired	-12105
▁abolished	-12106
▁boyfriend	-12107
▁companion	-12108
▁accessible	-12109
▁discussing	-12110
▁quantities	-12111
▁situations	-12112
▁successive	-12113
▁Pythagorean	-12114
▁celebration	-12115
▁distinction	-12116
▁mathematics	-12117
▁permanently	-12118
▁manufactured	-12119
▁fortifications	-12120
NC	-12121
bu	-12122
rov	-12123
▁Ko	-12124
▁fo	-12125
adic	-12126
case	-12127
iddy	-12128
▁103	-12129
▁Ern	-12130
▁Hav	-12131
▁Hog	-12132
▁IOC	-12133
▁Vel	-12134
▁dri	-12135
▁fix	-12136
▁gly	-12137
atisf	-12138
backs	-12139
onnie	-12140
▁1856	-12141
▁1877	-12142
▁Alam	-12143
▁Berk	-12144
▁Days	-12145
▁Dota	-12146
▁Hyde	-12147
▁Pawn	-12148
▁Talk	-12149
▁Thor	-12150
▁Wilm	-12151
▁stim	-12152
idency	-12153
overed	-12154
season	-12155
thlete	-12156
▁Chair	-12157
▁Greed	-12158
▁Snake	-12159
▁adequ	-12160
▁adopt	-12161
▁apply	-12162
▁assum	-12163
▁fears	-12164
▁flies	-12165
▁hence	-12166
▁photo	-12167
▁pseud	-12168
▁sting	-12169
veloped	-12170
▁Delsin	-12171
▁Simone	-12172
▁Survey	-12173
▁absent	-12174
▁assert	-12175
▁layers	-12176
▁poetic	-12177
▁roster	-12178
▁staged	-12179
▁Hornung	-12180
▁Islamic	-12181
▁Masters	-12182
▁Profumo	-12183
▁circles	-12184
▁endemic	-12185
▁loyalty	-12186
▁screens	-12187
▁strange	-12188
▁updated	-12189
▁winners	-12190
rehensive	-12191
▁carriage	-12192
▁concepts	-12193
▁decisive	-12194
▁fountain	-12195
▁internet	-12196
▁oriented	-12197
▁swimming	-12198
▁theories	-12199
▁turbines	-12200
▁Athenians	-12201
▁collision	-12202
▁declaring	-12203
▁livestock	-12204
▁recruited	-12205
▁stability	-12206
▁submerged	-12207
▁Timberlake	-12208
▁nineteenth	-12209
▁progressed	-12210
▁reflecting	-12211
▁remarkable	-12212
teorological	-12213
▁implemented	-12214
▁journalists	-12215
▁regulations	-12216
▁resignation	-12217
▁expectations	-12218
▁intermediate	-12219
05	-12220
EA	-12221
di	-12222
CLC	-12223
apa	-12224
aux	-12225
ymn	-12226
▁Fr	-12227
▁VI	-12228
enos	-12229
esar	-12230
hend	-12231
hill	-12232
ishn	-12233
nell	-12234
omon	-12235
▁Cec	-12236
▁Imm	-12237
▁MSU	-12238
▁Vig	-12239
▁syl	-12240
chens	-12241
itars	-12242
uzzle	-12243
▁Duch	-12244
▁Hadd	-12245
▁Jose	-12246
▁Prop	-12247
▁Rice	-12248
▁Yank	-12249
▁clay	-12250
▁emig	-12251
▁fier	-12252
▁mast	-12253
▁pant	-12254
▁wire	-12255
arding	-12256
▁Patri	-12257
▁Sword	-12258
▁Turks	-12259
▁blast	-12260
▁canon	-12261
▁ghost	-12262
▁loose	-12263
▁spite	-12264
Because	-12265
▁Comics	-12266
▁Design	-12267
▁Ground	-12268
▁Jeremy	-12269
▁Pierre	-12270
▁arcade	-12271
▁fusion	-12272
▁gospel	-12273
▁halted	-12274
▁intend	-12275
▁latest	-12276
▁remind	-12277
▁unrest	-12278
ancouver	-12279
jections	-12280
▁Calvert	-12281
▁Cricket	-12282
▁Harrier	-12283
▁Medical	-12284
▁Raymond	-12285
▁Soldier	-12286
▁Stories	-12287
▁favored	-12288
▁plumage	-12289
▁recruit	-12290
▁winding	-12291
urrection	-12292
▁Cemetery	-12293
▁averaged	-12294
▁canceled	-12295
▁drainage	-12296
▁eligible	-12297
▁exponent	-12298
▁focusing	-12299
▁scandium	-12300
▁warnings	-12301
▁warships	-12302
▁Fantastic	-12303
▁Telegraph	-12304
▁captivity	-12305
▁inherited	-12306
▁publicity	-12307
▁sensitive	-12308
▁telephone	-12309
▁Basketball	-12310
▁Publishing	-12311
▁adventures	-12312
▁politician	-12313
▁strikeouts	-12314
▁volunteers	-12315
▁explanation	-12316
▁Consequently	-12317
▁championships	-12318
▁predominantly	-12319
▁undergraduate	-12320
kh	-12321
cut	-12322
▁DS	-12323
▁Na	-12324
▁Vo	-12325
Like	-12326
Over	-12327
amph	-12328
▁Dum	-12329
▁Hus	-12330
▁Rik	-12331
▁Seb	-12332
▁Tob	-12333
▁Wed	-12334
▁cyt	-12335
aceae	-12336
aters	-12337
eries	-12338
halla	-12339
lando	-12340
ocese	-12341
osity	-12342
▁Cubs	-12343
▁Emma	-12344
▁Face	-12345
▁Malt	-12346
▁Mend	-12347
▁Past	-12348
▁Seas	-12349
▁Spir	-12350
▁Thai	-12351
▁Wake	-12352
▁amid	-12353
▁butt	-12354
▁dust	-12355
▁dyes	-12356
▁vari	-12357
ranger	-12358
▁Based	-12359
▁Czech	-12360
▁Eight	-12361
▁Franz	-12362
▁Ghost	-12363
▁Judge	-12364
▁Krist	-12365
▁Oasis	-12366
▁Youth	-12367
▁acute	-12368
▁boost	-12369
▁exile	-12370
▁ferry	-12371
▁tough	-12372
ourable	-12373
▁Afghan	-12374
▁Browns	-12375
▁Gaiden	-12376
▁Hunter	-12377
▁Somali	-12378
▁canals	-12379
▁easier	-12380
▁handle	-12381
▁intact	-12382
▁output	-12383
▁preval	-12384
▁relied	-12385
▁rocket	-12386
▁sharks	-12387
▁statue	-12388
▁termed	-12389
▁Jurchen	-12390
▁Orlando	-12391
▁distort	-12392
▁leagues	-12393
▁manages	-12394
▁pounder	-12395
▁staying	-12396
▁thermal	-12397
▁unnamed	-12398
▁Bradford	-12399
▁Electric	-12400
▁Napoleon	-12401
▁benefits	-12402
▁operator	-12403
▁redesign	-12404
▁thorough	-12405
▁ultimate	-12406
▁Authority	-12407
▁Vancouver	-12408
▁Yorkshire	-12409
▁allocated	-12410
▁arguments	-12411
▁batteries	-12412
▁dependent	-12413
▁inaugural	-12414
▁memorable	-12415
▁pregnancy	-12416
▁complaints	-12417
▁directions	-12418
▁phenomenon	-12419
▁separately	-12420
▁storylines	-12421
▁Butterfield	-12422
▁bombardment	-12423
▁demographic	-12424
▁imagination	-12425
▁restaurants	-12426
▁accidentally	-12427
AG	-12428
017	-12429
chw	-12430
enh	-12431
iop	-12432
occ	-12433
yon	-12434
Down	-12435
Mean	-12436
abet	-12437
erog	-12438
mill	-12439
rock	-12440
▁118	-12441
▁138	-12442
▁172	-12443
▁Bud	-12444
▁Sig	-12445
▁bod	-12446
iking	-12447
ombat	-12448
oping	-12449
▁Cars	-12450
▁Cool	-12451
▁Food	-12452
▁Hous	-12453
▁Isle	-12454
▁Kyle	-12455
▁Lucy	-12456
▁Mail	-12457
▁Sans	-12458
▁Sour	-12459
▁bath	-12460
▁obst	-12461
▁soci	-12462
apping	-12463
blauea	-12464
caster	-12465
formed	-12466
ingale	-12467
▁Micha	-12468
▁Nevin	-12469
▁Round	-12470
▁Scand	-12471
▁Sport	-12472
▁disgu	-12473
▁holes	-12474
▁oxide	-12475
▁Carlos	-12476
▁Hughes	-12477
▁Planet	-12478
▁Weston	-12479
▁beings	-12480
▁dragon	-12481
▁honors	-12482
▁hoping	-12483
▁mutual	-12484
▁pirate	-12485
▁themed	-12486
restrial	-12487
▁Actress	-12488
▁Boycott	-12489
▁Britann	-12490
▁Greater	-12491
▁Journey	-12492
▁Lithuan	-12493
▁lessons	-12494
▁romance	-12495
▁smoking	-12496
▁therapy	-12497
▁tunnels	-12498
▁commerce	-12499
▁enhanced	-12500
▁honorary	-12501
▁mentions	-12502
▁Boulevard	-12503
▁Retrieved	-12504
▁addressed	-12505
▁admission	-12506
▁electrons	-12507
▁literally	-12508
▁perfectly	-12509
▁qualities	-12510
▁Stuyvesant	-12511
▁ambassador	-12512
▁comprising	-12513
▁destroying	-12514
▁dispatched	-12515
▁evacuation	-12516
▁girlfriend	-12517
▁homosexual	-12518
▁northbound	-12519
▁subsidiary	-12520
▁consumption	-12521
▁progressive	-12522
▁registration	-12523
▁transformers	-12524
run	-12525
uki	-12526
▁Fu	-12527
▁Ky	-12528
▁Ta	-12529
▁vs	-12530
amas	-12531
atum	-12532
omys	-12533
pine	-12534
quis	-12535
ruli	-12536
urol	-12537
▁260	-12538
▁320	-12539
▁Cos	-12540
▁ESP	-12541
▁Haz	-12542
▁Tun	-12543
▁Wit	-12544
▁odd	-12545
ardon	-12546
iffer	-12547
▁1819	-12548
▁1820	-12549
▁1876	-12550
▁Emer	-12551
▁Must	-12552
▁Pink	-12553
▁dams	-12554
▁epit	-12555
▁hosp	-12556
arther	-12557
ashire	-12558
iefenb	-12559
stable	-12560
▁Arena	-12561
▁Craig	-12562
▁Drama	-12563
▁Manch	-12564
▁Pasha	-12565
▁Sioux	-12566
▁eaten	-12567
▁fatty	-12568
▁hyper	-12569
▁seeds	-12570
▁spont	-12571
▁Damage	-12572
▁Inside	-12573
▁Murphy	-12574
▁Panzer	-12575
▁Ronald	-12576
▁barely	-12577
▁broach	-12578
▁summar	-12579
▁tended	-12580
▁unanim	-12581
▁Gallery	-12582
▁borders	-12583
▁choices	-12584
▁ensuing	-12585
▁experts	-12586
▁finance	-12587
▁payment	-12588
▁privile	-12589
▁pushing	-12590
▁routing	-12591
Meanwhile	-12592
inguished	-12593
▁Aviation	-12594
▁Brothers	-12595
▁Yankovic	-12596
▁airfield	-12597
▁enormous	-12598
▁realised	-12599
Throughout	-12600
iefenbaker	-12601
ordination	-12602
▁Byzantine	-12603
▁projected	-12604
▁scientist	-12605
▁seemingly	-12606
▁superhero	-12607
▁Lancashire	-12608
▁attractive	-12609
▁contracted	-12610
▁conviction	-12611
▁proclaimed	-12612
▁statistics	-12613
▁conjunction	-12614
▁contestants	-12615
▁introducing	-12616
Sc	-12617
bc	-12618
arl	-12619
rob	-12620
▁Oz	-12621
▁Ze	-12622
▁ol	-12623
alys	-12624
iors	-12625
itol	-12626
▁119	-12627
▁122	-12628
▁Ald	-12629
▁Cov	-12630
▁Lud	-12631
▁NES	-12632
▁Occ	-12633
▁Ric	-12634
▁Say	-12635
▁awa	-12636
▁hPa	-12637
▁lbw	-12638
▁oak	-12639
geons	-12640
heric	-12641
omura	-12642
tions	-12643
union	-12644
▁1887	-12645
▁Bend	-12646
▁Gros	-12647
▁Hond	-12648
▁buff	-12649
▁furn	-12650
▁gear	-12651
▁mamm	-12652
▁marg	-12653
▁quad	-12654
▁riff	-12655
▁shar	-12656
▁tent	-12657
monton	-12658
writer	-12659
▁Baird	-12660
▁Langu	-12661
▁Param	-12662
▁Roxas	-12663
▁Smack	-12664
▁Stars	-12665
▁Tiber	-12666
▁arist	-12667
▁auton	-12668
▁balls	-12669
▁cards	-12670
▁chlor	-12671
▁creek	-12672
▁empty	-12673
▁knock	-12674
▁minim	-12675
▁moist	-12676
▁monoc	-12677
▁nickn	-12678
▁rebel	-12679
ections	-12680
mentary	-12681
umbered	-12682
▁Coming	-12683
▁Leices	-12684
▁domest	-12685
▁heroes	-12686
▁lemurs	-12687
▁locate	-12688
▁masses	-12689
▁nights	-12690
▁sifaka	-12691
▁suffer	-12692
▁trails	-12693
▁voting	-12694
▁barrier	-12695
▁consent	-12696
▁crucial	-12697
▁expense	-12698
▁gravity	-12699
▁prolong	-12700
▁villain	-12701
▁Aircraft	-12702
▁actively	-12703
▁eastward	-12704
▁habitats	-12705
▁supports	-12706
▁thoughts	-12707
▁upcoming	-12708
▁breakdown	-12709
▁comparing	-12710
▁contested	-12711
▁improving	-12712
▁ministers	-12713
▁offerings	-12714
▁Chancellor	-12715
▁acceptance	-12716
▁horsepower	-12717
▁manuscripts	-12718
▁mathematical	-12719
▁Revolutionary	-12720
▁participating	-12721
Mal	-12722
ikk	-12723
oko	-12724
rod	-12725
zab	-12726
zes	-12727
▁Od	-12728
abwe	-12729
arta	-12730
feld	-12731
hers	-12732
iens	-12733
rect	-12734
ucks	-12735
▁Mup	-12736
▁Nam	-12737
▁Yet	-12738
▁Zoo	-12739
▁gay	-12740
▁ram	-12741
anner	-12742
assed	-12743
oints	-12744
urers	-12745
▁1868	-12746
▁Bono	-12747
▁Gear	-12748
▁Hamm	-12749
▁Imag	-12750
▁Ivan	-12751
▁Prim	-12752
▁cave	-12753
▁duet	-12754
▁flex	-12755
▁hell	-12756
▁leuk	-12757
▁logo	-12758
▁mail	-12759
▁milk	-12760
▁orth	-12761
▁pist	-12762
▁rook	-12763
▁tool	-12764
▁ware	-12765
icking	-12766
▁Belie	-12767
▁Gator	-12768
▁Jerry	-12769
▁Rally	-12770
▁Steel	-12771
▁cents	-12772
▁farms	-12773
▁judic	-12774
▁ridic	-12775
▁sheet	-12776
▁toxic	-12777
Another	-12778
imbabwe	-12779
rington	-12780
▁Alaska	-12781
▁Gemini	-12782
▁Kaiser	-12783
▁detect	-12784
▁enable	-12785
▁lifted	-12786
▁saving	-12787
▁sphere	-12788
▁worker	-12789
agonists	-12790
▁Jessica	-12791
▁Preston	-12792
▁Princip	-12793
▁convert	-12794
▁elector	-12795
▁guitars	-12796
▁mistake	-12797
▁noticed	-12798
▁rituals	-12799
▁rivalry	-12800
▁shipped	-12801
thosaurus	-12802
▁Edmonton	-12803
▁Rhodesia	-12804
▁Symphony	-12805
▁commands	-12806
▁disorder	-12807
▁opinions	-12808
▁settings	-12809
▁thriller	-12810
▁tourists	-12811
▁Carpenter	-12812
▁SmackDown	-12813
▁incorrect	-12814
▁lifestyle	-12815
▁listeners	-12816
▁prototype	-12817
▁respected	-12818
▁collecting	-12819
▁kilometers	-12820
▁surprising	-12821
▁continental	-12822
▁destination	-12823
▁discussions	-12824
▁Conservative	-12825
▁developments	-12826
▁recreational	-12827
▁Constantinople	-12828
▁battlecruisers	-12829
▁correspondence	-12830
CO	-12831
Cl	-12832
If	-12833
pa	-12834
rh	-12835
ASP	-12836
III	-12837
abe	-12838
aro	-12839
bre	-12840
car	-12841
cht	-12842
fly	-12843
iao	-12844
ubs	-12845
▁Il	-12846
ache	-12847
alky	-12848
atri	-12849
ifna	-12850
quer	-12851
▁107	-12852
▁Inv	-12853
▁Jen	-12854
▁McM	-12855
▁oct	-12856
group	-12857
ldest	-12858
ringe	-12859
▁Code	-12860
▁Come	-12861
▁Half	-12862
▁Mets	-12863
▁Pole	-12864
▁Sixt	-12865
▁Trad	-12866
▁dawn	-12867
▁mamb	-12868
▁quit	-12869
elines	-12870
ishops	-12871
osaurs	-12872
▁Baron	-12873
▁Eaton	-12874
▁Money	-12875
▁accus	-12876
▁bonds	-12877
▁inhib	-12878
▁joins	-12879
▁synth	-12880
ultural	-12881
▁Allies	-12882
▁Deputy	-12883
▁Senior	-12884
▁Yancey	-12885
▁blamed	-12886
▁debris	-12887
▁harbor	-12888
▁purple	-12889
▁skiing	-12890
▁Leopold	-12891
▁Pennock	-12892
▁Trinity	-12893
▁athlete	-12894
▁binding	-12895
▁genuine	-12896
▁honours	-12897
▁parking	-12898
▁pleased	-12899
▁publish	-12900
▁refuses	-12901
▁rehears	-12902
▁teenage	-12903
▁Capitals	-12904
▁Treasury	-12905
▁confined	-12906
▁eighteen	-12907
▁europium	-12908
▁interven	-12909
▁reversed	-12910
▁terminal	-12911
▁Beautiful	-12912
▁Eugenides	-12913
▁Executive	-12914
▁Iguanodon	-12915
▁Melbourne	-12916
▁advocated	-12917
▁introduce	-12918
▁relegated	-12919
▁commitment	-12920
▁critically	-12921
▁millimeter	-12922
▁screenplay	-12923
▁multiplayer	-12924
▁consequences	-12925
▁overwhelming	-12926
▁consideration	-12927
▁northwestward	-12928
06	-12929
zo	-12930
Com	-12931
His	-12932
alg	-12933
len	-12934
uri	-12935
▁CR	-12936
▁PS	-12937
Spot	-12938
acks	-12939
elta	-12940
emia	-12941
iani	-12942
oyle	-12943
raid	-12944
▁153	-12945
▁Ace	-12946
▁Eps	-12947
▁sou	-12948
asian	-12949
leted	-12950
offic	-12951
▁1886	-12952
▁Appe	-12953
▁Berm	-12954
▁Kath	-12955
▁Noel	-12956
▁Pike	-12957
▁RIAA	-12958
▁Roll	-12959
▁Yang	-12960
▁ties	-12961
▁wart	-12962
anners	-12963
atters	-12964
ophone	-12965
▁Bloom	-12966
▁Metac	-12967
▁Plunk	-12968
▁Terry	-12969
▁Tracy	-12970
▁Where	-12971
▁cubic	-12972
▁deals	-12973
▁lacks	-12974
▁uncon	-12975
▁wives	-12976
changed	-12977
iminary	-12978
istical	-12979
▁Gerald	-12980
▁Telugu	-12981
▁breast	-12982
▁eldest	-12983
▁hamlet	-12984
▁kicked	-12985
▁magist	-12986
▁movies	-12987
ointment	-12988
▁Harvard	-12989
▁enzymes	-12990
▁outcome	-12991
▁puzzles	-12992
▁sailors	-12993
▁statute	-12994
▁Valiente	-12995
▁Zimbabwe	-12996
▁assassin	-12997
▁damaging	-12998
▁disputes	-12999
▁estimate	-13000
▁managing	-13001
▁messages	-13002
▁printing	-13003
▁proceeds	-13004
▁switched	-13005
▁Agreement	-13006
▁Formation	-13007
▁Newcastle	-13008
▁machinery	-13009
▁mechanics	-13010
▁nicknamed	-13011
▁privately	-13012
▁sacrifice	-13013
▁undertook	-13014
▁Metacritic	-13015
▁conducting	-13016
▁excavation	-13017
▁vegetation	-13018
▁expeditions	-13019
▁nevertheless	-13020
▁confrontation	-13021
▁demonstration	-13022
▁advertisements	-13023
asp	-13024
bie	-13025
cca	-13026
gas	-13027
ikh	-13028
nex	-13029
ocy	-13030
ruz	-13031
udi	-13032
▁DM	-13033
▁Ef	-13034
▁GM	-13035
bage	-13036
gars	-13037
held	-13038
isle	-13039
oids	-13040
olds	-13041
▁Any	-13042
▁Cou	-13043
▁Rav	-13044
▁Sap	-13045
▁Smy	-13046
▁cow	-13047
▁cro	-13048
allas	-13049
antes	-13050
edvar	-13051
guard	-13052
ierra	-13053
iture	-13054
ledon	-13055
oskey	-13056
ucurb	-13057
▁1832	-13058
▁1853	-13059
▁1874	-13060
▁Guin	-13061
▁Rush	-13062
▁Skye	-13063
▁Stam	-13064
▁Unic	-13065
▁Wool	-13066
▁crus	-13067
▁rape	-13068
▁tong	-13069
▁trio	-13070
idance	-13071
rained	-13072
▁Derby	-13073
▁Hardy	-13074
▁Herod	-13075
▁Nobel	-13076
▁Percy	-13077
▁Susan	-13078
▁Woods	-13079
▁annoy	-13080
▁caves	-13081
▁drunk	-13082
▁fires	-13083
▁fluid	-13084
▁locks	-13085
▁lumin	-13086
▁slide	-13087
▁swept	-13088
isphere	-13089
olithic	-13090
▁Bergen	-13091
▁Monten	-13092
▁Report	-13093
▁Wolver	-13094
▁applic	-13095
▁backst	-13096
▁endors	-13097
▁incred	-13098
▁nomine	-13099
▁prices	-13100
▁stored	-13101
▁suited	-13102
▁Gregory	-13103
▁Kenneth	-13104
▁Wallace	-13105
▁bassist	-13106
▁doctors	-13107
▁excited	-13108
▁extends	-13109
▁painter	-13110
▁possess	-13111
▁singers	-13112
▁synonym	-13113
▁tourism	-13114
erogative	-13115
structure	-13116
temporary	-13117
▁Airlines	-13118
▁Language	-13119
▁Romanian	-13120
▁blockade	-13121
▁escorted	-13122
▁generate	-13123
▁millions	-13124
▁murdered	-13125
▁overcome	-13126
▁reserved	-13127
▁Katherine	-13128
▁disbanded	-13129
▁mechanism	-13130
▁recognize	-13131
▁reporting	-13132
▁Darlington	-13133
▁contribute	-13134
▁deployment	-13135
▁fatalities	-13136
▁pronounced	-13137
▁southbound	-13138
▁submarines	-13139
▁Diefenbaker	-13140
▁Westminster	-13141
▁descendants	-13142
▁photography	-13143
▁politically	-13144
▁administered	-13145
▁astronomical	-13146
▁commentators	-13147
▁preparations	-13148
IC	-13149
ci	-13150
vo	-13151
cki	-13152
ieu	-13153
▁HM	-13154
2018	-13155
Crit	-13156
engu	-13157
enny	-13158
mund	-13159
oren	-13160
ptic	-13161
▁CEO	-13162
▁Eth	-13163
▁FBI	-13164
▁Lov	-13165
▁Pel	-13166
▁Sic	-13167
▁Why	-13168
▁Wii	-13169
▁caf	-13170
▁spy	-13171
Prior	-13172
Short	-13173
cover	-13174
rogen	-13175
▁1793	-13176
▁1854	-13177
▁1855	-13178
▁Craw	-13179
▁Cred	-13180
▁Shaw	-13181
▁blog	-13182
▁carc	-13183
▁clip	-13184
▁sink	-13185
▁slot	-13186
▁tear	-13187
▁touc	-13188
▁vert	-13189
aggard	-13190
ailand	-13191
lessly	-13192
▁Cohen	-13193
▁Congo	-13194
▁Julia	-13195
▁Laura	-13196
▁Leigh	-13197
▁Obama	-13198
▁Polit	-13199
▁Solar	-13200
▁cabin	-13201
▁digit	-13202
▁fever	-13203
▁imped	-13204
▁spore	-13205
casting	-13206
▁Altern	-13207
▁Farmer	-13208
▁Fellow	-13209
▁Somerv	-13210
▁Terror	-13211
▁Tracks	-13212
▁config	-13213
▁curves	-13214
▁dreams	-13215
▁legacy	-13216
▁runway	-13217
▁traits	-13218
▁voters	-13219
▁Arsenal	-13220
▁Broncos	-13221
▁Herbert	-13222
▁Laurent	-13223
▁Shannon	-13224
▁borough	-13225
▁caliber	-13226
▁colonel	-13227
▁costume	-13228
▁denomin	-13229
▁frigate	-13230
▁unaware	-13231
ighthouse	-13232
utherford	-13233
▁Italians	-13234
▁Junction	-13235
▁Security	-13236
▁athletic	-13237
▁contents	-13238
▁emerging	-13239
▁freshman	-13240
▁hardware	-13241
▁mourning	-13242
▁properly	-13243
▁tracking	-13244
▁associate	-13245
▁consensus	-13246
▁demanding	-13247
▁eliminate	-13248
▁revealing	-13249
▁unusually	-13250
▁Historical	-13251
▁corruption	-13252
▁horizontal	-13253
▁nationally	-13254
▁suspension	-13255
▁Afghanistan	-13256
▁sympathetic	-13257
▁compositions	-13258
▁constituency	-13259
▁contributing	-13260
▁instructions	-13261
▁extraordinary	-13262
VA	-13263
aze	-13264
ded	-13265
erm	-13266
inh	-13267
ivo	-13268
ked	-13269
sts	-13270
tet	-13271
▁EM	-13272
ayne	-13273
eton	-13274
iman	-13275
olay	-13276
onge	-13277
rush	-13278
vius	-13279
▁Beh	-13280
▁Fal	-13281
▁Mam	-13282
▁Rud	-13283
▁lor	-13284
amoto	-13285
eches	-13286
pring	-13287
utors	-13288
▁1882	-13289
▁Crow	-13290
▁Poet	-13291
▁Rico	-13292
▁beef	-13293
▁busy	-13294
▁haul	-13295
▁kids	-13296
▁lect	-13297
▁masc	-13298
▁supp	-13299
▁thro	-13300
▁user	-13301
▁veto	-13302
employ	-13303
fortun	-13304
inorum	-13305
rators	-13306
▁Groza	-13307
▁Henri	-13308
▁Recre	-13309
▁Tests	-13310
▁Trade	-13311
▁Voice	-13312
▁bills	-13313
▁deriv	-13314
▁drops	-13315
▁filmm	-13316
▁gover	-13317
▁repet	-13318
▁rhyme	-13319
▁shaft	-13320
▁sixty	-13321
▁troop	-13322
▁verte	-13323
raction	-13324
▁Junior	-13325
▁Keeler	-13326
▁Miguel	-13327
▁Others	-13328
▁Shakur	-13329
▁Spirit	-13330
▁Turkey	-13331
▁Wander	-13332
▁darker	-13333
▁mating	-13334
▁renown	-13335
▁runner	-13336
▁silent	-13337
▁whites	-13338
imbledon	-13339
▁Leonard	-13340
▁Spaniel	-13341
▁cameras	-13342
▁delight	-13343
▁faculty	-13344
▁filling	-13345
▁invaded	-13346
▁mammals	-13347
▁shelter	-13348
▁sinking	-13349
▁stepped	-13350
▁totally	-13351
▁visuals	-13352
▁Allmusic	-13353
▁Literary	-13354
▁Thailand	-13355
▁assessed	-13356
▁devotion	-13357
▁inferior	-13358
▁mistaken	-13359
▁relieved	-13360
▁targeted	-13361
▁Commodore	-13362
▁concludes	-13363
▁divinorum	-13364
▁governing	-13365
▁incidents	-13366
▁satisfied	-13367
▁seventeen	-13368
▁stretched	-13369
▁supporter	-13370
▁Hutchinson	-13371
▁Technology	-13372
▁confronted	-13373
▁graduating	-13374
▁preventing	-13375
▁Palestinian	-13376
▁songwriting	-13377
▁jurisdiction	-13378
▁neighbouring	-13379
▁illustrations	-13380
▁transformation	-13381
▁unsuccessfully	-13382
OL	-13383
Per	-13384
Pro	-13385
ige	-13386
irk	-13387
mad	-13388
vas	-13389
▁CA	-13390
▁CC	-13391
acko	-13392
ayan	-13393
boat	-13394
hesh	-13395
oric	-13396
owie	-13397
▁139	-13398
▁156	-13399
▁Bot	-13400
▁Cry	-13401
▁Fro	-13402
▁Urs	-13403
▁Wes	-13404
▁Wor	-13405
▁ace	-13406
▁spo	-13407
aduct	-13408
anche	-13409
erner	-13410
ework	-13411
never	-13412
osion	-13413
▁1794	-13414
▁1871	-13415
▁Anti	-13416
▁Bear	-13417
▁Dang	-13418
▁Noth	-13419
▁Nova	-13420
▁Pitt	-13421
▁Rare	-13422
▁Scar	-13423
▁Shin	-13424
▁Soul	-13425
▁True	-13426
▁Uran	-13427
▁Want	-13428
▁bapt	-13429
▁boom	-13430
▁hide	-13431
▁mere	-13432
▁pill	-13433
▁prel	-13434
▁subd	-13435
▁tide	-13436
Though	-13437
arious	-13438
estial	-13439
igence	-13440
orters	-13441
ourage	-13442
▁Petro	-13443
▁Shock	-13444
▁Theft	-13445
▁Titus	-13446
▁ambit	-13447
▁dealt	-13448
▁eager	-13449
▁guerr	-13450
▁revol	-13451
▁satir	-13452
▁stops	-13453
▁tears	-13454
▁telev	-13455
▁tends	-13456
amation	-13457
itating	-13458
versely	-13459
▁Almost	-13460
▁Buddha	-13461
▁Button	-13462
▁Chrono	-13463
▁Rother	-13464
▁apolog	-13465
▁domain	-13466
▁guides	-13467
▁helium	-13468
▁lumber	-13469
▁nephew	-13470
▁parade	-13471
▁perpet	-13472
▁soccer	-13473
▁stabil	-13474
▁stanza	-13475
▁thirds	-13476
▁wounds	-13477
▁Bermuda	-13478
▁Collins	-13479
▁amazing	-13480
▁chances	-13481
▁jumping	-13482
▁knowing	-13483
▁secular	-13484
▁wanting	-13485
itational	-13486
▁AllMusic	-13487
▁Biblical	-13488
▁Brooklyn	-13489
▁Drummond	-13490
▁Marathon	-13491
▁Medicine	-13492
▁Observer	-13493
▁accuracy	-13494
▁appealed	-13495
▁chapters	-13496
▁frontier	-13497
▁preceded	-13498
▁reconcil	-13499
▁relating	-13500
▁removing	-13501
▁screened	-13502
▁sexually	-13503
▁starling	-13504
▁tactical	-13505
▁Pichilemu	-13506
▁affecting	-13507
▁averaging	-13508
▁carefully	-13509
▁celebrity	-13510
▁comprises	-13511
▁favourite	-13512
▁fortified	-13513
▁reluctant	-13514
▁shipments	-13515
▁varieties	-13516
▁Collection	-13517
▁publishers	-13518
▁prosecution	-13519
▁achievements	-13520
▁investigated	-13521
Har	-13522
ahl	-13523
gae	-13524
oga	-13525
pin	-13526
rez	-13527
▁AS	-13528
acht	-13529
aley	-13530
ayed	-13531
enez	-13532
eria	-13533
mons	-13534
neys	-13535
olin	-13536
plex	-13537
post	-13538
▁151	-13539
▁Ful	-13540
▁Mom	-13541
▁Nak	-13542
▁fib	-13543
▁lam	-13544
▁tap	-13545
▁ump	-13546
byter	-13547
heres	-13548
onald	-13549
ullen	-13550
▁1200	-13551
▁1866	-13552
▁1869	-13553
▁Giul	-13554
▁Mess	-13555
▁Prad	-13556
▁Rams	-13557
▁Weed	-13558
▁beds	-13559
▁calm	-13560
▁fing	-13561
▁gest	-13562
▁golf	-13563
▁mock	-13564
▁sibl	-13565
astian	-13566
essors	-13567
iginal	-13568
isting	-13569
mother	-13570
racted	-13571
▁Blake	-13572
▁Diddy	-13573
▁Large	-13574
▁Mason	-13575
▁Opera	-13576
▁deity	-13577
▁greet	-13578
▁inver	-13579
▁Astros	-13580
▁Celtic	-13581
▁Gerard	-13582
▁Herman	-13583
▁Kombat	-13584
▁Monkey	-13585
▁Places	-13586
▁Rising	-13587
▁Slayer	-13588
▁deeper	-13589
▁degrad	-13590
▁helmet	-13591
▁ironcl	-13592
▁laying	-13593
▁remake	-13594
▁rumors	-13595
▁snakes	-13596
▁thinks	-13597
▁topics	-13598
▁Windows	-13599
▁heating	-13600
▁nervous	-13601
istically	-13602
▁Flanders	-13603
▁GameSpot	-13604
▁Liberals	-13605
▁borrowed	-13606
▁calendar	-13607
▁choosing	-13608
▁dolphins	-13609
▁narrator	-13610
▁playable	-13611
▁siblings	-13612
▁tensions	-13613
ologically	-13614
▁Brazilian	-13615
▁Canadians	-13616
▁Highlands	-13617
▁Leicester	-13618
▁ambitious	-13619
▁coastline	-13620
▁customers	-13621
▁disturbed	-13622
▁regiments	-13623
▁specially	-13624
▁volunteer	-13625
▁Rutherford	-13626
▁emphasized	-13627
▁variations	-13628
▁generations	-13629
▁reminiscent	-13630
▁scholarship	-13631
▁broadcasting	-13632
▁Corythosaurus	-13633
▁organisations	-13634
▁psychological	-13635
▁contemporaries	-13636
tz	-13637
auc	-13638
ski	-13639
▁AU	-13640
▁Ah	-13641
▁Ax	-13642
amic	-13643
aple	-13644
arly	-13645
assy	-13646
nees	-13647
opol	-13648
uros	-13649
▁129	-13650
▁145	-13651
▁450	-13652
▁Kle	-13653
▁Kon	-13654
▁Num	-13655
▁Ref	-13656
▁Tan	-13657
▁Wey	-13658
▁aqu	-13659
▁fir	-13660
▁lig	-13661
▁unh	-13662
pered	-13663
terly	-13664
ukary	-13665
ungle	-13666
▁1852	-13667
▁Guam	-13668
▁Jama	-13669
▁Kend	-13670
▁Loch	-13671
▁Reed	-13672
▁Vers	-13673
▁puts	-13674
▁sear	-13675
ennial	-13676
olence	-13677
▁Adult	-13678
▁Banai	-13679
▁Breed	-13680
▁Exped	-13681
▁Exper	-13682
▁Gacko	-13683
▁annex	-13684
▁arose	-13685
▁latex	-13686
▁pamph	-13687
▁patch	-13688
▁thres	-13689
Shortly	-13690
changes	-13691
▁Guards	-13692
▁Kilmer	-13693
▁Marvel	-13694
▁Mersey	-13695
▁Surrey	-13696
▁assets	-13697
▁batted	-13698
▁beside	-13699
▁clever	-13700
▁cruise	-13701
▁fertil	-13702
▁hiatus	-13703
▁leaked	-13704
▁revolt	-13705
▁scorer	-13706
▁Aniston	-13707
▁Haggard	-13708
▁belongs	-13709
▁cooking	-13710
▁courage	-13711
▁debated	-13712
▁dynamic	-13713
▁elderly	-13714
▁hanging	-13715
▁kickoff	-13716
▁loading	-13717
▁nearest	-13718
▁precise	-13719
▁readily	-13720
▁realism	-13721
▁realize	-13722
▁resolve	-13723
▁stretch	-13724
▁striker	-13725
▁wartime	-13726
▁Columbus	-13727
▁advocate	-13728
▁biblical	-13729
▁deceased	-13730
▁floating	-13731
▁governed	-13732
▁meantime	-13733
▁scrapped	-13734
▁spectrum	-13735
▁veterans	-13736
▁woodland	-13737
▁Adventure	-13738
▁Southeast	-13739
▁Wimbledon	-13740
▁celestial	-13741
▁detective	-13742
▁fantastic	-13743
▁peninsula	-13744
▁squadrons	-13745
▁Wellington	-13746
▁comparable	-13747
▁downstream	-13748
▁invitation	-13749
▁positioned	-13750
▁specialist	-13751
▁underwater	-13752
▁achievement	-13753
▁demonstrate	-13754
▁excavations	-13755
▁observatory	-13756
▁probability	-13757
▁proceedings	-13758
▁inscriptions	-13759
▁technologies	-13760
▁Middlesbrough	-13761
Am	-13762
266	-13763
Bet	-13764
Rec	-13765
bbi	-13766
erb	-13767
gor	-13768
oly	-13769
oop	-13770
pox	-13771
yan	-13772
▁Pa	-13773
▁Uk	-13774
▁XI	-13775
Mich	-13776
ardy	-13777
boro	-13778
idia	-13779
lide	-13780
olet	-13781
quet	-13782
▁135	-13783
▁157	-13784
▁Eye	-13785
▁Fab	-13786
▁Fil	-13787
▁Kub	-13788
▁Meg	-13789
▁NHC	-13790
▁Pad	-13791
▁SAS	-13792
▁cha	-13793
ubles	-13794
▁1867	-13795
▁Beau	-13796
▁Daft	-13797
▁Krak	-13798
▁Lead	-13799
▁Site	-13800
▁Whig	-13801
▁abst	-13802
▁adds	-13803
▁bold	-13804
▁cott	-13805
▁hack	-13806
▁insu	-13807
▁item	-13808
▁merc	-13809
▁moor	-13810
▁pipe	-13811
▁pock	-13812
alties	-13813
esters	-13814
linger	-13815
▁Carre	-13816
▁Cater	-13817
▁Eddie	-13818
▁Guerr	-13819
▁Keamy	-13820
▁Maine	-13821
▁Malta	-13822
▁Rames	-13823
▁Saxon	-13824
▁Syria	-13825
▁Venez	-13826
▁caste	-13827
▁discr	-13828
▁monit	-13829
▁nutri	-13830
▁reper	-13831
▁ruins	-13832
▁semif	-13833
▁spear	-13834
▁stell	-13835
▁swing	-13836
▁zones	-13837
uroloph	-13838
▁Buenos	-13839
▁Comedy	-13840
▁Danish	-13841
▁Denver	-13842
▁Manuel	-13843
▁Pitman	-13844
▁Salvia	-13845
▁Sierra	-13846
▁Travis	-13847
▁errors	-13848
▁export	-13849
▁improv	-13850
▁incons	-13851
▁photos	-13852
▁pigeon	-13853
▁repeat	-13854
▁steady	-13855
▁tackle	-13856
▁talked	-13857
▁walked	-13858
▁Chapman	-13859
▁Marshal	-13860
▁Minogue	-13861
▁Newport	-13862
▁Shelley	-13863
▁Species	-13864
▁convict	-13865
▁counsel	-13866
▁coupled	-13867
▁kitchen	-13868
▁license	-13869
▁matched	-13870
▁nesting	-13871
▁signals	-13872
▁Jennifer	-13873
▁Nandanar	-13874
▁Saunders	-13875
▁Venezuel	-13876
▁Warriors	-13877
▁clearing	-13878
▁consumed	-13879
▁elevated	-13880
▁eleventh	-13881
▁employee	-13882
▁engaging	-13883
▁everyday	-13884
▁nickname	-13885
▁speeches	-13886
▁unveiled	-13887
▁Assistant	-13888
▁computers	-13889
▁descended	-13890
▁efficient	-13891
▁exhausted	-13892
▁hospitals	-13893
▁launching	-13894
▁retreated	-13895
▁Expedition	-13896
▁Expressway	-13897
▁Millennium	-13898
▁Volunteers	-13899
▁regulation	-13900
▁Marlborough	-13901
▁Southampton	-13902
▁transformed	-13903
▁effectiveness	-13904
▁instrumentation	-13905
El	-13906
Ste	-13907
cat	-13908
jan	-13909
nut	-13910
▁"4	-13911
▁AL	-13912
▁CO	-13913
▁Xe	-13914
▁ga	-13915
▁mg	-13916
appa	-13917
eary	-13918
erts	-13919
imer	-13920
thel	-13921
▁Chi	-13922
▁Lac	-13923
▁Lat	-13924
▁NME	-13925
▁NVC	-13926
▁TBI	-13927
▁joy	-13928
Later	-13929
entin	-13930
ettes	-13931
ricks	-13932
smith	-13933
tello	-13934
▁1806	-13935
▁Belt	-13936
▁Dana	-13937
▁ESPN	-13938
▁Hiro	-13939
▁Jagd	-13940
▁Liam	-13941
▁Raff	-13942
▁Rena	-13943
▁Ruth	-13944
▁Side	-13945
▁deer	-13946
▁dish	-13947
▁hurt	-13948
▁keen	-13949
▁spar	-13950
▁spor	-13951
▁unre	-13952
ailing	-13953
otypes	-13954
▁Aires	-13955
▁Chang	-13956
▁Coral	-13957
▁Dover	-13958
▁Fanny	-13959
▁Janet	-13960
▁Jifna	-13961
▁Motor	-13962
▁Orton	-13963
▁Palmy	-13964
▁Towns	-13965
▁Woman	-13966
▁blame	-13967
▁cease	-13968
▁chord	-13969
▁rings	-13970
▁rises	-13971
▁silky	-13972
▁stair	-13973
agnetic	-13974
imeters	-13975
onation	-13976
▁Action	-13977
▁Caesar	-13978
▁Dallas	-13979
▁Rather	-13980
▁Reagan	-13981
▁angles	-13982
▁firmly	-13983
▁galaxy	-13984
▁martin	-13985
▁modest	-13986
▁sacked	-13987
▁shrine	-13988
▁Cameron	-13989
▁Charter	-13990
▁Furious	-13991
▁Imagine	-13992
▁broadly	-13993
▁centres	-13994
▁depends	-13995
▁diamond	-13996
▁freight	-13997
▁goddess	-13998
▁kitsune	-13999
▁runners	-14000
▁rushing	-14001
▁senator	-14002
▁variant	-14003
▁Cornwall	-14004
▁agencies	-14005
▁charting	-14006
▁findings	-14007
▁innocent	-14008
▁maneuver	-14009
▁peaceful	-14010
▁princess	-14011
▁priority	-14012
▁reflects	-14013
▁retiring	-14014
▁scenario	-14015
▁skeleton	-14016
▁symbolic	-14017
▁uprising	-14018
▁Nashville	-14019
▁Woodstock	-14020
▁afterward	-14021
▁delegates	-14022
▁promoting	-14023
▁violation	-14024
▁Industrial	-14025
▁Wilmington	-14026
▁absolutely	-14027
▁ceremonial	-14028
▁prohibited	-14029
▁regardless	-14030
▁supplement	-14031
▁Engineering	-14032
▁allegations	-14033
▁necessarily	-14034
▁preliminary	-14035
▁prerogative	-14036
▁volunteered	-14037
▁Contemporary	-14038
▁compensation	-14039
▁disappointment	-14040
De	-14041
▁u	-14042
zac	-14043
▁CG	-14044
▁cu	-14045
ects	-14046
emen	-14047
enic	-14048
folk	-14049
hall	-14050
imus	-14051
oder	-14052
yler	-14053
▁131	-14054
▁Fei	-14055
▁Gor	-14056
▁Gul	-14057
▁Had	-14058
▁Kan	-14059
▁Laz	-14060
▁Sey	-14061
▁maj	-14062
aints	-14063
amped	-14064
arted	-14065
atech	-14066
istle	-14067
olics	-14068
omous	-14069
otels	-14070
overy	-14071
regor	-14072
sover	-14073
stand	-14074
waram	-14075
▁1812	-14076
▁1859	-14077
▁Assy	-14078
▁Tell	-14079
▁UEFA	-14080
▁cogn	-14081
▁flee	-14082
▁pier	-14083
▁soap	-14084
▁tang	-14085
herent	-14086
venues	-14087
▁Allah	-14088
▁Ellis	-14089
▁Freak	-14090
▁Griff	-14091
▁Gross	-14092
▁Muham	-14093
▁Pluto	-14094
▁Total	-14095
▁Truth	-14096
▁Urban	-14097
▁anten	-14098
▁antib	-14099
▁argue	-14100
▁aster	-14101
▁drift	-14102
▁fairy	-14103
▁mobil	-14104
▁naked	-14105
▁paved	-14106
▁revel	-14107
▁saint	-14108
▁woods	-14109
rolling	-14110
▁Archie	-14111
▁Arnold	-14112
▁Circle	-14113
▁Econom	-14114
▁Indeed	-14115
▁Johann	-14116
▁Lawton	-14117
▁Mahesh	-14118
▁Panama	-14119
▁Priest	-14120
▁Santos	-14121
▁backup	-14122
▁decomm	-14123
▁extant	-14124
▁floods	-14125
▁insult	-14126
▁knight	-14127
▁loaded	-14128
▁median	-14129
▁miners	-14130
▁stroke	-14131
▁Borough	-14132
▁Chester	-14133
▁Conserv	-14134
▁Gliders	-14135
▁Hundred	-14136
▁Miranda	-14137
▁damages	-14138
▁editing	-14139
▁exhaust	-14140
▁forever	-14141
▁gallery	-14142
▁gardens	-14143
▁orbital	-14144
▁platoon	-14145
▁spawned	-14146
urolophus	-14147
▁Agricult	-14148
▁Petoskey	-14149
▁contempl	-14150
▁enlarged	-14151
▁guidance	-14152
▁maturity	-14153
▁missiles	-14154
▁narrowly	-14155
▁unemploy	-14156
▁Admiralty	-14157
▁Allingham	-14158
▁Offensive	-14159
▁Unlimited	-14160
▁automatic	-14161
▁collector	-14162
▁conquered	-14163
▁corporate	-14164
▁decreased	-14165
▁editorial	-14166
▁everybody	-14167
▁inhabited	-14168
▁legendary	-14169
▁maintains	-14170
▁promising	-14171
▁resembles	-14172
▁sentences	-14173
▁synthesis	-14174
▁Mozambique	-14175
▁attributes	-14176
▁hurricanes	-14177
▁prominence	-14178
▁availability	-14179
▁descriptions	-14180
▁discontinued	-14181
▁entertaining	-14182
▁predecessors	-14183
▁comprehensive	-14184
▁retrospective	-14185
No	-14186
Due	-14187
oku	-14188
osc	-14189
usc	-14190
▁Og	-14191
▁Wi	-14192
fere	-14193
icus	-14194
lett	-14195
ouch	-14196
ride	-14197
uman	-14198
zens	-14199
▁116	-14200
▁Duc	-14201
▁Esc	-14202
▁Fis	-14203
▁Ord	-14204
▁Sis	-14205
▁Yuk	-14206
▁bin	-14207
▁dan	-14208
▁dye	-14209
▁ost	-14210
▁tun	-14211
acruz	-14212
ernon	-14213
front	-14214
geant	-14215
gment	-14216
inely	-14217
keley	-14218
ocarp	-14219
ummer	-14220
▁1873	-14221
▁Etty	-14222
▁Fife	-14223
▁Gren	-14224
▁Mile	-14225
▁Pool	-14226
▁Tanz	-14227
▁Toba	-14228
▁disg	-14229
▁inev	-14230
▁seam	-14231
abling	-14232
acular	-14233
dinand	-14234
entric	-14235
erness	-14236
ervers	-14237
ometry	-14238
▁Appro	-14239
▁Coach	-14240
▁Pagan	-14241
▁blend	-14242
▁chore	-14243
▁fraud	-14244
▁infin	-14245
▁petro	-14246
▁reads	-14247
▁roost	-14248
▁scope	-14249
▁unity	-14250
▁unpop	-14251
chwader	-14252
▁Adrian	-14253
▁Angela	-14254
▁Lieber	-14255
▁Maggie	-14256
▁Palmer	-14257
▁Person	-14258
▁Prison	-14259
▁Strait	-14260
▁Tucker	-14261
▁admits	-14262
▁betray	-14263
▁bomber	-14264
▁curric	-14265
▁floors	-14266
▁genius	-14267
▁guided	-14268
▁insurg	-14269
▁lineup	-14270
▁locked	-14271
▁presum	-14272
▁puzzle	-14273
▁summon	-14274
▁Dragons	-14275
▁Kannada	-14276
▁Norfolk	-14277
▁Windsor	-14278
▁environ	-14279
▁estates	-14280
▁mansion	-14281
▁missile	-14282
▁outdoor	-14283
▁priests	-14284
▁reactor	-14285
▁remnant	-14286
▁scripts	-14287
▁Giuliani	-14288
▁Glorious	-14289
▁Guerrero	-14290
▁Standard	-14291
▁basement	-14292
▁cemetery	-14293
▁corridor	-14294
▁grandson	-14295
▁manifest	-14296
▁medicine	-14297
▁pointing	-14298
▁realizes	-14299
▁Argentine	-14300
▁Catholics	-14301
▁Ferdinand	-14302
▁disappear	-14303
▁diversity	-14304
▁internees	-14305
▁screening	-14306
▁sexuality	-14307
▁teammates	-14308
▁thunderst	-14309
▁Hurricanes	-14310
▁Witchcraft	-14311
▁architects	-14312
▁assessment	-14313
▁highlights	-14314
▁performers	-14315
▁countryside	-14316
▁declaration	-14317
▁environments	-14318
▁characterised	-14319
▁neighborhoods	-14320
▁identification	-14321
▁superstructure	-14322
CP	-14323
Ge	-14324
MO	-14325
ao	-14326
▁>	-14327
RNA	-14328
ieg	-14329
iri	-14330
upt	-14331
▁RA	-14332
▁VH	-14333
▁ov	-14334
▁yd	-14335
2032	-14336
aney	-14337
esha	-14338
oeuv	-14339
opal	-14340
pses	-14341
xton	-14342
yers	-14343
▁Dre	-14344
▁HBO	-14345
▁Ltd	-14346
▁Lyd	-14347
▁Sit	-14348
▁esp	-14349
▁nam	-14350
▁tin	-14351
▁ups	-14352
elong	-14353
olent	-14354
omaru	-14355
▁1790	-14356
▁1879	-14357
▁Born	-14358
▁Clan	-14359
▁Hein	-14360
▁Marx	-14361
▁Ober	-14362
▁jeal	-14363
▁laps	-14364
▁loot	-14365
▁oral	-14366
▁seal	-14367
Malley	-14368
ctuary	-14369
keeper	-14370
onnell	-14371
urated	-14372
urtado	-14373
▁Bosch	-14374
▁Comes	-14375
▁Faith	-14376
▁Hindi	-14377
▁Leban	-14378
▁Leeds	-14379
▁Plant	-14380
▁Sansk	-14381
▁Scots	-14382
▁Tibet	-14383
▁Trina	-14384
▁Using	-14385
▁botan	-14386
▁fails	-14387
▁limbs	-14388
▁mills	-14389
▁paths	-14390
▁pharm	-14391
▁spare	-14392
▁stunt	-14393
▁theor	-14394
▁wavel	-14395
Between	-14396
angered	-14397
chestra	-14398
▁Batter	-14399
▁Better	-14400
▁Excell	-14401
▁Legion	-14402
▁Venice	-14403
▁ascend	-14404
▁exempl	-14405
▁freely	-14406
▁indigo	-14407
▁overth	-14408
▁regret	-14409
▁shoots	-14410
▁Capital	-14411
▁Coleman	-14412
▁Control	-14413
▁Fiction	-14414
▁Popular	-14415
▁Soviets	-14416
▁Speaker	-14417
▁batsmen	-14418
▁enacted	-14419
▁farther	-14420
▁happens	-14421
▁rehabil	-14422
▁stellar	-14423
▁strings	-14424
▁Americas	-14425
▁Colombia	-14426
▁Hinomaru	-14427
▁Official	-14428
▁Pakistan	-14429
▁Valhalla	-14430
▁Veracruz	-14431
▁airports	-14432
▁comedian	-14433
▁costumes	-14434
▁ensemble	-14435
▁entirety	-14436
▁frigates	-14437
▁likewise	-14438
▁passages	-14439
▁Catherine	-14440
▁Engineers	-14441
▁Rhodesian	-14442
▁authentic	-14443
▁colleague	-14444
▁complaint	-14445
▁continent	-14446
▁instances	-14447
▁monuments	-14448
▁persisted	-14449
▁thickness	-14450
▁contradict	-14451
▁hypothesis	-14452
▁devastating	-14453
▁intelligent	-14454
▁rectangular	-14455
▁Chambersburg	-14456
▁commissioner	-14457
▁geographical	-14458
▁modifications	-14459
▁reconstructed	-14460
1\	-14461
sk	-14462
zi	-14463
McC	-14464
Mon	-14465
Sim	-14466
iya	-14467
ryz	-14468
▁Aw	-14469
▁SA	-14470
anti	-14471
avan	-14472
elia	-14473
graf	-14474
ifax	-14475
lude	-14476
mire	-14477
oved	-14478
roft	-14479
uity	-14480
ulus	-14481
undo	-14482
ylum	-14483
▁141	-14484
▁158	-14485
▁509	-14486
▁Aqu	-14487
▁Bes	-14488
▁Cut	-14489
▁Dud	-14490
▁Gay	-14491
▁Miz	-14492
▁Ned	-14493
▁Syl	-14494
▁dug	-14495
▁jam	-14496
▁lod	-14497
▁ris	-14498
eding	-14499
eping	-14500
illas	-14501
ilogy	-14502
rescu	-14503
utton	-14504
▁1836	-14505
▁1847	-14506
▁Dant	-14507
▁Self	-14508
▁Shan	-14509
▁Soft	-14510
▁Waxy	-14511
▁cats	-14512
▁cree	-14513
▁desp	-14514
▁loos	-14515
▁sher	-14516
▁trem	-14517
▁unde	-14518
▁zomb	-14519
akarta	-14520
ellers	-14521
ylogen	-14522
▁Carla	-14523
▁Flood	-14524
▁Track	-14525
▁blank	-14526
▁cameo	-14527
▁escal	-14528
▁flour	-14529
▁gauge	-14530
▁jokes	-14531
▁reson	-14532
▁vowel	-14533
itional	-14534
▁Cheval	-14535
▁Darwin	-14536
▁Hispan	-14537
▁Maniac	-14538
▁Marcus	-14539
▁Moving	-14540
▁Region	-14541
▁Screen	-14542
▁abrupt	-14543
▁antiqu	-14544
▁embarr	-14545
▁judges	-14546
▁metals	-14547
▁persec	-14548
▁rushed	-14549
▁symmet	-14550
▁thesis	-14551
▁trache	-14552
▁viewer	-14553
▁washed	-14554
▁Capitol	-14555
▁Finland	-14556
▁Haddock	-14557
▁Halifax	-14558
▁Raffles	-14559
▁Semitic	-14560
▁Stephan	-14561
▁anxiety	-14562
▁enhance	-14563
▁inherit	-14564
▁madness	-14565
▁tackles	-14566
▁Berkeley	-14567
▁Chairman	-14568
▁Michaels	-14569
▁boarding	-14570
▁contrary	-14571
▁detached	-14572
▁displace	-14573
▁distress	-14574
▁drawings	-14575
▁exceeded	-14576
▁favoured	-14577
▁feedback	-14578
▁licensed	-14579
▁maritime	-14580
▁partners	-14581
▁predator	-14582
▁securing	-14583
▁treasure	-14584
▁Christine	-14585
▁ancestors	-14586
▁designers	-14587
▁keyboards	-14588
▁migration	-14589
▁performer	-14590
▁recipient	-14591
▁reviewing	-14592
▁surpassed	-14593
▁concluding	-14594
▁dedication	-14595
▁instructed	-14596
▁instructor	-14597
▁introduces	-14598
▁metabolism	-14599
▁Nonetheless	-14600
▁Republicans	-14601
▁adaptations	-14602
▁appreciated	-14603
▁competitors	-14604
▁dissipating	-14605
▁incorporate	-14606
▁limitations	-14607
▁neighboring	-14608
▁capabilities	-14609
▁installation	-14610
CL	-14611
CN	-14612
lot	-14613
pit	-14614
agas	-14615
anga	-14616
beit	-14617
hand	-14618
nery	-14619
neum	-14620
ovny	-14621
ryce	-14622
uana	-14623
▁126	-14624
▁Cum	-14625
▁DAG	-14626
▁Kin	-14627
▁Lif	-14628
▁RBI	-14629
▁Saw	-14630
▁Tat	-14631
axies	-14632
elfth	-14633
olars	-14634
ourag	-14635
outed	-14636
▁1838	-14637
▁1858	-14638
▁Amph	-14639
▁Away	-14640
▁Bour	-14641
▁Dame	-14642
▁Dawn	-14643
▁Glad	-14644
▁Ming	-14645
▁Take	-14646
▁herb	-14647
▁icon	-14648
▁toss	-14649
asants	-14650
cester	-14651
elaide	-14652
hening	-14653
▁Armed	-14654
▁Flore	-14655
▁Humph	-14656
▁Nicol	-14657
▁abbey	-14658
▁clust	-14659
▁input	-14660
▁junta	-14661
▁lobby	-14662
▁overd	-14663
▁spans	-14664
▁terra	-14665
▁Former	-14666
▁Hitler	-14667
▁Magdal	-14668
▁McCool	-14669
▁Metall	-14670
▁Plains	-14671
▁Powers	-14672
▁Romans	-14673
▁clergy	-14674
▁conced	-14675
▁define	-14676
▁delays	-14677
▁finger	-14678
▁intrig	-14679
▁lament	-14680
▁occupy	-14681
▁outfit	-14682
▁physic	-14683
▁tennis	-14684
▁Gabriel	-14685
▁Leopard	-14686
▁Solomon	-14687
▁conclus	-14688
▁escapes	-14689
▁sharing	-14690
▁strikes	-14691
▁upgrade	-14692
▁vampire	-14693
▁Adelaide	-14694
▁Jurchens	-14695
▁Muhammad	-14696
▁Nicholas	-14697
▁alphabet	-14698
▁coloured	-14699
▁deposits	-14700
▁disagree	-14701
▁galaxies	-14702
▁matching	-14703
▁muscaria	-14704
▁payments	-14705
▁stopping	-14706
▁suburban	-14707
▁Brigadier	-14708
▁Democrats	-14709
▁abundance	-14710
▁metabolic	-14711
▁motivated	-14712
▁offspring	-14713
▁starlings	-14714
▁testimony	-14715
▁villagers	-14716
▁Protection	-14717
▁Recreation	-14718
▁eighteenth	-14719
▁expressing	-14720
▁formations	-14721
▁perception	-14722
▁recipients	-14723
▁underlying	-14724
▁wavelength	-14725
▁comfortable	-14726
▁philosopher	-14727
▁possessions	-14728
▁imprisonment	-14729
▁insufficient	-14730
▁supernatural	-14731
▁gravitational	-14732
DT	-14733
Ed	-14734
Mar	-14735
oub	-14736
▁FM	-14737
▁JG	-14738
▁Mk	-14739
▁TS	-14740
▁na	-14741
Will	-14742
haer	-14743
igon	-14744
lass	-14745
leys	-14746
rols	-14747
teed	-14748
uchi	-14749
usky	-14750
vati	-14751
wine	-14752
▁124	-14753
▁Ach	-14754
▁JMA	-14755
▁Sah	-14756
▁Thu	-14757
▁aug	-14758
▁mim	-14759
▁pep	-14760
▁tag	-14761
adequ	-14762
armed	-14763
cence	-14764
fford	-14765
gling	-14766
inald	-14767
orers	-14768
quiry	-14769
raits	-14770
▁1801	-14771
▁1831	-14772
▁1872	-14773
▁Expl	-14774
▁Fitz	-14775
▁Left	-14776
▁Reyn	-14777
▁Than	-14778
▁Winn	-14779
▁Word	-14780
▁bars	-14781
▁ease	-14782
▁fond	-14783
▁ions	-14784
▁jail	-14785
▁peer	-14786
▁stir	-14787
enburg	-14788
ocarpa	-14789
scopic	-14790
struct	-14791
uclear	-14792
▁Bulls	-14793
▁Clear	-14794
▁Julie	-14795
▁Lodge	-14796
▁Pione	-14797
▁Twins	-14798
▁actin	-14799
▁arbit	-14800
▁bench	-14801
▁knife	-14802
▁opted	-14803
▁stall	-14804
▁widow	-14805
ificate	-14806
imetime	-14807
ohlwend	-14808
▁Combat	-14809
▁Credit	-14810
▁Gallag	-14811
▁Intell	-14812
▁Mantle	-14813
▁Member	-14814
▁Saigon	-14815
▁Savage	-14816
▁Velvet	-14817
▁adjust	-14818
▁albeit	-14819
▁eukary	-14820
▁fundra	-14821
▁grants	-14822
▁hiding	-14823
▁humour	-14824
▁incumb	-14825
▁magnet	-14826
▁outlaw	-14827
▁prince	-14828
▁roller	-14829
▁rookie	-14830
▁salvia	-14831
▁sphaer	-14832
▁tongue	-14833
▁trauma	-14834
▁worlds	-14835
otherapy	-14836
ouraging	-14837
▁Baptist	-14838
▁Chapter	-14839
▁Evening	-14840
▁Gardens	-14841
▁McLaren	-14842
▁Minutes	-14843
▁Plateau	-14844
▁anthrop	-14845
▁auction	-14846
▁careers	-14847
▁categor	-14848
▁conting	-14849
▁ensured	-14850
▁erosion	-14851
▁inadequ	-14852
▁lowered	-14853
▁outlets	-14854
▁oversaw	-14855
▁plastic	-14856
▁regards	-14857
▁rumours	-14858
▁trailer	-14859
▁vulture	-14860
▁Duchovny	-14861
▁Universe	-14862
▁authored	-14863
▁aviation	-14864
▁exciting	-14865
▁peripher	-14866
▁renowned	-14867
▁republic	-14868
▁survives	-14869
▁Beginning	-14870
▁Blackburn	-14871
▁Friedrich	-14872
▁Orchestra	-14873
▁Primetime	-14874
▁Sebastian	-14875
▁Sometimes	-14876
▁Wrestling	-14877
▁activated	-14878
▁aggregate	-14879
▁dinosaurs	-14880
▁excessive	-14881
▁exercised	-14882
▁festivals	-14883
▁merchants	-14884
▁responses	-14885
▁wonderful	-14886
▁Associated	-14887
[...]
