<unk>	0
<s>	0
</s>	0
▁t	-0
▁a	-1
in	-2
he	-3
re	-4
on	-5
er	-6
▁the	-7
▁s	-8
▁w	-9
or	-10
at	-11
nd	-12
ou	-13
▁c	-14
it	-15
es	-16
▁f	-17
is	-18
en	-19
▁b	-20
ing	-21
▁p	-22
▁o	-23
ed	-24
an	-25
ar	-26
al	-27
▁to	-28
▁m	-29
▁and	-30
▁in	-31
▁of	-32
ic	-33
le	-34
▁d	-35
as	-36
▁h	-37
om	-38
ion	-39
▁th	-40
.\	-41
il	-42
20	-43
▁l	-44
ent	-45
st	-46
ve	-47
ro	-48
▁re	-49
▁n	-50
201	-51
▁y	-52
▁e	-53
▁S	-54
▁g	-55
▁I	-56
et	-57
ac	-58
▁T	-59
ay	-60
▁C	-61
id	-62
▁on	-63
ly	-64
▁for	-65
ot	-66
▁A	-67
▁you	-68
▁be	-69
▁is	-70
ow	-71
am	-72
ol	-73
ad	-74
ig	-75
el	-76
ct	-77
▁M	-78
us	-79
ver	-80
ut	-81
im	-82
ith	-83
▁st	-84
ation	-85
ur	-86
▁P	-87
▁that	-88
▁with	-89
ir	-90
▁B	-91
te	-92
ch	-93
▁he	-94
▁it	-95
ter	-96
ce	-97
ill	-98
un	-99
ers	-100
▁an	-101
out	-102
▁al	-103
▁W	-104
▁D	-105
ul	-106
ke	-107
▁F	-108
se	-109
ag	-110
▁H	-111
▁wh	-112
▁as	-113
▁we	-114
▁R	-115
oo	-116
▁1	-117
2019	-118
▁at	-119
▁are	-120
▁ha	-121
▁pro	-122
our	-123
if	-124
▁\	-125
ate	-126
pp	-127
her	-128
ri	-129
ore	-130
xt	-131
ew	-132
▁or	-133
igh	-134
▁com	-135
est	-136
▁con	-137
▁L	-138
▁se	-139
ra	-140
ment	-141
rom	-142
ld	-143
▁N	-144
ess	-145
ts	-146
ab	-147
▁(	-148
▁The	-149
th	-150
▁G	-151
op	-152
▁was	-153
▁r	-154
▁E	-155
res	-156
▁v	-157
ity	-158
nT	-159
▁de	-160
▁this	-161
ive	-162
▁have	-163
▁from	-164
qu	-165
um	-166
ist	-167
▁your	-168
ust	-169
oc	-170
▁sh	-171
▁O	-172
pe	-173
and	-174
▁by	-175
up	-176
text	-177
":	-178
em	-179
"}	-180
{"	-181
▁{"	-182
▁"	-183
ies	-184
all	-185
os	-186
art	-187
ain	-188
00	-189
▁will	-190
ear	-191
▁ch	-192
ard	-193
▁ex	-194
ort	-195
▁J	-196
nt	-197
▁not	-198
ud	-199
ost	-200
ight	-201
ome	-202
▁us	-203
ant	-204
▁su	-205
▁can	-206
▁le	-207
\"	-208
ack	-209
red	-210
▁pl	-211
ast	-212
▁ab	-213
ould	-214
gh	-215
ge	-216
▁j	-217
rou	-218
ell	-219
iv	-220
ide	-221
ak	-222
▁wor	-223
▁all	-224
ine	-225
▁has	-226
ice	-227
age	-228
od	-229
ial	-230
▁U	-231
og	-232
▁k	-233
ff	-234
ook	-235
▁ad	-236
▁but	-237
nThe	-238
▁sa	-239
▁do	-240
ure	-241
▁up	-242
▁out	-243
▁2	-244
ip	-245
▁ne	-246
..	-247
ry	-248
ail	-249
one	-250
ap	-251
are	-252
ions	-253
ally	-254
ite	-255
ake	-256
▁more	-257
▁whe	-258
ame	-259
▁comp	-260
ind	-261
▁me	-262
ther	-263
ber	-264
act	-265
nA	-266
nI	-267
cc	-268
▁-	-269
ect	-270
ood	-271
able	-272
ie	-273
orm	-274
ick	-275
ep	-276
▁\"	-277
▁so	-278
ong	-279
ated	-280
ich	-281
▁K	-282
▁St	-283
."}	-284
ase	-285
▁cl	-286
▁one	-287
ime	-288
▁their	-289
▁my	-290
▁about	-291
ike	-292
very	-293
▁off	-294
▁they	-295
▁his	-296
▁In	-297
iz	-298
▁our	-299
ans	-300
ub	-301
ll	-302
ace	-303
▁Th	-304
▁te	-305
▁en	-306
ous	-307
ree	-308
cl	-309
▁cont	-310
ia	-311
so	-312
▁new	-313
▁who	-314
ire	-315
ks	-316
▁V	-317
▁year	-318
ary	-319
▁go	-320
ue	-321
pl	-322
per	-323
▁Ch	-324
▁un	-325
day	-326
ign	-327
▁3	-328
du	-329
▁Y	-330
▁201	-331
ass	-332
▁said	-333
ach	-334
ance	-335
▁res	-336
erv	-337
ays	-338
▁im	-339
ib	-340
▁man	-341
▁per	-342
nS	-343
und	-344
form	-345
reat	-346
▁tr	-347
own	-348
ile	-349
ven	-350
pt	-351
▁app	-352
ord	-353
▁qu	-354
ations	-355
to	-356
▁get	-357
▁like	-358
▁sp	-359
▁other	-360
ove	-361
▁any	-362
ount	-363
ark	-364
▁20	-365
▁ag	-366
▁some	-367
com	-368
ress	-369
av	-370
nW	-371
▁over	-372
▁also	-373
ction	-374
ings	-375
▁which	-376
▁been	-377
ond	-378
▁time	-379
ors	-380
▁kn	-381
▁sc	-382
▁dis	-383
ound	-384
irst	-385
ents	-386
vel	-387
▁ar	-388
mer	-389
ck	-390
▁work	-391
ical	-392
▁just	-393
ition	-394
▁when	-395
ob	-396
ult	-397
ose	-398
ough	-399
wn	-400
ere	-401
▁would	-402
low	-403
▁them	-404
ink	-405
ild	-406
ens	-407
▁than	-408
vers	-409
▁had	-410
ru	-411
▁tw	-412
▁her	-413
▁were	-414
ence	-415
▁pre	-416
▁pe	-417
▁fe	-418
ish	-419
ory	-420
▁rec	-421
fter	-422
▁what	-423
▁acc	-424
▁It	-425
▁part	-426
▁ro	-427
▁spe	-428
ov	-429
▁if	-430
oy	-431
oin	-432
end	-433
▁there	-434
▁its	-435
clud	-436
▁pr	-437
ade	-438
▁first	-439
lic	-440
ning	-441
itt	-442
ool	-443
nC	-444
▁We	-445
use	-446
amp	-447
ang	-448
▁add	-449
ne	-450
ater	-451
old	-452
▁4	-453
▁into	-454
ons	-455
hed	-456
rough	-457
▁am	-458
anc	-459
▁bl	-460
iew	-461
▁need	-462
▁Re	-463
▁5	-464
port	-465
ople	-466
▁includ	-467
nP	-468
ft	-469
▁play	-470
▁two	-471
▁He	-472
▁des	-473
lp	-474
gr	-475
▁200	-476
nM	-477
!\	-478
ian	-479
▁col	-480
▁look	-481
ates	-482
▁no	-483
▁how	-484
▁comm	-485
tern	-486
les	-487
▁only	-488
▁$	-489
▁make	-490
ments	-491
nF	-492
▁19	-493
▁know	-494
▁help	-495
iss	-496
▁she	-497
▁may	-498
ict	-499
▁bec	-500
:\	-501
▁people	-502
▁back	-503
als	-504
nB	-505
▁after	-506
▁prov	-507
ious	-508
ph	-509
round	-510
we	-511
ful	-512
▁most	-513
▁em	-514
▁see	-515
▁ph	-516
▁through	-517
ont	-518
ock	-519
ng	-520
hing	-521
▁every	-522
formation	-523
▁produ	-524
?\	-525
ause	-526
▁serv	-527
2013	-528
aw	-529
▁wee	-530
lect	-531
▁use	-532
)\	-533
row	-534
▁bet	-535
urn	-536
nH	-537
ting	-538
▁bu	-539
ities	-540
ise	-541
▁Un	-542
fere	-543
ating	-544
ual	-545
▁act	-546
▁now	-547
▁Com	-548
ject	-549
bs	-550
ices	-551
ational	-552
▁well	-553
▁years	-554
▁This	-555
ily	-556
▁New	-557
▁fl	-558
ics	-559
▁&	-560
▁co	-561
ife	-562
▁want	-563
▁und	-564
ss	-565
▁gu	-566
▁ind	-567
ec	-568
lease	-569
,\	-570
nO	-571
vent	-572
▁stud	-573
▁6	-574
oun	-575
pport	-576
▁good	-577
ason	-578
cial	-579
▁fin	-580
▁these	-581
▁here	-582
.\"	-583
▁ke	-584
▁don	-585
ange	-586
arch	-587
▁show	-588
The	-589
ork	-590
▁could	-591
ward	-592
enc	-593
▁sec	-594
chool	-595
▁information	-596
ull	-597
hen	-598
▁reg	-599
pect	-600
fore	-601
▁ent	-602
ident	-603
nD	-604
uch	-605
rit	-606
oth	-607
rib	-608
aking	-609
▁great	-610
▁very	-611
man	-612
ty	-613
ures	-614
▁sm	-615
▁under	-616
get	-617
▁own	-618
iness	-619
ased	-620
▁cons	-621
▁way	-622
▁many	-623
||	-624
oss	-625
ited	-626
▁last	-627
▁down	-628
yst	-629
hip	-630
erson	-631
pr	-632
nTh	-633
hes	-634
▁even	-635
ert	-636
▁day	-637
gram	-638
▁Pro	-639
ren	-640
▁too	-641
▁find	-642
▁read	-643
▁tra	-644
▁did	-645
io	-646
▁You	-647
▁loc	-648
ath	-649
▁7	-650
▁10	-651
▁rem	-652
ific	-653
▁mon	-654
...	-655
▁then	-656
uring	-657
any	-658
▁av	-659
its	-660
ied	-661
ner	-662
olog	-663
ues	-664
,\"	-665
ble	-666
alth	-667
▁car	-668
▁where	-669
▁inv	-670
ets	-671
▁Wh	-672
ible	-673
▁high	-674
▁think	-675
▁min	-676
▁rel	-677
▁8	-678
▁should	-679
other	-680
▁start	-681
▁bus	-682
velop	-683
nR	-684
▁imp	-685
▁made	-686
ex	-687
▁again	-688
▁call	-689
▁team	-690
▁And	-691
▁ass	-692
ix	-693
ys	-694
land	-695
ular	-696
▁fam	-697
air	-698
ank	-699
▁home	-700
▁inc	-701
▁Sh	-702
ility	-703
ublic	-704
▁dif	-705
▁much	-706
▁mem	-707
ivers	-708
elf	-709
line	-710
atch	-711
▁De	-712
▁because	-713
ton	-714
▁che	-715
▁him	-716
ug	-717
rest	-718
ative	-719
ollow	-720
▁long	-721
▁Cl	-722
▁pol	-723
▁br	-724
▁ac	-725
ax	-726
nN	-727
▁post	-728
2014	-729
▁exper	-730
ms	-731
ience	-732
▁9	-733
gan	-734
nL	-735
ystem	-736
▁take	-737
▁set	-738
omet	-739
202	-740
▁inst	-741
pen	-742
ince	-743
▁dec	-744
ters	-745
),	-746
ah	-747
▁Al	-748
▁before	-749
▁best	-750
▁pres	-751
view	-752
▁art	-753
▁does	-754
▁end	-755
irect	-756
cess	-757
▁ear	-758
▁right	-759
az	-760
▁ra	-761
ave	-762
way	-763
ower	-764
alk	-765
▁Ar	-766
▁If	-767
read	-768
▁inte	-769
▁rep	-770
riend	-771
▁sur	-772
unity	-773
orts	-774
ash	-775
iel	-776
▁those	-777
ages	-778
▁program	-779
|\	-780
ames	-781
ener	-782
▁design	-783
▁run	-784
ins	-785
▁world	-786
▁vis	-787
uc	-788
▁product	-789
▁ins	-790
▁0	-791
ailable	-792
▁ed	-793
ouse	-794
ier	-795
▁2012	-796
meric	-797
▁ser	-798
▁three	-799
▁while	-800
ars	-801
▁game	-802
ient	-803
▁cre	-804
▁requ	-805
der	-806
ale	-807
roup	-808
ather	-809
▁Le	-810
▁ret	-811
▁lead	-812
▁eff	-813
▁being	-814
▁disc	-815
akes	-816
ives	-817
▁char	-818
oot	-819
▁such	-820
ric	-821
▁An	-822
▁week	-823
oint	-824
▁def	-825
nIn	-826
▁free	-827
chn	-828
▁med	-829
ually	-830
▁hand	-831
-1	-832
ces	-833
▁really	-834
ving	-835
▁cur	-836
▁going	-837
ced	-838
imes	-839
▁develop	-840
▁business	-841
▁Ad	-842
ox	-843
ple	-844
▁still	-845
▁Fr	-846
▁around	-847
oh	-848
▁follow	-849
▁person	-850
000	-851
ines	-852
ittle	-853
▁top	-854
▁att	-855
▁each	-856
▁provid	-857
▁used	-858
▁gr	-859
▁child	-860
▁count	-861
▁available	-862
▁For	-863
.\"\	-864
▁month	-865
▁say	-866
▁i	-867
▁sim	-868
▁num	-869
au	-870
▁cour	-871
▁mod	-872
oad	-873
ute	-874
▁2013	-875
▁book	-876
ional	-877
▁All	-878
▁det	-879
▁found	-880
▁state	-881
▁Bl	-882
▁Americ	-883
▁But	-884
ee	-885
▁differe	-886
▁life	-887
▁inter	-888
ights	-889
led	-890
▁list	-891
▁comple	-892
orn	-893
▁sign	-894
▁win	-895
▁|	-896
▁care	-897
ize	-898
▁eas	-899
nE	-900
ants	-901
rent	-902
▁somet	-903
▁mark	-904
▁system	-905
els	-906
▁though	-907
▁sub	-908
bers	-909
▁sk	-910
▁fr	-911
ustom	-912
▁Col	-913
▁fun	-914
mber	-915
▁few	-916
atur	-917
▁fil	-918
arm	-919
▁school	-920
ists	-921
▁love	-922
iversity	-923
▁place	-924
▁aut	-925
▁support	-926
▁rece	-927
▁including	-928
illion	-929
ved	-930
).	-931
cent	-932
▁little	-933
ene	-934
▁both	-935
▁open	-936
iet	-937
▁str	-938
▁trans	-939
ield	-940
▁Sc	-941
▁lar	-942
▁keep	-943
▁feat	-944
▁same	-945
▁Be	-946
ott	-947
▁happ	-948
▁As	-949
ality	-950
ished	-951
▁site	-952
▁pur	-953
▁second	-954
ired	-955
nce	-956
ww	-957
rand	-958
▁ev	-959
▁gl	-960
▁12	-961
▁next	-962
att	-963
▁friend	-964
nG	-965
ness	-966
min	-967
▁lot	-968
ger	-969
cer	-970
ween	-971
ways	-972
▁season	-973
ized	-974
▁ann	-975
▁prof	-976
ever	-977
oard	-978
uss	-979
reen	-980
ital	-981
nThis	-982
,000	-983
ology	-984
ik	-985
ok	-986
▁adv	-987
▁since	-988
▁family	-989
▁ext	-990
son	-991
eb	-992
▁del	-993
▁cr	-994
arn	-995
▁big	-996
enter	-997
▁Pl	-998
▁pass	-999
ered	-1000
tt	-1001
▁health	-1002
thing	-1003
▁exp	-1004
▁try	-1005
▁Te	-1006
▁head	-1007
▁put	-1008
▁during	-1009
▁dri	-1010
▁using	-1011
▁four	-1012
▁quest	-1013
ipp	-1014
▁between	-1015
▁interest	-1016
istr	-1017
▁contin	-1018
▁direct	-1019
▁'	-1020
▁They	-1021
▁Ex	-1022
▁May	-1023
outh	-1024
ross	-1025
gg	-1026
vern	-1027
▁cle	-1028
ution	-1029
▁come	-1030
▁form	-1031
▁tri	-1032
▁plan	-1033
uck	-1034
ves	-1035
▁Ph	-1036
▁got	-1037
▁Sp	-1038
cept	-1039
▁int	-1040
▁project	-1041
▁public	-1042
ley	-1043
▁iss	-1044
▁different	-1045
▁mov	-1046
ware	-1047
▁bro	-1048
▁better	-1049
▁phot	-1050
▁real	-1051
▁old	-1052
ering	-1053
▁met	-1054
ata	-1055
▁small	-1056
10	-1057
▁group	-1058
ER	-1059
iving	-1060
▁another	-1061
con	-1062
nY	-1063
▁class	-1064
be	-1065
▁allow	-1066
▁custom	-1067
▁rest	-1068
▁something	-1069
▁report	-1070
int	-1071
ision	-1072
▁today	-1073
▁things	-1074
▁feel	-1075
50	-1076
▁full	-1077
lection	-1078
less	-1079
aj	-1080
▁techn	-1081
30	-1082
▁Comm	-1083
ird	-1084
2026	-1085
▁service	-1086
▁Con	-1087
▁sure	-1088
...\	-1089
▁hard	-1090
ense	-1091
rist	-1092
▁gener	-1093
ats	-1094
▁bel	-1095
ody	-1096
▁Q	-1097
self	-1098
oney	-1099
▁18	-1100
ope	-1101
▁news	-1102
▁company	-1103
▁11	-1104
▁pri	-1105
▁Res	-1106
enn	-1107
aint	-1108
▁days	-1109
ems	-1110
▁organ	-1111
▁appro	-1112
▁ref	-1113
▁stand	-1114
▁sl	-1115
iqu	-1116
▁perform	-1117
▁--	-1118
▁special	-1119
usic	-1120
▁visit	-1121
ior	-1122
ling	-1123
raph	-1124
orth	-1125
iday	-1126
▁email	-1127
br	-1128
▁partic	-1129
▁water	-1130
▁must	-1131
▁resp	-1132
ission	-1133
▁University	-1134
▁against	-1135
▁ve	-1136
▁She	-1137
▁current	-1138
▁access	-1139
▁Or	-1140
▁Mar	-1141
let	-1142
ote	-1143
ories	-1144
▁Z	-1145
▁says	-1146
▁conf	-1147
▁inf	-1148
ours	-1149
hat	-1150
▁number	-1151
▁let	-1152
▁webs	-1153
urs	-1154
▁cap	-1155
ared	-1156
▁always	-1157
▁poss	-1158
▁build	-1159
▁vide	-1160
nJ	-1161
tend	-1162
▁proble	-1163
▁sol	-1164
▁view	-1165
▁page	-1166
ann	-1167
ohn	-1168
▁fac	-1169
▁process	-1170
▁ask	-1171
ately	-1172
ards	-1173
▁Is	-1174
▁ter	-1175
ining	-1176
▁ty	-1177
ccess	-1178
▁without	-1179
ample	-1180
▁Mon	-1181
▁online	-1182
▁pat	-1183
▁So	-1184
▁US	-1185
▁import	-1186
ina	-1187
▁cor	-1188
nWe	-1189
▁Ind	-1190
▁2011	-1191
▁give	-1192
nIf	-1193
gy	-1194
til	-1195
▁meet	-1196
▁var	-1197
omen	-1198
ically	-1199
ral	-1200
▁wr	-1201
app	-1202
▁bre	-1203
▁Fl	-1204
ract	-1205
▁ide	-1206
work	-1207
▁opt	-1208
▁offic	-1209
gin	-1210
▁never	-1211
me	-1212
▁recent	-1213
ball	-1214
ids	-1215
▁Tr	-1216
▁Car	-1217
ium	-1218
ording	-1219
▁looking	-1220
aff	-1221
▁area	-1222
here	-1223
aut	-1224
▁test	-1225
▁students	-1226
▁night	-1227
oor	-1228
iver	-1229
co	-1230
▁Se	-1231
▁event	-1232
▁spec	-1233
▁stre	-1234
▁local	-1235
ploy	-1236
▁pay	-1237
▁level	-1238
ured	-1239
12	-1240
▁children	-1241
▁until	-1242
▁provide	-1243
▁ob	-1244
ged	-1245
ron	-1246
▁cost	-1247
avor	-1248
ps	-1249
▁15	-1250
icle	-1251
▁val	-1252
inal	-1253
▁supp	-1254
▁order	-1255
▁On	-1256
by	-1257
▁market	-1258
▁past	-1259
joy	-1260
▁sal	-1261
▁par	-1262
ead	-1263
utes	-1264
▁community	-1265
▁exc	-1266
▁expl	-1267
rol	-1268
▁experience	-1269
▁No	-1270
▁prom	-1271
▁power	-1272
ator	-1273
▁might	-1274
ery	-1275
uff	-1276
▁pos	-1277
We	-1278
ertain	-1279
▁job	-1280
▁el	-1281
▁law	-1282
ury	-1283
▁million	-1284
.,	-1285
ubl	-1286
▁percent	-1287
▁30	-1288
▁Man	-1289
oci	-1290
▁name	-1291
▁There	-1292
▁rese	-1293
ney	-1294
ains	-1295
sh	-1296
fect	-1297
▁pop	-1298
).\	-1299
▁John	-1300
▁Count	-1301
▁check	-1302
IN	-1303
nect	-1304
ges	-1305
▁Rep	-1306
▁bas	-1307
ency	-1308
une	-1309
▁How	-1310
▁addition	-1311
alf	-1312
▁left	-1313
▁please	-1314
▁invest	-1315
opp	-1316
▁products	-1317
▁grow	-1318
▁website	-1319
▁turn	-1320
▁incre	-1321
▁near	-1322
ama	-1323
ature	-1324
▁oper	-1325
med	-1326
irl	-1327
ites	-1328
org	-1329
ane	-1330
▁soc	-1331
ified	-1332
ON	-1333
yr	-1334
ored	-1335
ills	-1336
▁members	-1337
ode	-1338
pend	-1339
stand	-1340
▁fact	-1341
vernment	-1342
▁expect	-1343
iron	-1344
▁less	-1345
load	-1346
▁able	-1347
nIt	-1348
▁camp	-1349
▁include	-1350
▁belie	-1351
▁offer	-1352
▁dr	-1353
ised	-1354
artment	-1355
▁working	-1356
ults	-1357
ready	-1358
▁Co	-1359
▁blog	-1360
hor	-1361
augh	-1362
▁sing	-1363
▁Intern	-1364
ister	-1365
RE	-1366
uper	-1367
▁making	-1368
ases	-1369
ruct	-1370
▁mar	-1371
▁line	-1372
▁services	-1373
ted	-1374
iting	-1375
the	-1376
▁important	-1377
▁Br	-1378
▁away	-1379
▁room	-1380
ined	-1381
af	-1382
aster	-1383
▁To	-1384
▁Med	-1385
▁food	-1386
▁record	-1387
▁City	-1388
▁profess	-1389
--	-1390
iam	-1391
ajor	-1392
▁thing	-1393
▁chang	-1394
▁contact	-1395
ably	-1396
▁money	-1397
sc	-1398
▁hot	-1399
ived	-1400
▁music	-1401
▁data	-1402
▁[	-1403
por	-1404
▁App	-1405
▁hist	-1406
▁story	-1407
nU	-1408
▁Christ	-1409
osed	-1410
lege	-1411
ym	-1412
▁times	-1413
▁games	-1414
ries	-1415
▁dist	-1416
▁detail	-1417
book	-1418
▁leg	-1419
▁That	-1420
▁enjoy	-1421
▁effect	-1422
▁within	-1423
cI	-1424
yle	-1425
2018	-1426
▁State	-1427
AT	-1428
▁Ste	-1429
▁sw	-1430
▁course	-1431
▁dep	-1432
▁impro	-1433
ials	-1434
1.	-1435
aring	-1436
gether	-1437
▁together	-1438
ush	-1439
▁educ	-1440
nes	-1441
▁change	-1442
▁beh	-1443
▁large	-1444
▁five	-1445
▁Wor	-1446
▁intern	-1447
▁ago	-1448
▁won	-1449
▁complete	-1450
▁following	-1451
▁aff	-1452
▁point	-1453
oints	-1454
osp	-1455
▁already	-1456
▁along	-1457
▁below	-1458
nFor	-1459
▁air	-1460
▁sever	-1461
▁video	-1462
iety	-1463
ober	-1464
▁2010	-1465
▁cent	-1466
▁return	-1467
ows	-1468
▁14	-1469
conom	-1470
vious	-1471
▁American	-1472
▁easy	-1473
ism	-1474
ising	-1475
▁applic	-1476
▁eng	-1477
pecial	-1478
▁present	-1479
agement	-1480
▁live	-1481
▁vers	-1482
ients	-1483
▁several	-1484
▁why	-1485
▁light	-1486
ille	-1487
▁country	-1488
▁proper	-1489
ider	-1490
▁didn	-1491
▁review	-1492
-2	-1493
▁cut	-1494
ern	-1495
▁ever	-1496
▁At	-1497
mon	-1498
▁search	-1499
side	-1500
of	-1501
▁success	-1502
ones	-1503
▁buy	-1504
oon	-1505
ST	-1506
ivid	-1507
▁Cal	-1508
▁side	-1509
Th	-1510
▁getting	-1511
▁16	-1512
itions	-1513
▁Center	-1514
ify	-1515
▁est	-1516
▁tell	-1517
ference	-1518
▁mil	-1519
▁Bro	-1520
▁/	-1521
▁city	-1522
▁activ	-1523
atter	-1524
aper	-1525
oll	-1526
▁Ass	-1527
▁makes	-1528
▁County	-1529
▁Can	-1530
▁minutes	-1531
▁deal	-1532
ique	-1533
▁creat	-1534
▁Eng	-1535
ourn	-1536
ream	-1537
▁fund	-1538
arr	-1539
▁equ	-1540
▁short	-1541
!!	-1542
ny	-1543
ched	-1544
ele	-1545
▁199	-1546
ource	-1547
▁Serv	-1548
viron	-1549
▁.	-1550
▁dra	-1551
▁perfect	-1552
for	-1553
ret	-1554
▁friends	-1555
▁trad	-1556
▁soft	-1557
▁called	-1558
▁indust	-1559
▁favor	-1560
aturday	-1561
▁School	-1562
▁prote	-1563
idd	-1564
ograph	-1565
▁hum	-1566
▁learn	-1567
▁told	-1568
▁word	-1569
▁writ	-1570
▁talk	-1571
▁case	-1572
▁pract	-1573
▁hours	-1574
▁announ	-1575
▁Pr	-1576
▁opport	-1577
▁13	-1578
▁kind	-1579
▁Gu	-1580
▁Jan	-1581
rop	-1582
▁With	-1583
nYou	-1584
▁sn	-1585
duct	-1586
▁cou	-1587
▁went	-1588
▁cond	-1589
▁const	-1590
▁address	-1591
ump	-1592
▁Tw	-1593
▁Che	-1594
year	-1595
▁having	-1596
ocus	-1597
▁Off	-1598
▁bit	-1599
uly	-1600
ides	-1601
ization	-1602
▁personal	-1603
AR	-1604
▁early	-1605
ential	-1606
19	-1607
eral	-1608
verage	-1609
▁quality	-1610
ention	-1611
▁purch	-1612
▁enough	-1613
▁tax	-1614
▁En	-1615
AN	-1616
ots	-1617
▁York	-1618
▁young	-1619
▁orig	-1620
ips	-1621
▁men	-1622
▁pack	-1623
▁took	-1624
ches	-1625
anks	-1626
▁My	-1627
▁tre	-1628
▁X	-1629
uro	-1630
▁far	-1631
▁government	-1632
ances	-1633
▁came	-1634
▁become	-1635
ability	-1636
▁points	-1637
my	-1638
▁Mc	-1639
▁months	-1640
▁net	-1641
▁non	-1642
▁hold	-1643
▁least	-1644
▁compet	-1645
allen	-1646
▁done	-1647
▁needs	-1648
//	-1649
▁dev	-1650
▁doesn	-1651
▁major	-1652
▁appear	-1653
ift	-1654
ey	-1655
comm	-1656
▁yet	-1657
▁mater	-1658
▁women	-1659
▁low	-1660
▁wa	-1661
▁upd	-1662
▁17	-1663
▁works	-1664
▁series	-1665
unch	-1666
ibr	-1667
▁saf	-1668
ae	-1669
pro	-1670
▁share	-1671
▁research	-1672
▁house	-1673
2022	-1674
▁rele	-1675
▁la	-1676
▁24	-1677
vironment	-1678
oes	-1679
▁others	-1680
▁quick	-1681
oice	-1682
ript	-1683
uture	-1684
ensive	-1685
▁started	-1686
rew	-1687
▁move	-1688
▁North	-1689
iven	-1690
enef	-1691
yn	-1692
▁What	-1693
▁employ	-1694
ten	-1695
▁Ed	-1696
over	-1697
ither	-1698
▁Cont	-1699
▁red	-1700
▁Gr	-1701
▁possible	-1702
itive	-1703
▁comb	-1704
itor	-1705
yl	-1706
://	-1707
▁elect	-1708
▁discuss	-1709
▁half	-1710
▁PM	-1711
▁pick	-1712
▁Friday	-1713
2.	-1714
▁pie	-1715
▁offers	-1716
▁sum	-1717
aged	-1718
most	-1719
▁United	-1720
aim	-1721
▁Comp	-1722
play	-1723
isc	-1724
▁link	-1725
▁doing	-1726
▁store	-1727
fort	-1728
▁create	-1729
▁es	-1730
▁added	-1731
▁beaut	-1732
room	-1733
▁connect	-1734
St	-1735
sw	-1736
acy	-1737
▁25	-1738
▁South	-1739
▁treat	-1740
▁100	-1741
▁based	-1742
aps	-1743
▁pot	-1744
▁World	-1745
▁account	-1746
tem	-1747
illed	-1748
▁hope	-1749
ging	-1750
lement	-1751
▁field	-1752
ai	-1753
wards	-1754
▁join	-1755
gest	-1756
▁thought	-1757
▁Dep	-1758
▁across	-1759
▁focus	-1760
▁development	-1761
ttp	-1762
ners	-1763
▁lim	-1764
▁Ne	-1765
OR	-1766
back	-1767
ination	-1768
ape	-1769
▁once	-1770
▁click	-1771
▁Pres	-1772
▁National	-1773
▁host	-1774
nV	-1775
oose	-1776
▁econom	-1777
!"}	-1778
▁fore	-1779
▁often	-1780
1,	-1781
atest	-1782
▁mom	-1783
▁invol	-1784
▁Saturday	-1785
▁mess	-1786
▁bring	-1787
hers	-1788
err	-1789
▁hom	-1790
▁third	-1791
ained	-1792
▁Sm	-1793
▁land	-1794
▁mean	-1795
▁problem	-1796
▁staff	-1797
umb	-1798
▁When	-1799
-0	-1800
.5	-1801
ster	-1802
▁later	-1803
▁mult	-1804
▁control	-1805
rap	-1806
200	-1807
▁features	-1808
aken	-1809
aur	-1810
ns	-1811
ursday	-1812
▁:	-1813
ources	-1814
icy	-1815
pril	-1816
ators	-1817
ians	-1818
▁hit	-1819
ateg	-1820
▁tool	-1821
ided	-1822
▁log	-1823
▁close	-1824
▁comes	-1825
▁happen	-1826
isk	-1827
ilt	-1828
urch	-1829
▁occ	-1830
▁Feb	-1831
▁actually	-1832
▁Am	-1833
▁News	-1834
▁cook	-1835
uesday	-1836
not	-1837
▁mor	-1838
aren	-1839
inc	-1840
aces	-1841
▁member	-1842
▁2009	-1843
▁future	-1844
time	-1845
▁web	-1846
elebr	-1847
▁individ	-1848
▁cred	-1849
▁benef	-1850
▁Monday	-1851
▁pict	-1852
▁Our	-1853
▁Min	-1854
▁questions	-1855
resh	-1856
▁Bar	-1857
▁content	-1858
▁star	-1859
ember	-1860
irt	-1861
▁study	-1862
▁Oct	-1863
▁Park	-1864
▁price	-1865
▁understand	-1866
▁foot	-1867
▁publ	-1868
▁Dr	-1869
▁Sep	-1870
11	-1871
▁Pol	-1872
▁miss	-1873
▁break	-1874
25	-1875
atic	-1876
▁Des	-1877
▁Inst	-1878
gle	-1879
ounds	-1880
ednes	-1881
AS	-1882
ednesday	-1883
▁pret	-1884
▁cop	-1885
▁stay	-1886
EN	-1887
▁wond	-1888
▁Ge	-1889
unic	-1890
resent	-1891
ned	-1892
off	-1893
ague	-1894
▁begin	-1895
ienc	-1896
▁press	-1897
▁track	-1898
ocu	-1899
▁tem	-1900
▁Your	-1901
▁strong	-1902
reet	-1903
▁key	-1904
▁body	-1905
▁Not	-1906
ef	-1907
urity	-1908
:00	-1909
eds	-1910
▁front	-1911
▁watch	-1912
nAs	-1913
inks	-1914
fact	-1915
itted	-1916
▁priv	-1917
▁walk	-1918
▁comput	-1919
▁vol	-1920
go	-1921
▁tot	-1922
earch	-1923
▁social	-1924
ison	-1925
▁install	-1926
▁z	-1927
cle	-1928
▁card	-1929
oe	-1930
▁charac	-1931
crib	-1932
ests	-1933
▁film	-1934
commend	-1935
par	-1936
uary	-1937
ilities	-1938
unday	-1939
ES	-1940
▁industry	-1941
▁question	-1942
roll	-1943
▁color	-1944
▁players	-1945
▁mag	-1946
▁Me	-1947
▁six	-1948
▁wind	-1949
ler	-1950
▁One	-1951
ancial	-1952
60	-1953
▁Day	-1954
▁hig	-1955
▁space	-1956
▁specific	-1957
iful	-1958
▁prob	-1959
▁everything	-1960
▁2008	-1961
▁anal	-1962
▁select	-1963
▁sent	-1964
▁pretty	-1965
▁ey	-1966
ilar	-1967
▁known	-1968
▁sell	-1969
ask	-1970
▁compan	-1971
▁iP	-1972
ager	-1973
▁fire	-1974
ED	-1975
▁enc	-1976
fer	-1977
ued	-1978
▁Ob	-1979
come	-1980
▁Will	-1981
▁mind	-1982
▁items	-1983
▁according	-1984
▁seen	-1985
▁50	-1986
aining	-1987
-3	-1988
nK	-1989
sel	-1990
▁latest	-1991
▁particip	-1992
▁author	-1993
▁events	-1994
▁results	-1995
15	-1996
utions	-1997
vert	-1998
▁High	-1999
▁favorite	-2000
▁anything	-2001
▁sit	-2002
▁comment	-2003
itch	-2004
▁taking	-2005
▁girl	-2006
▁result	-2007
aus	-2008
oman	-2009
obile	-2010
▁March	-2011
▁final	-2012
▁step	-2013
▁#	-2014
che	-2015
▁Gl	-2016
▁Per	-2017
fully	-2018
▁typ	-2019
▁office	-2020
IT	-2021
▁Em	-2022
▁someone	-2023
▁text	-2024
▁issues	-2025
ops	-2026
▁history	-2027
nWhat	-2028
▁clear	-2029
▁face	-2030
▁range	-2031
unities	-2032
▁board	-2033
▁deb	-2034
▁among	-2035
▁West	-2036
irm	-2037
tee	-2038
3.	-2039
▁send	-2040
▁single	-2041
▁heart	-2042
▁kids	-2043
ville	-2044
▁believe	-2045
▁June	-2046
nSt	-2047
kend	-2048
rain	-2049
atural	-2050
iod	-2051
▁Sec	-2052
▁means	-2053
AL	-2054
nWh	-2055
▁weeks	-2056
▁rights	-2057
ole	-2058
▁provides	-2059
▁Euro	-2060
▁above	-2061
▁ident	-2062
▁technology	-2063
wh	-2064
ief	-2065
ctor	-2066
▁environment	-2067
▁performance	-2068
▁Qu	-2069
▁age	-2070
arter	-2071
▁redu	-2072
nTo	-2073
ring	-2074
▁http	-2075
cript	-2076
▁held	-2077
ony	-2078
▁box	-2079
▁whole	-2080
▁travel	-2081
▁continue	-2082
▁everyone	-2083
itter	-2084
▁certain	-2085
▁dou	-2086
erved	-2087
▁trying	-2088
▁port	-2089
▁House	-2090
▁Mich	-2091
▁respons	-2092
▁challen	-2093
▁main	-2094
▁Thursday	-2095
▁includes	-2096
▁Stud	-2097
▁tit	-2098
▁soon	-2099
▁currently	-2100
▁Mr	-2101
lish	-2102
name	-2103
▁Dav	-2104
ural	-2105
▁black	-2106
▁America	-2107
na	-2108
urther	-2109
▁media	-2110
▁spend	-2111
▁Tuesday	-2112
▁improve	-2113
▁programs	-2114
eng	-2115
coming	-2116
▁April	-2117
lex	-2118
▁More	-2119
▁Cor	-2120
▁polit	-2121
▁recommend	-2122
4.	-2123
▁Just	-2124
aid	-2125
▁States	-2126
ams	-2127
aul	-2128
▁bar	-2129
▁lab	-2130
▁version	-2131
iff	-2132
▁tou	-2133
tered	-2134
▁Im	-2135
▁almost	-2136
▁bad	-2137
▁fall	-2138
itten	-2139
▁entire	-2140
▁require	-2141
bor	-2142
ands	-2143
▁Mark	-2144
▁companies	-2145
nAnd	-2146
▁celebr	-2147
▁reason	-2148
▁et	-2149
▁repl	-2150
yright	-2151
▁fre	-2152
amer	-2153
▁sex	-2154
ables	-2155
▁Sunday	-2156
▁given	-2157
▁details	-2158
▁coming	-2159
▁Aug	-2160
▁phone	-2161
▁Health	-2162
▁Aust	-2163
▁article	-2164
▁Now	-2165
nHe	-2166
ze	-2167
ounc	-2168
imate	-2169
▁concer	-2170
▁dem	-2171
▁stri	-2172
ibility	-2173
▁receive	-2174
pos	-2175
bb	-2176
ires	-2177
idence	-2178
▁users	-2179
▁TV	-2180
head	-2181
▁hon	-2182
▁wanted	-2183
▁Val	-2184
acebook	-2185
▁running	-2186
▁Wednesday	-2187
▁These	-2188
▁brand	-2189
▁building	-2190
▁recently	-2191
ogn	-2192
▁either	-2193
▁>	-2194
▁x	-2195
aby	-2196
ester	-2197
icro	-2198
▁crit	-2199
-4	-2200
__	-2201
▁docu	-2202
▁sugg	-2203
▁taken	-2204
pecially	-2205
▁assist	-2206
This	-2207
▁Inc	-2208
nBut	-2209
though	-2210
▁Associ	-2211
▁Please	-2212
ana	-2213
asing	-2214
▁President	-2215
aging	-2216
▁clean	-2217
▁provided	-2218
▁AM	-2219
aily	-2220
ried	-2221
2,	-2222
▁San	-2223
ashing	-2224
osted	-2225
▁simple	-2226
eth	-2227
ris	-2228
icult	-2229
ival	-2230
▁mot	-2231
raft	-2232
itting	-2233
▁dog	-2234
▁issue	-2235
▁morning	-2236
It	-2237
ply	-2238
▁Pre	-2239
▁cool	-2240
▁whether	-2241
▁probably	-2242
▁former	-2243
▁popular	-2244
ek	-2245
▁cal	-2246
▁seem	-2247
ung	-2248
icles	-2249
▁song	-2250
oom	-2251
▁Cent	-2252
▁police	-2253
irth	-2254
80	-2255
▁inj	-2256
val	-2257
▁base	-2258
▁Su	-2259
rodu	-2260
▁Har	-2261
▁goal	-2262
▁Ang	-2263
▁beautiful	-2264
▁Pe	-2265
▁ant	-2266
▁wide	-2267
aching	-2268
ulation	-2269
ipping	-2270
arents	-2271
▁Department	-2272
mit	-2273
cThe	-2274
▁size	-2275
▁super	-2276
itional	-2277
▁forward	-2278
IC	-2279
elt	-2280
▁behind	-2281
▁collect	-2282
rug	-2283
▁late	-2284
nThere	-2285
▁weekend	-2286
ministr	-2287
▁comments	-2288
▁El	-2289
ino	-2290
ovember	-2291
▁ste	-2292
▁particular	-2293
▁isn	-2294
▁meas	-2295
▁aud	-2296
▁Reg	-2297
▁phys	-2298
eter	-2299
ederal	-2300
aced	-2301
obal	-2302
▁cup	-2303
ruary	-2304
▁answ	-2305
▁town	-2306
▁education	-2307
gress	-2308
▁period	-2309
amed	-2310
▁asked	-2311
▁$1	-2312
▁Go	-2313
▁road	-2314
▁After	-2315
tember	-2316
▁ener	-2317
.0	-2318
oved	-2319
▁couple	-2320
▁nice	-2321
▁vict	-2322
▁Street	-2323
nOn	-2324
▁di	-2325
ishing	-2326
▁represent	-2327
▁collection	-2328
ux	-2329
▁maint	-2330
▁attend	-2331
lev	-2332
reg	-2333
▁Don	-2334
oke	-2335
▁Sen	-2336
▁received	-2337
iber	-2338
7,	-2339
▁type	-2340
▁president	-2341
▁anyone	-2342
▁previous	-2343
▁software	-2344
ouncil	-2345
▁areas	-2346
▁shows	-2347
▁original	-2348
:30	-2349
▁professional	-2350
▁unique	-2351
arl	-2352
hern	-2353
▁Facebook	-2354
▁training	-2355
adem	-2356
▁via	-2357
▁Calif	-2358
▁claim	-2359
40	-2360
ental	-2361
▁else	-2362
IS	-2363
ada	-2364
adu	-2365
ume	-2366
ruction	-2367
▁likely	-2368
▁release	-2369
In	-2370
▁veh	-2371
▁cult	-2372
▁Europe	-2373
OU	-2374
▁40	-2375
cember	-2376
▁style	-2377
▁designed	-2378
▁oil	-2379
arning	-2380
cast	-2381
▁Red	-2382
▁swe	-2383
wood	-2384
▁due	-2385
▁human	-2386
▁famil	-2387
▁anim	-2388
▁reading	-2389
▁regular	-2390
▁fit	-2391
ufact	-2392
▁Us	-2393
▁ap	-2394
▁stra	-2395
▁contrib	-2396
attle	-2397
▁Art	-2398
▁hol	-2399
▁financial	-2400
iol	-2401
▁God	-2402
ety	-2403
▁match	-2404
▁playing	-2405
▁party	-2406
▁College	-2407
key	-2408
nder	-2409
▁idea	-2410
example	-2411
▁example	-2412
▁meeting	-2413
▁network	-2414
oogle	-2415
▁ball	-2416
▁relations	-2417
ese	-2418
iate	-2419
▁Add	-2420
▁ens	-2421
▁January	-2422
▁problems	-2423
▁looks	-2424
▁management	-2425
▁customers	-2426
angu	-2427
arent	-2428
▁fresh	-2429
ibrary	-2430
▁seems	-2431
▁needed	-2432
reme	-2433
▁dig	-2434
istrict	-2435
▁squ	-2436
▁credit	-2437
▁required	-2438
/2	-2439
ently	-2440
▁stop	-2441
▁date	-2442
\"\	-2443
ming	-2444
AC	-2445
ades	-2446
astic	-2447
▁happy	-2448
▁prep	-2449
▁Obama	-2450
▁player	-2451
ael	-2452
▁By	-2453
mail	-2454
▁www	-2455
iddle	-2456
▁created	-2457
▁paper	-2458
▁ord	-2459
anced	-2460
▁opportunity	-2461
▁photos	-2462
www	-2463
▁outside	-2464
▁position	-2465
▁inn	-2466
ession	-2467
▁white	-2468
▁Ser	-2469
3,	-2470
rote	-2471
▁played	-2472
eg	-2473
▁extra	-2474
▁fail	-2475
▁subs	-2476
▁summer	-2477
AM	-2478
▁Do	-2479
▁fig	-2480
overed	-2481
▁action	-2482
apt	-2483
hib	-2484
▁Her	-2485
▁ready	-2486
▁diff	-2487
▁wonder	-2488
▁Sw	-2489
▁cover	-2490
▁July	-2491
ospital	-2492
aving	-2493
▁accom	-2494
dd	-2495
▁Tra	-2496
▁career	-2497
OT	-2498
nSo	-2499
▁TH	-2500
ledge	-2501
▁loss	-2502
▁books	-2503
▁reported	-2504
▁chance	-2505
▁download	-2506
▁especially	-2507
opping	-2508
▁total	-2509
▁International	-2510
cy	-2511
idge	-2512
▁Soc	-2513
▁rad	-2514
aker	-2515
▁...	-2516
board	-2517
▁energy	-2518
▁general	-2519
▁Up	-2520
▁pain	-2521
▁further	-2522
▁Pat	-2523
6,	-2524
▁Web	-2525
▁init	-2526
nHow	-2527
urance	-2528
▁value	-2529
▁protect	-2530
99	-2531
clus	-2532
▁quite	-2533
aign	-2534
nWhen	-2535
ornia	-2536
ournal	-2537
▁agree	-2538
▁Af	-2539
selves	-2540
▁takes	-2541
▁etc	-2542
▁announced	-2543
▁ways	-2544
▁bott	-2545
▁death	-2546
▁deter	-2547
▁table	-2548
▁Jack	-2549
▁included	-2550
elcome	-2551
▁enter	-2552
olution	-2553
▁common	-2554
ees	-2555
ecut	-2556
ffic	-2557
▁risk	-2558
▁deg	-2559
▁consum	-2560
▁drive	-2561
ida	-2562
▁pan	-2563
▁tal	-2564
chie	-2565
hips	-2566
ules	-2567
▁mix	-2568
▁screen	-2569
▁sales	-2570
usiness	-2571
-8	-2572
16	-2573
ively	-2574
▁flow	-2575
icated	-2576
▁computer	-2577
▁Direct	-2578
ipe	-2579
▁Black	-2580
▁similar	-2581
2\	-2582
▁national	-2583
▁park	-2584
▁lives	-2585
ashington	-2586
▁boy	-2587
based	-2588
▁fast	-2589
▁purchase	-2590
▁rate	-2591
▁2012\	-2592
▁Part	-2593
▁suggest	-2594
pped	-2595
▁student	-2596
rows	-2597
▁leaders	-2598
▁located	-2599
gar	-2600
▁tour	-2601
03	-2602
▁stat	-2603
▁ground	-2604
ago	-2605
▁attack	-2606
pper	-2607
▁living	-2608
▁October	-2609
ham	-2610
▁Ac	-2611
ought	-2612
▁tick	-2613
▁leave	-2614
▁court	-2615
▁center	-2616
bl	-2617
eal	-2618
▁hear	-2619
▁options	-2620
▁November	-2621
▁consider	-2622
zz	-2623
▁Cour	-2624
▁accept	-2625
▁changes	-2626
▁sound	-2627
▁February	-2628
▁September	-2629
▁fans	-2630
▁inside	-2631
▁dam	-2632
▁Group	-2633
▁recogn	-2634
▁However	-2635
oring	-2636
now	-2637
▁Bu	-2638
▁nothing	-2639
nAl	-2640
oid	-2641
▁Act	-2642
▁print	-2643
urt	-2644
▁28	-2645
▁longer	-2646
▁1,	-2647
nAll	-2648
▁Par	-2649
▁Read	-2650
▁subject	-2651
▁additional	-2652
ING	-2653
hod	-2654
▁Ab	-2655
▁op	-2656
word	-2657
▁request	-2658
bur	-2659
ray	-2660
▁21	-2661
uation	-2662
▁bud	-2663
▁mat	-2664
aches	-2665
▁December	-2666
▁Sch	-2667
▁choose	-2668
▁cir	-2669
▁caus	-2670
▁coll	-2671
▁round	-2672
▁wrote	-2673
▁released	-2674
ises	-2675
▁Post	-2676
▁lost	-2677
▁throughout	-2678
ky	-2679
▁vot	-2680
▁user	-2681
▁true	-2682
▁plans	-2683
ett	-2684
▁sle	-2685
str	-2686
uge	-2687
ached	-2688
▁difficult	-2689
▁California	-2690
ification	-2691
▁official	-2692
▁published	-2693
▁engine	-2694
▁+	-2695
ags	-2696
ford	-2697
▁His	-2698
azing	-2699
▁parents	-2700
▁expected	-2701
▁dom	-2702
▁rather	-2703
▁file	-2704
▁Wind	-2705
▁ri	-2706
erry	-2707
▁increase	-2708
ara	-2709
70	-2710
iter	-2711
▁model	-2712
▁commit	-2713
band	-2714
aste	-2715
▁Spr	-2716
▁sus	-2717
▁worth	-2718
hel	-2719
▁Ke	-2720
face	-2721
▁Net	-2722
▁Here	-2723
▁touch	-2724
oph	-2725
▁bo	-2726
▁bed	-2727
▁arri	-2728
▁function	-2729
▁property	-2730
▁La	-2731
▁potential	-2732
▁Some	-2733
-5	-2734
ID	-2735
oly	-2736
hood	-2737
▁ple	-2738
▁words	-2739
▁Service	-2740
▁natural	-2741
▁Ag	-2742
▁image	-2743
▁Sal	-2744
▁insp	-2745
▁cand	-2746
▁movie	-2747
▁feature	-2748
▁,	-2749
nAn	-2750
▁simply	-2751
like	-2752
light	-2753
▁club	-2754
▁medical	-2755
▁respect	-2756
▁projects	-2757
pm	-2758
▁Hol	-2759
▁deep	-2760
▁compl	-2761
▁security	-2762
▁Dis	-2763
▁Tex	-2764
▁leading	-2765
oday	-2766
▁role	-2767
▁writing	-2768
▁Internet	-2769
▁August	-2770
▁Fin	-2771
▁saw	-2772
ounts	-2773
▁various	-2774
leg	-2775
duc	-2776
▁variety	-2777
ayer	-2778
▁stuff	-2779
▁reports	-2780
▁manufact	-2781
▁signific	-2782
uel	-2783
▁clos	-2784
▁birth	-2785
▁yourself	-2786
▁exist	-2787
▁fight	-2788
▁decided	-2789
▁War	-2790
▁draw	-2791
▁parts	-2792
▁private	-2793
:4	-2794
oud	-2795
ares	-2796
▁activities	-2797
mas	-2798
▁method	-2799
▁display	-2800
▁pull	-2801
▁rent	-2802
mission	-2803
▁sil	-2804
....	-2805
ground	-2806
▁systems	-2807
▁self	-2808
▁campaign	-2809
rown	-2810
▁shot	-2811
▁skin	-2812
▁shoot	-2813
rig	-2814
▁investig	-2815
▁material	-2816
lin	-2817
▁aw	-2818
▁2013\	-2819
itute	-2820
▁autom	-2821
▁quarter	-2822
▁Washington	-2823
13	-2824
▁however	-2825
OM	-2826
▁David	-2827
▁necess	-2828
▁abs	-2829
75	-2830
▁broad	-2831
▁comfort	-2832
orge	-2833
▁goes	-2834
▁decision	-2835
▁gets	-2836
▁director	-2837
.)	-2838
illing	-2839
mercial	-2840
ding	-2841
rect	-2842
▁Flor	-2843
▁Austral	-2844
▁achie	-2845
▁cannot	-2846
▁character	-2847
▁led	-2848
▁baby	-2849
▁photo	-2850
18	-2851
abor	-2852
▁Brit	-2853
▁worked	-2854
idents	-2855
14	-2856
▁opp	-2857
izing	-2858
▁exam	-2859
▁serious	-2860
LE	-2861
sp	-2862
ellow	-2863
▁interview	-2864
▁application	-2865
ma	-2866
where	-2867
▁viol	-2868
7.	-2869
▁Hall	-2870
▁interested	-2871
ude	-2872
▁Hot	-2873
▁amount	-2874
itc	-2875
lier	-2876
▁From	-2877
▁dress	-2878
▁experienc	-2879
ondon	-2880
nPlease	-2881
▁Techn	-2882
arget	-2883
asons	-2884
▁Google	-2885
▁matter	-2886
▁related	-2887
▁involved	-2888
▁hy	-2889
ipment	-2890
▁encour	-2891
▁message	-2892
▁Aut	-2893
▁cell	-2894
▁restaur	-2895
▁Home	-2896
opyright	-2897
rec	-2898
de	-2899
erve	-2900
▁built	-2901
▁international	-2902
▁hair	-2903
rought	-2904
▁associ	-2905
▁average	-2906
ocr	-2907
▁sen	-2908
▁images	-2909
▁hop	-2910
▁code	-2911
▁drug	-2912
▁award	-2913
▁ideas	-2914
▁mother	-2915
▁Air	-2916
acing	-2917
▁Republic	-2918
▁son	-2919
▁wall	-2920
▁teams	-2921
▁prices	-2922
▁practice	-2923
▁sat	-2924
akers	-2925
▁norm	-2926
▁cause	-2927
▁score	-2928
▁Office	-2929
6.	-2930
▁22	-2931
cing	-2932
▁ill	-2933
▁Paul	-2934
AA	-2935
iple	-2936
▁Angel	-2937
▁ep	-2938
▁prevent	-2939
wide	-2940
▁Dem	-2941
▁sold	-2942
just	-2943
▁starting	-2944
▁surpr	-2945
▁nation	-2946
▁Twitter	-2947
▁quickly	-2948
anch	-2949
▁stories	-2950
▁individual	-2951
ashion	-2952
▁Law	-2953
▁source	-2954
▁arch	-2955
▁groups	-2956
cription	-2957
bum	-2958
▁seven	-2959
owl	-2960
put	-2961
nWith	-2962
▁immed	-2963
▁moment	-2964
▁item	-2965
▁defin	-2966
▁college	-2967
5.	-2968
▁piece	-2969
▁growth	-2970
down	-2971
▁significant	-2972
aves	-2973
▁stock	-2974
▁usually	-2975
hone	-2976
▁dro	-2977
▁mid	-2978
▁save	-2979
▁began	-2980
▁Out	-2981
▁infl	-2982
▁exact	-2983
▁section	-2984
]\	-2985
nCh	-2986
▁band	-2987
▁langu	-2988
▁sense	-2989
▁standard	-2990
ament	-2991
▁contract	-2992
▁treatment	-2993
olf	-2994
▁wasn	-2995
▁affect	-2996
▁describ	-2997
▁Rec	-2998
ault	-2999
▁easily	-3000
▁written	-3001
▁Texas	-3002
▁Sim	-3003
iction	-3004
nthe	-3005
▁East	-3006
▁customer	-3007
ald	-3008
▁Cr	-3009
▁policy	-3010
▁gra	-3011
istic	-3012
▁wrong	-3013
ampions	-3014
▁saying	-3015
33	-3016
avy	-3017
▁Association	-3018
▁Acc	-3019
▁Mag	-3020
▁mobile	-3021
ET	-3022
epend	-3023
▁dise	-3024
▁cat	-3025
▁dest	-3026
▁mach	-3027
▁blood	-3028
9,	-3029
▁choice	-3030
▁location	-3031
amb	-3032
▁gen	-3033
▁pers	-3034
▁homes	-3035
▁remember	-3036
BC	-3037
ancy	-3038
▁title	-3039
▁Program	-3040
▁depend	-3041
atives	-3042
▁White	-3043
gu	-3044
urb	-3045
ening	-3046
▁Cons	-3047
▁prim	-3048
▁higher	-3049
▁posted	-3050
▁jud	-3051
▁dead	-3052
▁coach	-3053
AP	-3054
imum	-3055
ocol	-3056
▁Free	-3057
mitted	-3058
useum	-3059
▁emer	-3060
▁Business	-3061
▁apply	-3062
▁instead	-3063
▁Green	-3064
▁attem	-3065
icago	-3066
▁mass	-3067
▁prior	-3068
▁allows	-3069
izes	-3070
▁capt	-3071
▁straight	-3072
erc	-3073
▁Book	-3074
▁levels	-3075
▁promot	-3076
▁feed	-3077
▁learning	-3078
▁sun	-3079
▁guys	-3080
▁London	-3081
▁object	-3082
▁interesting	-3083
net	-3084
▁fab	-3085
▁tools	-3086
▁Michael	-3087
:5	-3088
uk	-3089
aran	-3090
▁sche	-3091
▁lower	-3092
▁slow	-3093
▁billion	-3094
▁knowledge	-3095
4,	-3096
urning	-3097
▁While	-3098
▁regard	-3099
US	-3100
▁Fe	-3101
azine	-3102
▁Phil	-3103
▁198	-3104
▁note	-3105
▁sett	-3106
rel	-3107
▁gave	-3108
▁skills	-3109
You	-3110
uted	-3111
iation	-3112
IL	-3113
ocks	-3114
ples	-3115
venue	-3116
king	-3117
▁bal	-3118
aries	-3119
▁hands	-3120
▁@	-3121
▁1.	-3122
field	-3123
▁budget	-3124
▁rev	-3125
▁annual	-3126
▁amazing	-3127
▁war	-3128
▁administr	-3129
onse	-3130
▁hous	-3131
▁Services	-3132
▁production	-3133
:||	-3134
enty	-3135
inner	-3136
ipped	-3137
▁fine	-3138
▁race	-3139
▁Apple	-3140
▁block	-3141
▁serve	-3142
ography	-3143
▁Je	-3144
▁Are	-3145
▁heard	-3146
▁ensure	-3147
iles	-3148
▁feet	-3149
▁safe	-3150
▁myself	-3151
▁Florida	-3152
▁organization	-3153
itary	-3154
▁Club	-3155
▁King	-3156
▁woman	-3157
Ch	-3158
▁Then	-3159
▁camer	-3160
▁excell	-3161
den	-3162
iding	-3163
▁huge	-3164
EL	-3165
▁prem	-3166
▁teac	-3167
ension	-3168
▁estab	-3169
▁schools	-3170
▁document	-3171
▁Educ	-3172
▁communic	-3173
▁countries	-3174
nCl	-3175
nOur	-3176
▁neg	-3177
▁System	-3178
▁providing	-3179
▁UK	-3180
▁ful	-3181
▁lic	-3182
▁tried	-3183
:2	-3184
▁Dan	-3185
▁Port	-3186
▁organiz	-3187
**	-3188
ico	-3189
ysis	-3190
▁warm	-3191
ecutive	-3192
▁giving	-3193
▁global	-3194
▁impact	-3195
su	-3196
▁wait	-3197
▁daily	-3198
▁hotel	-3199
▁wish	-3200
aughter	-3201
alt	-3202
▁60	-3203
▁Del	-3204
▁2007	-3205
▁sites	-3206
▁Council	-3207
raz	-3208
▁ones	-3209
▁selection	-3210
▁reb	-3211
▁Public	-3212
▁cancer	-3213
▁ability	-3214
cWe	-3215
rench	-3216
▁roll	-3217
▁weight	-3218
▁officials	-3219
unte	-3220
▁sym	-3221
atory	-3222
bit	-3223
▁resources	-3224
▁statement	-3225
▁Ger	-3226
▁ded	-3227
▁floor	-3228
▁express	-3229
vey	-3230
vin	-3231
▁bank	-3232
▁gives	-3233
▁safety	-3234
▁directly	-3235
urer	-3236
▁First	-3237
▁carry	-3238
▁cases	-3239
▁pages	-3240
▁Design	-3241
▁answer	-3242
▁integr	-3243
▁Christmas	-3244
9.	-3245
apan	-3246
▁Mac	-3247
▁upon	-3248
▁except	-3249
▁families	-3250
▁Sun	-3251
iring	-3252
▁dark	-3253
▁doll	-3254
▁hour	-3255
ctions	-3256
▁Super	-3257
airs	-3258
ength	-3259
▁vac	-3260
▁China	-3261
▁green	-3262
OL	-3263
uals	-3264
▁Afric	-3265
oul	-3266
▁ess	-3267
▁gas	-3268
▁lif	-3269
▁eight	-3270
▁gradu	-3271
17	-3272
pri	-3273
erous	-3274
▁wood	-3275
ica	-3276
▁AN	-3277
▁files	-3278
▁English	-3279
▁distrib	-3280
ado	-3281
▁PC	-3282
anta	-3283
PS	-3284
▁sens	-3285
AD	-3286
▁trip	-3287
▁terms	-3288
▁charge	-3289
▁largest	-3290
:0	-3291
wor	-3292
▁Of	-3293
▁door	-3294
▁heat	-3295
▁Inter	-3296
▁William	-3297
▁introdu	-3298
▁weather	-3299
▁Mem	-3300
▁div	-3301
▁Road	-3302
▁neigh	-3303
▁picture	-3304
hest	-3305
▁obs	-3306
▁album	-3307
▁categ	-3308
▁modern	-3309
▁themselves	-3310
sec	-3311
▁hor	-3312
▁costs	-3313
▁federal	-3314
nBy	-3315
ota	-3316
▁dry	-3317
▁pow	-3318
eneral	-3319
▁grand	-3320
▁political	-3321
za	-3322
atform	-3323
▁materials	-3324
soft	-3325
▁Pet	-3326
▁Prof	-3327
▁fair	-3328
▁helps	-3329
▁trail	-3330
▁nearly	-3331
▁stru	-3332
sy	-3333
inary	-3334
▁separ	-3335
arc	-3336
▁gift	-3337
estern	-3338
▁Found	-3339
5,	-3340
OS	-3341
ears	-3342
▁Mor	-3343
▁Class	-3344
▁spent	-3345
omb	-3346
iced	-3347
used	-3348
isl	-3349
▁II	-3350
▁write	-3351
▁limited	-3352
mark	-3353
▁brought	-3354
▁Mary	-3355
-6	-3356
vest	-3357
▁err	-3358
action	-3359
▁owners	-3360
▁target	-3361
▁finished	-3362
▁commercial	-3363
-7	-3364
atab	-3365
ened	-3366
nand	-3367
▁forum	-3368
▁sports	-3369
▁23	-3370
haps	-3371
▁Cle	-3372
▁Church	-3373
▁conditions	-3374
unt	-3375
▁rock	-3376
▁Oh	-3377
▁Dec	-3378
▁tom	-3379
aming	-3380
▁effort	-3381
▁Community	-3382
inn	-3383
▁became	-3384
pite	-3385
▁Mart	-3386
▁bill	-3387
nAfter	-3388
▁maybe	-3389
▁turned	-3390
ona	-3391
▁Mod	-3392
▁guy	-3393
iant	-3394
nRe	-3395
▁sale	-3396
▁Research	-3397
▁attention	-3398
▁applications	-3399
ha	-3400
rey	-3401
▁lo	-3402
▁Also	-3403
▁links	-3404
ixt	-3405
uth	-3406
▁Cong	-3407
▁Chicago	-3408
oma	-3409
▁cy	-3410
▁pet	-3411
▁dream	-3412
▁earlier	-3413
▁businesses	-3414
▁opportunities	-3415
ivery	-3416
▁snow	-3417
1\	-3418
nMy	-3419
▁Big	-3420
aught	-3421
▁Court	-3422
▁Great	-3423
▁River	-3424
▁vehicle	-3425
▁partners	-3426
mm	-3427
▁ut	-3428
▁Island	-3429
▁respond	-3430
▁fan	-3431
▁ren	-3432
▁entertain	-3433
add	-3434
ston	-3435
▁Ital	-3436
inally	-3437
ructure	-3438
▁growing	-3439
umn	-3440
▁wants	-3441
▁qual	-3442
▁wife	-3443
rian	-3444
▁suff	-3445
ecause	-3446
▁reach	-3447
▁Develop	-3448
arden	-3449
▁Rich	-3450
▁plant	-3451
itation	-3452
ountain	-3453
roid	-3454
wise	-3455
▁medic	-3456
▁Indian	-3457
▁states	-3458
nc	-3459
ule	-3460
▁Char	-3461
▁runs	-3462
EC	-3463
ube	-3464
▁Ev	-3465
▁Click	-3466
▁Press	-3467
▁Rober	-3468
▁cross	-3469
estival	-3470
▁successful	-3471
ocal	-3472
▁James	-3473
▁finally	-3474
▁Get	-3475
▁extreme	-3476
▁lik	-3477
▁mail	-3478
▁pattern	-3479
▁positive	-3480
:3	-3481
IV	-3482
▁served	-3483
▁equipment	-3484
▁insurance	-3485
▁legal	-3486
▁itself	-3487
▁Windows	-3488
▁benefits	-3489
▁conference	-3490
sem	-3491
▁Lou	-3492
▁ten	-3493
icks	-3494
▁firm	-3495
▁shop	-3496
yond	-3497
▁Canada	-3498
▁pictures	-3499
▁completely	-3500
▁Trans	-3501
▁efforts	-3502
vis	-3503
▁fix	-3504
▁hus	-3505
iment	-3506
ivity	-3507
▁imag	-3508
elling	-3509
▁extend	-3510
▁=	-3511
lim	-3512
▁Bel	-3513
▁circ	-3514
▁mention	-3515
▁economic	-3516
▁condition	-3517
nAt	-3518
pose	-3519
unk	-3520
▁Spe	-3521
nHere	-3522
imately	-3523
▁thinking	-3524
nSh	-3525
iller	-3526
opped	-3527
asc	-3528
orrow	-3529
▁speed	-3530
▁Good	-3531
▁attract	-3532
olic	-3533
▁lay	-3534
▁goals	-3535
istered	-3536
▁temper	-3537
▁bi	-3538
nMore	-3539
▁Miss	-3540
▁spot	-3541
▁father	-3542
;\	-3543
ady	-3544
itely	-3545
▁Japan	-3546
212	-3547
nds	-3548
▁Sub	-3549
▁effic	-3550
▁moving	-3551
▁Information	-3552
ooth	-3553
▁sweet	-3554
EO	-3555
SS	-3556
▁2006	-3557
▁gold	-3558
▁disease	-3559
▁planning	-3560
5\	-3561
He	-3562
uled	-3563
▁Gold	-3564
▁himself	-3565
ivil	-3566
li	-3567
roud	-3568
▁Bre	-3569
▁Thom	-3570
friend	-3571
▁League	-3572
▁threat	-3573
last	-3574
▁ult	-3575
▁Most	-3576
▁brows	-3577
▁named	-3578
▁conduct	-3579
▁correct	-3580
▁reserved	-3581
▁shipping	-3582
change	-3583
▁Board	-3584
▁stage	-3585
▁Review	-3586
▁impress	-3587
▁wonderful	-3588
rial	-3589
inger	-3590
▁Lake	-3591
▁coun	-3592
▁overall	-3593
itz	-3594
▁response	-3595
8.	-3596
pre	-3597
▁Micro	-3598
▁Company	-3599
▁approach	-3600
acts	-3601
▁reve	-3602
mp	-3603
▁26	-3604
▁Ir	-3605
▁Tom	-3606
▁ble	-3607
house	-3608
▁Rock	-3609
▁Russ	-3610
▁iPhone	-3611
esterday	-3612
▁opin	-3613
▁paint	-3614
▁numbers	-3615
▁gar	-3616
bon	-3617
hold	-3618
▁ton	-3619
▁Brown	-3620
▁manager	-3621
▁football	-3622
raw	-3623
▁nut	-3624
▁histor	-3625
▁option	-3626
comes	-3627
▁double	-3628
▁Open	-3629
▁offered	-3630
▁necessary	-3631
▁Commission	-3632
▁term	-3633
itchen	-3634
▁advert	-3635
▁listed	-3636
▁patients	-3637
▁Education	-3638
▁jobs	-3639
isions	-3640
▁innov	-3641
▁creating	-3642
90	-3643
500	-3644
rip	-3645
yan	-3646
ibly	-3647
well	-3648
▁wear	-3649
▁platform	-3650
▁Ann	-3651
▁vote	-3652
▁owner	-3653
▁easier	-3654
SP	-3655
box	-3656
see	-3657
▁Wal	-3658
▁healthy	-3659
▁gun	-3660
▁Life	-3661
▁decl	-3662
▁surv	-3663
▁Every	-3664
▁shopping	-3665
▁Los	-3666
▁wat	-3667
▁bottom	-3668
▁streng	-3669
▁clients	-3670
ki	-3671
?"}	-3672
porate	-3673
▁whose	-3674
▁middle	-3675
▁Institute	-3676
2026\	-3677
atever	-3678
▁Smith	-3679
▁rates	-3680
▁region	-3681
▁complex	-3682
▁excellent	-3683
ews	-3684
more	-3685
iable	-3686
▁aware	-3687
IP	-3688
DA	-3689
lor	-3690
oto	-3691
set	-3692
ption	-3693
▁Down	-3694
▁doub	-3695
▁spring	-3696
24	-3697
amily	-3698
idered	-3699
nPosted	-3700
▁senior	-3701
▁language	-3702
▁developed	-3703
▁sometimes	-3704
OW	-3705
RA	-3706
▁cards	-3707
osh	-3708
tion	-3709
▁moved	-3710
▁Angeles	-3711
▁husband	-3712
▁Director	-3713
gers	-3714
▁Pri	-3715
▁ver	-3716
▁miles	-3717
▁thous	-3718
▁attempt	-3719
rael	-3720
apter	-3721
▁Time	-3722
▁aren	-3723
iately	-3724
▁Times	-3725
▁haven	-3726
▁advice	-3727
▁fashion	-3728
▁hospital	-3729
▁multiple	-3730
▁beginning	-3731
TV	-3732
.)\	-3733
bed	-3734
nCom	-3735
▁THE	-3736
▁progress	-3737
▁USA	-3738
ration	-3739
▁Child	-3740
▁exhib	-3741
vention	-3742
)"}	-3743
body	-3744
▁Top	-3745
lying	-3746
ancing	-3747
rup	-3748
ores	-3749
▁Bay	-3750
▁beat	-3751
▁scient	-3752
▁*	-3753
mod	-3754
▁Kn	-3755
asts	-3756
▁Int	-3757
▁Rad	-3758
▁conc	-3759
▁copy	-3760
▁wild	-3761
outhern	-3762
ios	-3763
inter	-3764
▁Well	-3765
▁uses	-3766
▁Check	-3767
okes	-3768
▁Jim	-3769
▁types	-3770
▁expand	-3771
▁finish	-3772
▁highly	-3773
▁traditional	-3774
gn	-3775
▁Sl	-3776
dule	-3777
irgin	-3778
▁Camp	-3779
undred	-3780
▁doctor	-3781
▁pieces	-3782
▁changed	-3783
▁opening	-3784
nOne	-3785
▁lines	-3786
noon	-3787
▁cert	-3788
▁altern	-3789
▁retail	-3790
ological	-3791
cA	-3792
nNo	-3793
reed	-3794
phone	-3795
▁couldn	-3796
▁larger	-3797
▁Pal	-3798
▁bul	-3799
▁button	-3800
▁holiday	-3801
▁science	-3802
▁implement	-3803
men	-3804
▁2.	-3805
▁Any	-3806
▁marketing	-3807
ads	-3808
rees	-3809
▁Vis	-3810
▁smart	-3811
▁announce	-3812
irit	-3813
▁eye	-3814
IM	-3815
ruit	-3816
▁Ant	-3817
▁apprec	-3818
ION	-3819
▁See	-3820
▁Fire	-3821
▁French	-3822
▁videos	-3823
▁digital	-3824
▁employees	-3825
ror	-3826
ander	-3827
▁sort	-3828
▁active	-3829
▁looked	-3830
▁construction	-3831
▁imm	-3832
oston	-3833
▁rain	-3834
fl	-3835
rief	-3836
esome	-3837
▁exactly	-3838
iar	-3839
▁glass	-3840
▁volunte	-3841
▁responsible	-3842
▁Av	-3843
itiz	-3844
fit	-3845
▁bur	-3846
▁Hist	-3847
▁eyes	-3848
▁wine	-3849
▁arrest	-3850
▁allowed	-3851
ceed	-3852
▁Mex	-3853
▁Star	-3854
▁sugar	-3855
▁Congress	-3856
▁pressure	-3857
range	-3858
▁Best	-3859
▁sched	-3860
ovel	-3861
▁pred	-3862
▁avoid	-3863
▁signed	-3864
▁activity	-3865
OP	-3866
isco	-3867
iance	-3868
▁sleep	-3869
tr	-3870
▁Sur	-3871
ocolate	-3872
▁update	-3873
▁benefit	-3874
▁DV	-3875
hens	-3876
▁cart	-3877
anging	-3878
▁ahead	-3879
▁trade	-3880
▁advant	-3881
ses	-3882
press	-3883
ronic	-3884
nces	-3885
arrant	-3886
atabase	-3887
▁convers	-3888
3\	-3889
BA	-3890
▁beg	-3891
▁mer	-3892
inated	-3893
levision	-3894
▁talking	-3895
▁solution	-3896
arily	-3897
nThat	-3898
order	-3899
▁blue	-3900
▁device	-3901
▁achieve	-3902
▁NY	-3903
istry	-3904
ademic	-3905
▁Thanks	-3906
▁analysis	-3907
▁military	-3908
asy	-3909
illa	-3910
ucky	-3911
▁wed	-3912
osing	-3913
▁posts	-3914
▁proud	-3915
▁situation	-3916
▁immediately	-3917
26	-3918
orry	-3919
▁eat	-3920
▁Plan	-3921
▁candid	-3922
▁organizations	-3923
arth	-3924
gency	-3925
▁loved	-3926
▁German	-3927
▁biggest	-3928
▁economy	-3929
▁relationship	-3930
eed	-3931
▁cold	-3932
nWhile	-3933
▁influ	-3934
▁contain	-3935
sych	-3936
▁Hel	-3937
orage	-3938
▁died	-3939
▁consult	-3940
▁highest	-3941
▁Bill	-3942
▁helped	-3943
▁competition	-3944
agn	-3945
ros	-3946
arks	-3947
▁beyond	-3948
▁disapp	-3949
▁District	-3950
▁independ	-3951
▁offering	-3952
▁Rel	-3953
▁Mike	-3954
▁knew	-3955
▁load	-3956
▁Democr	-3957
▁European	-3958
▁IN	-3959
acks	-3960
oves	-3961
apers	-3962
▁Show	-3963
▁places	-3964
▁package	-3965
▁residents	-3966
po	-3967
amm	-3968
icken	-3969
▁Care	-3970
▁degree	-3971
ervation	-3972
▁daughter	-3973
4\	-3974
aks	-3975
▁Rob	-3976
▁Matt	-3977
▁Year	-3978
▁felt	-3979
▁prop	-3980
▁Media	-3981
▁winter	-3982
BS	-3983
que	-3984
▁Sk	-3985
▁bag	-3986
▁Franc	-3987
ims	-3988
ying	-3989
▁mus	-3990
▁plus	-3991
▁rules	-3992
▁length	-3993
▁deliver	-3994
▁evening	-3995
▁happened	-3996
▁department	-3997
▁Mil	-3998
▁ing	-3999
annel	-4000
state	-4001
▁farm	-4002
▁lots	-4003
▁Beach	-4004
▁accur	-4005
▁90	-4006
▁Met	-4007
▁acqu	-4008
▁guess	-4009
▁nature	-4010
▁consist	-4011
▁nine	-4012
▁Color	-4013
▁Market	-4014
▁minute	-4015
▁passed	-4016
edy	-4017
iling	-4018
▁paid	-4019
▁names	-4020
▁Central	-4021
\",	-4022
▁Nov	-4023
▁Rem	-4024
▁Sol	-4025
orial	-4026
▁indic	-4027
▁exclus	-4028
▁guaran	-4029
▁brother	-4030
▁driving	-4031
▁reflect	-4032
▁winning	-4033
▁physical	-4034
▁difference	-4035
/4	-4036
ooking	-4037
▁contr	-4038
▁shown	-4039
▁General	-4040
▁trust	-4041
▁afternoon	-4042
If	-4043
isher	-4044
▁Team	-4045
▁normal	-4046
▁feeling	-4047
▁helping	-4048
REE	-4049
▁27	-4050
ffee	-4051
▁fem	-4052
▁Mont	-4053
▁adding	-4054
▁considered	-4055
oms	-4056
▁clot	-4057
▁gone	-4058
▁pair	-4059
▁fully	-4060
▁taste	-4061
▁Israel	-4062
▁expert	-4063
▁letter	-4064
▁appropri	-4065
amic	-4066
itar	-4067
force	-4068
▁demon	-4069
▁camera	-4070
▁profession	-4071
ech	-4072
▁Cap	-4073
▁Sam	-4074
▁cab	-4075
▁subst	-4076
95	-4077
nw	-4078
▁ice	-4079
▁Food	-4080
▁classic	-4081
outs	-4082
▁Sum	-4083
▁Carol	-4084
▁Music	-4085
▁effective	-4086
▁born	-4087
▁ship	-4088
▁drink	-4089
▁entry	-4090
▁Vol	-4091
▁Play	-4092
▁Sand	-4093
▁Wood	-4094
▁India	-4095
ka	-4096
no	-4097
ken	-4098
met	-4099
▁prec	-4100
▁butter	-4101
▁completed	-4102
TS	-4103
▁Sy	-4104
aled	-4105
▁ban	-4106
▁Blue	-4107
▁Game	-4108
▁gall	-4109
▁thank	-4110
▁Police	-4111
▁bought	-4112
▁tickets	-4113
xx	-4114
▁er	-4115
iled	-4116
▁Cup	-4117
icious	-4118
▁Other	-4119
▁Valley	-4120
▁thanks	-4121
▁delivery	-4122
lies	-4123
▁map	-4124
eared	-4125
▁Week	-4126
▁epis	-4127
▁inform	-4128
lastname	-4129
▁followed	-4130
CC	-4131
ini	-4132
itect	-4133
▁Louis	-4134
▁girls	-4135
▁scene	-4136
▁England	-4137
▁culture	-4138
▁Chris	-4139
ulations	-4140
▁measure	-4141
▁PR	-4142
ideo	-4143
olute	-4144
▁Work	-4145
▁prot	-4146
▁Network	-4147
▁Product	-4148
▁definitely	-4149
alls	-4150
free	-4151
igan	-4152
▁selected	-4153
▁Mot	-4154
▁enh	-4155
▁Bank	-4156
▁fant	-4157
▁scored	-4158
▁surround	-4159
▁individuals	-4160
IG	-4161
▁$2	-4162
▁Sil	-4163
▁Over	-4164
▁sust	-4165
lements	-4166
▁colors	-4167
▁slight	-4168
▁challenge	-4169
▁Foundation	-4170
ette	-4171
▁egg	-4172
nFrom	-4173
▁replace	-4174
▁Australia	-4175
Cl	-4176
ifts	-4177
▁pen	-4178
aven	-4179
▁Alex	-4180
illage	-4181
▁Mad	-4182
▁onto	-4183
▁force	-4184
▁powerful	-4185
▁spending	-4186
▁standards	-4187
▁3.	-4188
▁trou	-4189
▁exerc	-4190
▁knows	-4191
▁fourth	-4192
▁models	-4193
▁recipe	-4194
▁defense	-4195
▁yesterday	-4196
win	-4197
▁Hum	-4198
▁Use	-4199
istics	-4200
▁alone	-4201
▁occas	-4202
▁radio	-4203
▁remain	-4204
▁hundred	-4205
▁updated	-4206
▁2,	-4207
▁den	-4208
▁Each	-4209
▁Power	-4210
▁Scott	-4211
▁calls	-4212
▁Special	-4213
▁capital	-4214
▁Development	-4215
Sh	-4216
ils	-4217
▁Medic	-4218
▁relig	-4219
▁adjust	-4220
▁campus	-4221
▁figure	-4222
nNow	-4223
▁suit	-4224
▁cream	-4225
▁partner	-4226
▁setting	-4227
▁requirements	-4228
8,	-4229
▁CD	-4230
berg	-4231
▁Whe	-4232
▁basis	-4233
▁voice	-4234
▁Commit	-4235
▁closed	-4236
▁launch	-4237
▁communities	-4238
____	-4239
▁kick	-4240
▁Library	-4241
▁covered	-4242
▁leaving	-4243
▁Christian	-4244
▁increasing	-4245
▁pm	-4246
▁Arch	-4247
▁pool	-4248
▁conven	-4249
▁legisl	-4250
▁articles	-4251
▁vs	-4252
ails	-4253
ously	-4254
▁Even	-4255
▁cash	-4256
▁occur	-4257
▁excited	-4258
ournament	-4259
▁restaurant	-4260
nBe	-4261
What	-4262
▁demand	-4263
▁driver	-4264
▁talent	-4265
▁although	-4266
FL	-4267
MA	-4268
▁197	-4269
▁Ben	-4270
antly	-4271
nLast	-4272
▁kept	-4273
active	-4274
▁views	-4275
▁client	-4276
▁wouldn	-4277
hy	-4278
▁Let	-4279
itors	-4280
pping	-4281
▁older	-4282
▁stick	-4283
▁devices	-4284
▁characters	-4285
gen	-4286
aith	-4287
▁fol	-4288
▁Water	-4289
▁truly	-4290
pts	-4291
▁Card	-4292
▁Virgin	-4293
▁killed	-4294
PA	-4295
oop	-4296
▁29	-4297
mine	-4298
ences	-4299
works	-4300
▁British	-4301
▁effects	-4302
▁watching	-4303
CH	-4304
rd	-4305
▁"|	-4306
pects	-4307
▁tips	-4308
encies	-4309
▁Spring	-4310
▁neighbor	-4311
▁certainly	-4312
MS	-4313
cIt	-4314
▁(1	-4315
▁poll	-4316
▁ST	-4317
2122	-4318
rowd	-4319
▁ath	-4320
▁liter	-4321
▁recip	-4322
▁Ber	-4323
▁Bur	-4324
▁bask	-4325
▁frequ	-4326
▁spons	-4327
▁train	-4328
▁reduce	-4329
IA	-4330
▁clin	-4331
▁drop	-4332
▁2011\	-4333
▁strugg	-4334
standing	-4335
▁Johnson	-4336
▁appoint	-4337
▁initial	-4338
▁reviews	-4339
▁investment	-4340
▁Div	-4341
orter	-4342
ection	-4343
▁catch	-4344
▁spread	-4345
▁starts	-4346
▁<	-4347
ari	-4348
▁basic	-4349
▁Online	-4350
▁secret	-4351
▁toward	-4352
▁welcome	-4353
Qu	-4354
nded	-4355
▁mis	-4356
▁Wall	-4357
▁path	-4358
▁notice	-4359
▁$3	-4360
▁eval	-4361
▁Project	-4362
▁demonstr	-4363
▁Det	-4364
▁jump	-4365
▁Boston	-4366
▁Mal	-4367
▁graph	-4368
▁opened	-4369
▁seeing	-4370
atically	-4371
▁password	-4372
▁UN	-4373
▁po	-4374
▁Ari	-4375
▁winner	-4376
▁instruct	-4377
▁Management	-4378
▁u	-4379
▁80	-4380
agon	-4381
ulate	-4382
▁rank	-4383
▁guide	-4384
▁princ	-4385
▁workers	-4386
My	-4387
fast	-4388
nPro	-4389
▁Grand	-4390
▁league	-4391
▁transport	-4392
▁Technology	-4393
▁registered	-4394
imb	-4395
cher	-4396
iers	-4397
▁Atl	-4398
▁Ter	-4399
▁max	-4400
craft	-4401
igned	-4402
uries	-4403
▁cast	-4404
▁poor	-4405
▁yards	-4406
▁George	-4407
▁assess	-4408
▁classes	-4409
▁solutions	-4410
▁technical	-4411
miss	-4412
▁Ver	-4413
▁Wil	-4414
▁Fore	-4415
▁Town	-4416
▁dinner	-4417
>>	-4418
Re	-4419
care	-4420
iated	-4421
▁heavy	-4422
▁charges	-4423
▁machine	-4424
▁mission	-4425
▁records	-4426
▁waiting	-4427
▁continues	-4428
▁discussion	-4429
▁Love	-4430
▁View	-4431
▁outd	-4432
▁decor	-4433
▁traffic	-4434
nCopyright	-4435
▁Microsoft	-4436
hem	-4437
▁70	-4438
life	-4439
reek	-4440
▁fat	-4441
ocked	-4442
▁batter	-4443
gl	-4444
lied	-4445
umber	-4446
▁Hill	-4447
▁contains	-4448
▁presented	-4449
▁sem	-4450
▁adop	-4451
▁victory	-4452
-9	-4453
CE	-4454
bout	-4455
nAcc	-4456
▁sand	-4457
▁shall	-4458
▁Robert	-4459
▁damage	-4460
▁kitchen	-4461
▁internet	-4462
▁bath	-4463
▁lack	-4464
onents	-4465
urrent	-4466
▁Enter	-4467
unately	-4468
▁battle	-4469
▁famous	-4470
▁finding	-4471
▁creative	-4472
▁dedicated	-4473
omew	-4474
ustr	-4475
▁Saf	-4476
▁pros	-4477
▁songs	-4478
▁session	-4479
▁Committee	-4480
▁advantage	-4481
▁background	-4482
iny	-4483
tain	-4484
ties	-4485
▁Bet	-4486
riage	-4487
atures	-4488
▁behav	-4489
▁library	-4490
▁firstname	-4491
▁increased	-4492
▁particularly	-4493
dom	-4494
▁35	-4495
▁RE	-4496
lymp	-4497
▁nom	-4498
▁Hotel	-4499
▁instit	-4500
▁Science	-4501
▁happens	-4502
▁exciting	-4503
▁Conference	-4504
ij	-4505
alog	-4506
▁196	-4507
▁...\	-4508
▁salt	-4509
▁Frank	-4510
▁breat	-4511
▁church	-4512
▁schedule	-4513
▁thousands	-4514
rab	-4515
▁2000	-4516
▁chem	-4517
▁awesome	-4518
rie	-4519
▁ID	-4520
ishes	-4521
▁solid	-4522
▁collabor	-4523
▁coverage	-4524
antic	-4525
unched	-4526
ologies	-4527
▁defend	-4528
▁ingred	-4529
▁register	-4530
▁facilities	-4531
gal	-4532
ulty	-4533
▁updates	-4534
▁existing	-4535
32	-4536
earn	-4537
oving	-4538
▁fell	-4539
▁prefer	-4540
▁meaning	-4541
▁television	-4542
LA	-4543
rim	-4544
▁(2	-4545
▁Que	-4546
▁Why	-4547
aling	-4548
nYour	-4549
▁Rights	-4550
▁leader	-4551
▁reasons	-4552
▁throw	-4553
▁Senate	-4554
▁guests	-4555
▁placed	-4556
istration	-4557
LC	-4558
\".	-4559
▁Ok	-4560
nGet	-4561
▁Bob	-4562
▁Ill	-4563
right	-4564
▁earn	-4565
▁Today	-4566
▁tough	-4567
▁Series	-4568
▁caused	-4569
▁forget	-4570
▁animals	-4571
▁obvious	-4572
▁extremely	-4573
SA	-4574
ENT	-4575
uing	-4576
▁rare	-4577
▁funds	-4578
-10	-4579
but	-4580
nEx	-4581
▁OF	-4582
place	-4583
▁Many	-4584
▁towards	-4585
istan	-4586
▁dang	-4587
▁Light	-4588
▁tables	-4589
▁whatever	-4590
▁essential	-4591
obe	-4592
pan	-4593
▁fish	-4594
nClick	-4595
ulated	-4596
▁shoes	-4597
orthern	-4598
▁memory	-4599
▁journal	-4600
▁learned	-4601
▁readers	-4602
IR	-4603
rive	-4604
▁Fil	-4605
▁cru	-4606
▁Cath	-4607
▁Like	-4608
etball	-4609
▁crowd	-4610
▁showing	-4611
▁strateg	-4612
▁database	-4613
▁connection	-4614
2012	-4615
vere	-4616
▁artists	-4617
▁monitor	-4618
▁produce	-4619
8\	-4620
gery	-4621
▁unit	-4622
▁injury	-4623
odes	-4624
porary	-4625
cS	-4626
kn	-4627
term	-4628
icial	-4629
▁Call	-4630
▁fill	-4631
▁artist	-4632
▁warrant	-4633
▁returned	-4634
imal	-4635
inese	-4636
▁peace	-4637
▁master	-4638
▁street	-4639
▁Journal	-4640
▁Society	-4641
▁continued	-4642
bert	-4643
cean	-4644
▁Rom	-4645
▁cars	-4646
▁Union	-4647
▁Sports	-4648
▁showed	-4649
▁determin	-4650
▁IT	-4651
▁Ty	-4652
nShe	-4653
vant	-4654
lands	-4655
▁Mass	-4656
iences	-4657
▁Georg	-4658
pective	-4659
▁fabric	-4660
▁shel	-4661
▁Olymp	-4662
▁agency	-4663
▁orders	-4664
▁status	-4665
▁scheduled	-4666
▁0.	-4667
▁novel	-4668
▁purpose	-4669
▁CA	-4670
irection	-4671
▁comfortable	-4672
6\	-4673
edia	-4674
ooper	-4675
▁FREE	-4676
▁Family	-4677
▁Museum	-4678
▁remind	-4679
▁keeping	-4680
▁transfer	-4681
▁operating	-4682
nf	-4683
▁Boy	-4684
▁Tor	-4685
▁Form	-4686
▁civil	-4687
▁Custom	-4688
▁advance	-4689
▁appears	-4690
▁testing	-4691
\\	-4692
cel	-4693
ords	-4694
▁emb	-4695
ersey	-4696
▁notes	-4697
▁experts	-4698
▁patient	-4699
▁requires	-4700
uke	-4701
▁|\	-4702
aked	-4703
cell	-4704
▁Long	-4705
▁rout	-4706
▁shut	-4707
▁weap	-4708
▁evidence	-4709
▁Americans	-4710
ifying	-4711
▁ended	-4712
▁limit	-4713
▁bright	-4714
▁plenty	-4715
▁secure	-4716
▁Medical	-4717
▁featured	-4718
cks	-4719
het	-4720
roy	-4721
▁ur	-4722
kins	-4723
nNot	-4724
west	-4725
▁kid	-4726
orney	-4727
▁perhaps	-4728
▁remains	-4729
▁serving	-4730
▁environmental	-4731
EW	-4732
ga	-4733
▁ON	-4734
rick	-4735
▁DVD	-4736
▁forms	-4737
▁district	-4738
▁magazine	-4739
▁chocolate	-4740
▁understanding	-4741
For	-4742
▁Ret	-4743
▁fee	-4744
▁sch	-4745
▁cris	-4746
▁useful	-4747
▁reached	-4748
▁developing	-4749
▁protection	-4750
▁educational	-4751
oyal	-4752
▁Att	-4753
▁Ins	-4754
▁fif	-4755
▁sport	-4756
▁corner	-4757
uce	-4758
ownt	-4759
▁Ham	-4760
▁Two	-4761
icing	-4762
▁Ohio	-4763
▁absolute	-4764
nh	-4765
ola	-4766
▁sty	-4767
unior	-4768
▁error	-4769
▁steps	-4770
▁shooting	-4771
inet	-4772
▁500	-4773
water	-4774
▁primary	-4775
▁surface	-4776
▁produced	-4777
▁documents	-4778
▁Jud	-4779
otten	-4780
▁Jeff	-4781
▁Sign	-4782
▁incred	-4783
▁movies	-4784
▁smaller	-4785
▁appropriate	-4786
▁manufacturer	-4787
ula	-4788
osen	-4789
asure	-4790
▁Back	-4791
▁Jones	-4792
▁brief	-4793
▁grant	-4794
▁raise	-4795
▁topic	-4796
▁Social	-4797
ampionship	-4798
65	-4799
oos	-4800
▁HD	-4801
▁Mer	-4802
ograp	-4803
▁propos	-4804
kin	-4805
▁Def	-4806
unning	-4807
▁Award	-4808
▁meant	-4809
▁plays	-4810
▁satis	-4811
▁coffee	-4812
▁window	-4813
▁charged	-4814
▁friendly	-4815
▁agreement	-4816
▁locations	-4817
ero	-4818
burg	-4819
▁Haw	-4820
▁McC	-4821
ategy	-4822
▁Blog	-4823
▁Find	-4824
▁scen	-4825
lished	-4826
▁citiz	-4827
▁county	-4828
away	-4829
▁Who	-4830
icted	-4831
olars	-4832
▁mill	-4833
▁ride	-4834
▁2012,	-4835
▁contest	-4836
ita	-4837
uzz	-4838
▁TO	-4839
abet	-4840
▁1/2	-4841
▁Gal	-4842
oices	-4843
▁brown	-4844
▁shape	-4845
▁veter	-4846
▁approx	-4847
▁joined	-4848
▁raised	-4849
▁operations	-4850
77	-4851
▁Tim	-4852
ading	-4853
eless	-4854
▁label	-4855
▁trial	-4856
▁Report	-4857
▁editor	-4858
▁medium	-4859
▁spirit	-4860
▁storage	-4861
▁compared	-4862
▁facility	-4863
▁prepared	-4864
▁teaching	-4865
As	-4866
ansas	-4867
overy	-4868
▁rich	-4869
▁Under	-4870
▁Thomas	-4871
▁income	-4872
▁academic	-4873
▁critical	-4874
▁upcoming	-4875
fr	-4876
zen	-4877
ordin	-4878
▁2005	-4879
rehens	-4880
▁wedding	-4881
??	-4882
cB	-4883
nUn	-4884
uty	-4885
▁NC	-4886
oles	-4887
ship	-4888
▁har	-4889
▁thr	-4890
while	-4891
▁Only	-4892
▁earned	-4893
▁Jackson	-4894
▁assistance	-4895
azz	-4896
▁AP	-4897
▁(19	-4898
▁fav	-4899
▁busy	-4900
▁estim	-4901
▁remove	-4902
▁Android	-4903
:"}	-4904
▁Jo	-4905
nNew	-4906
▁guid	-4907
▁pregn	-4908
▁advanced	-4909
▁strength	-4910
point	-4911
▁Fort	-4912
▁Kore	-4913
▁Ryan	-4914
▁afford	-4915
▁methods	-4916
ena	-4917
▁gain	-4918
▁virt	-4919
nThese	-4920
▁south	-4921
▁missing	-4922
▁selling	-4923
▁sources	-4924
▁studies	-4925
▁otherwise	-4926
▁bird	-4927
▁upgr	-4928
▁Mexico	-4929
▁supply	-4930
▁putting	-4931
▁becoming	-4932
nto	-4933
acity	-4934
ctors	-4935
ocket	-4936
▁Main	-4937
▁stars	-4938
▁square	-4939
▁stores	-4940
▁resident	-4941
▁regarding	-4942
▁scr	-4943
▁van	-4944
ushed	-4945
▁format	-4946
▁changing	-4947
nAccording	-4948
▁participate	-4949
▁temperature	-4950
ato	-4951
▁Jew	-4952
▁Mur	-4953
▁Make	-4954
▁emot	-4955
▁prin	-4956
▁Since	-4957
▁Virginia	-4958
la	-4959
arge	-4960
chan	-4961
▁tim	-4962
▁speak	-4963
▁Martin	-4964
▁Log	-4965
night	-4966
iverse	-4967
▁north	-4968
▁govern	-4969
▁leaves	-4970
▁manage	-4971
▁seconds	-4972
▁previously	-4973
UR	-4974
wo	-4975
.\""}	-4976
itude	-4977
▁lose	-4978
▁Women	-4979
▁actual	-4980
▁associated	-4981
22	-4982
asp	-4983
nThey	-4984
▁wire	-4985
▁smooth	-4986
▁entertainment	-4987
88	-4988
icip	-4989
ellig	-4990
▁Clin	-4991
▁bowl	-4992
▁somew	-4993
ocation	-4994
44	-4995
hew	-4996
mond	-4997
▁chief	-4998
▁micro	-4999
▁profile	-5000
▁allowing	-5001
▁electric	-5002
▁committed	-5003
anda	-5004
▁storm	-5005
▁tight	-5006
▁stress	-5007
▁Chinese	-5008
dy	-5009
nDo	-5010
▁Ol	-5011
date	-5012
▁Old	-5013
▁cere	-5014
▁Hospital	-5015
▁category	-5016
▁combined	-5017
FC	-5018
top	-5019
▁(3	-5020
ennis	-5021
nCont	-5022
nJust	-5023
▁server	-5024
▁spokes	-5025
ev	-5026
▁Hy	-5027
▁Nor	-5028
▁Win	-5029
▁Charl	-5030
▁mount	-5031
▁31	-5032
▁Dou	-5033
▁Once	-5034
▁tele	-5035
▁Stand	-5036
▁relax	-5037
osition	-5038
▁Profess	-5039
▁funding	-5040
▁visitors	-5041
▁Republican	-5042
/0	-5043
ht	-5044
▁ran	-5045
▁diagn	-5046
▁central	-5047
TM	-5048
▁Joe	-5049
▁rob	-5050
▁Sing	-5051
▁Exper	-5052
▁cable	-5053
▁buying	-5054
▁opinion	-5055
▁sustain	-5056
▁appeared	-5057
▁experienced	-5058
9\	-5059
▁3,	-5060
▁Di	-5061
▁Phot	-5062
▁slightly	-5063
▁determine	-5064
▁$5	-5065
nergy	-5066
osure	-5067
▁Richard	-5068
▁population	-5069
inch	-5070
▁Mus	-5071
▁Head	-5072
atively	-5073
▁brings	-5074
▁Georgia	-5075
▁concept	-5076
▁Carolina	-5077
np	-5078
otes	-5079
▁Pac	-5080
▁rap	-5081
going	-5082
▁100%	-5083
▁rooms	-5084
▁listen	-5085
▁sounds	-5086
▁sharing	-5087
▁audience	-5088
▁vehicles	-5089
'\	-5090
ni	-5091
Pro	-5092
lah	-5093
▁ju	-5094
zona	-5095
▁dollars	-5096
▁willing	-5097
▁professionals	-5098
▁administration	-5099
45	-5100
nin	-5101
hand	-5102
ademy	-5103
▁Sher	-5104
▁mist	-5105
lywood	-5106
▁colle	-5107
▁spect	-5108
▁People	-5109
▁Because	-5110
▁parking	-5111
When	-5112
nChe	-5113
▁Men	-5114
▁hits	-5115
▁repe	-5116
▁multi	-5117
▁Engine	-5118
▁adults	-5119
▁asking	-5120
▁balance	-5121
▁designs	-5122
▁enjoyed	-5123
SU	-5124
Don	-5125
▁AL	-5126
nMay	-5127
ucle	-5128
nSome	-5129
▁Real	-5130
▁dogs	-5131
▁motor	-5132
▁helpful	-5133
▁station	-5134
▁challenges	-5135
TH	-5136
pet	-5137
ste	-5138
semb	-5139
sequ	-5140
▁Penn	-5141
▁unless	-5142
ipl	-5143
▁"-	-5144
▁Dig	-5145
▁Jose	-5146
▁List	-5147
▁calc	-5148
▁ideal	-5149
▁sister	-5150
▁reality	-5151
OD	-5152
Com	-5153
van	-5154
ales	-5155
▁AND	-5156
▁twe	-5157
▁flex	-5158
enance	-5159
▁advent	-5160
▁detailed	-5161
▁direction	-5162
▁rid	-5163
▁Last	-5164
itness	-5165
▁brain	-5166
▁youth	-5167
▁century	-5168
▁princip	-5169
▁Security	-5170
▁corporate	-5171
fol	-5172
▁ir	-5173
▁arm	-5174
▁swim	-5175
▁adult	-5176
▁species	-5177
rehensive	-5178
▁birthday	-5179
▁maintain	-5180
icon	-5181
ivered	-5182
▁polic	-5183
▁athlet	-5184
▁filled	-5185
ano	-5186
arsh	-5187
imin	-5188
▁info	-5189
ilding	-5190
▁deals	-5191
▁shared	-5192
▁managed	-5193
▁launched	-5194
▁separate	-5195
▁efficient	-5196
23	-5197
NA	-5198
.00	-5199
▁CEO	-5200
▁esc	-5201
iques	-5202
▁Arts	-5203
▁boys	-5204
▁tree	-5205
▁hearing	-5206
▁walking	-5207
▁executive	-5208
fortunately	-5209
▁spl	-5210
▁alle	-5211
▁fuel	-5212
▁About	-5213
▁draft	-5214
▁guest	-5215
▁caught	-5216
▁wearing	-5217
▁structure	-5218
▁leadership	-5219
▁established	-5220
▁ingredients	-5221
rs	-5222
----	-5223
atin	-5224
iner	-5225
oute	-5226
▁Aud	-5227
▁Die	-5228
▁menu	-5229
▁earth	-5230
▁minor	-5231
▁greater	-5232
▁passion	-5233
▁researc	-5234
▁rat	-5235
▁sav	-5236
▁worry	-5237
▁licens	-5238
▁proced	-5239
▁browser	-5240
ait	-5241
lets	-5242
list	-5243
otic	-5244
▁Jul	-5245
▁sea	-5246
under	-5247
usion	-5248
▁sets	-5249
airman	-5250
▁Columb	-5251
abilities	-5252
▁concerns	-5253
▁architect	-5254
▁remaining	-5255
▁independent	-5256
atre	-5257
▁bac	-5258
▁Peter	-5259
▁apart	-5260
▁twice	-5261
arently	-5262
igation	-5263
▁houses	-5264
▁episode	-5265
▁alternative	-5266
27	-5267
ius	-5268
razy	-5269
with	-5270
▁aim	-5271
▁Full	-5272
▁Live	-5273
▁gear	-5274
ighter	-5275
▁dance	-5276
▁panel	-5277
▁exercise	-5278
▁photograph	-5279
PR	-5280
▁boo	-5281
There	-5282
reens	-5283
secut	-5284
▁milk	-5285
▁Radio	-5286
▁bread	-5287
▁Secret	-5288
▁Catholic	-5289
▁approved	-5290
▁fly	-5291
ourney	-5292
▁beauty	-5293
▁decide	-5294
▁confidence	-5295
oup	-5296
upp	-5297
▁Mat	-5298
▁initi	-5299
▁Manager	-5300
▁despite	-5301
▁purchased	-5302
▁commission	-5303
IF	-5304
vy	-5305
100	-5306
▁Fun	-5307
▁Gall	-5308
▁Chief	-5309
▁Africa	-5310
▁markets	-5311
▁teacher	-5312
▁tonight	-5313
▁controll	-5314
▁tomorrow	-5315
▁Fund	-5316
icians	-5317
lahoma	-5318
▁faith	-5319
▁honor	-5320
▁Access	-5321
▁estate	-5322
▁inches	-5323
▁society	-5324
pat	-5325
part	-5326
▁flu	-5327
▁index	-5328
▁France	-5329
ferences	-5330
▁exchange	-5331
▁numerous	-5332
1)	-5333
OV	-5334
obs	-5335
▁Id	-5336
▁NOT	-5337
▁tro	-5338
which	-5339
▁sequ	-5340
▁claims	-5341
▁topics	-5342
▁married	-5343
▁subscrib	-5344
▁websites	-5345
▁practices	-5346
nth	-5347
iest	-5348
irts	-5349
▁Lin	-5350
eline	-5351
oking	-5352
rooms	-5353
▁furn	-5354
▁films	-5355
▁accompl	-5356
▁degrees	-5357
▁Southern	-5358
▁accommod	-5359
DF	-5360
-200	-5361
weet	-5362
▁Tur	-5363
▁flat	-5364
▁psych	-5365
▁animal	-5366
▁parent	-5367
▁emergency	-5368
CT	-5369
nel	-5370
ups	-5371
▁Den	-5372
iture	-5373
ulous	-5374
▁Girl	-5375
▁argu	-5376
▁iPad	-5377
▁shots	-5378
▁Search	-5379
▁eating	-5380
▁Federal	-5381
▁calling	-5382
▁discover	-5383
▁Francisco	-5384
ca	-5385
▁rom	-5386
estic	-5387
▁Date	-5388
▁ring	-5389
▁Prote	-5390
▁missed	-5391
▁survey	-5392
▁intended	-5393
No	-5394
log	-5395
▁4.	-5396
ucks	-5397
▁fold	-5398
▁History	-5399
▁movement	-5400
▁decisions	-5401
mont	-5402
ribe	-5403
nding	-5404
▁Take	-5405
▁Vict	-5406
▁Arizona	-5407
▁Festival	-5408
▁teachers	-5409
▁copyright	-5410
EM	-5411
nAdd	-5412
▁Way	-5413
▁Next	-5414
▁diet	-5415
▁Michigan	-5416
▁visiting	-5417
▁Tre	-5418
▁harm	-5419
▁stret	-5420
▁consumers	-5421
▁IS	-5422
▁bra	-5423
▁der	-5424
known	-5425
▁Have	-5426
▁Earth	-5427
▁Forum	-5428
▁begins	-5429
▁explore	-5430
▁exclusive	-5431
▁investigation	-5432
▁4,	-5433
▁IP	-5434
\".\	-5435
▁Pan	-5436
rowse	-5437
▁teen	-5438
▁veget	-5439
▁accident	-5440
▁highlight	-5441
.|\	-5442
een	-5443
▁Page	-5444
▁gifts	-5445
▁tests	-5446
▁Italian	-5447
▁surgery	-5448
▁Children	-5449
▁installed	-5450
▁combination	-5451
izz	-5452
iser	-5453
▁Lee	-5454
▁Fair	-5455
▁anti	-5456
▁Elect	-5457
▁Games	-5458
▁downt	-5459
▁courses	-5460
▁officer	-5461
▁promote	-5462
):	-5463
ye	-5464
bre	-5465
hop	-5466
nPh	-5467
▁Bud	-5468
ician	-5469
▁tast	-5470
ushing	-5471
▁thick	-5472
▁transl	-5473
▁payment	-5474
▁marriage	-5475
▁MP	-5476
cles	-5477
atoes	-5478
▁edge	-5479
season	-5480
▁audio	-5481
▁incor	-5482
▁labor	-5483
▁owned	-5484
▁handle	-5485
▁submit	-5486
▁majority	-5487
▁worldwide	-5488
▁commitment	-5489
nm	-5490
iami	-5491
resp	-5492
▁Mel	-5493
nRead	-5494
▁Field	-5495
▁lunch	-5496
▁mostly	-5497
);	-5498
agr	-5499
mes	-5500
aded	-5501
onym	-5502
▁mur	-5503
▁Bell	-5504
nAbout	-5505
▁2011,	-5506
▁waste	-5507
▁Energy	-5508
▁sexual	-5509
▁seeking	-5510
▁injuries	-5511
▁policies	-5512
▁featuring	-5513
▁neighborhood	-5514
▁Jes	-5515
uable	-5516
▁seat	-5517
▁Night	-5518
▁Contact	-5519
▁consumer	-5520
▁responsibility	-5521
▁mo	-5522
ache	-5523
cont	-5524
nAny	-5525
▁theme	-5526
▁units	-5527
▁Jersey	-5528
ublished	-5529
▁Western	-5530
▁appearance	-5531
▁Cam	-5532
ancer	-5533
iminal	-5534
actions	-5535
iration	-5536
▁honest	-5537
▁losing	-5538
▁Government	-5539
▁GM	-5540
oted	-5541
▁eth	-5542
▁plug	-5543
▁sides	-5544
▁parties	-5545
▁hardware	-5546
▁inspired	-5547
▁strategy	-5548
▁experiences	-5549
ATE	-5550
arry	-5551
▁YOU	-5552
▁Hand	-5553
▁chicken	-5554
▁Download	-5555
▁Administr	-5556
Ex	-5557
igr	-5558
|"}	-5559
ello	-5560
▁cas	-5561
▁sup	-5562
▁debt	-5563
▁neck	-5564
profit	-5565
▁Brand	-5566
▁consid	-5567
▁arrange	-5568
▁delivered	-5569
▁generally	-5570
▁comprehensive	-5571
▁Max	-5572
nFind	-5573
astern	-5574
▁2010\	-5575
▁Their	-5576
▁valid	-5577
cluding	-5578
▁chosen	-5579
▁cities	-5580
▁garden	-5581
inations	-5582
▁Connect	-5583
▁extensive	-5584
▁university	-5585
▁accessories	-5586
iat	-5587
rid	-5588
gent	-5589
▁Wild	-5590
▁seemed	-5591
▁Academy	-5592
▁counter	-5593
▁hundreds	-5594
coh	-5595
nAd	-5596
▁Pay	-5597
cient	-5598
▁Land	-5599
▁Little	-5600
▁cheese	-5601
▁failed	-5602
▁plants	-5603
poration	-5604
▁becomes	-5605
▁focused	-5606
▁encourage	-5607
▁operation	-5608
BI	-5609
arp	-5610
lee	-5611
▁Jon	-5612
▁bike	-5613
▁rise	-5614
essions	-5615
▁female	-5616
Al	-5617
CA	-5618
awn	-5619
aver	-5620
oors	-5621
ffect	-5622
▁Econom	-5623
▁plastic	-5624
▁suspect	-5625
▁bringing	-5626
▁committee	-5627
GB	-5628
Wh	-5629
eat	-5630
osis	-5631
▁Fre	-5632
▁Mic	-5633
▁Rest	-5634
▁Soft	-5635
▁crew	-5636
▁tend	-5637
▁signs	-5638
▁truth	-5639
▁fantastic	-5640
35	-5641
EE	-5642
ias	-5643
▁cro	-5644
▁gay	-5645
▁desk	-5646
▁laws	-5647
▁oven	-5648
▁depart	-5649
▁speech	-5650
▁baseball	-5651
▁designer	-5652
▁familiar	-5653
▁measures	-5654
SE	-5655
UT	-5656
oz	-5657
hus	-5658
lyn	-5659
nPl	-5660
izza	-5661
▁Squ	-5662
▁row	-5663
aylor	-5664
▁appeal	-5665
▁pounds	-5666
▁ticket	-5667
▁holding	-5668
▁Division	-5669
7\	-5670
Con	-5671
▁45	-5672
agers	-5673
▁push	-5674
▁Daily	-5675
▁Party	-5676
▁frame	-5677
▁thread	-5678
▁Colorado	-5679
▁election	-5680
▁elements	-5681
RL	-5682
▁Er	-5683
anna	-5684
▁Sup	-5685
▁uns	-5686
abled	-5687
ritten	-5688
▁Middle	-5689
▁prison	-5690
▁answers	-5691
▁foreign	-5692
▁revenue	-5693
▁discount	-5694
▁permission	-5695
85	-5696
86	-5697
▁300	-5698
▁Sar	-5699
▁Tour	-5700
▁monthly	-5701
▁performed	-5702
elly	-5703
eria	-5704
▁Jenn	-5705
▁cake	-5706
▁core	-5707
▁Avenue	-5708
▁Master	-5709
▁fields	-5710
▁guitar	-5711
▁issued	-5712
▁mental	-5713
▁picked	-5714
▁arrived	-5715
▁cooking	-5716
▁flowers	-5717
▁recorded	-5718
▁establish	-5719
cM	-5720
-12	-5721
ker	-5722
nAr	-5723
▁Str	-5724
▁Lead	-5725
▁conv	-5726
terest	-5727
▁styles	-5728
▁posting	-5729
▁Williams	-5730
▁anywhere	-5731
▁sy	-5732
apes	-5733
▁Lim	-5734
nAlso	-5735
onent	-5736
ersonal	-5737
▁invent	-5738
▁switch	-5739
▁confirm	-5740
▁Minister	-5741
▁provider	-5742
uit	-5743
▁Adv	-5744
▁Ext	-5745
▁Fox	-5746
▁Rev	-5747
▁rule	-5748
▁cells	-5749
▁newsp	-5750
▁refer	-5751
▁shares	-5752
▁writer	-5753
ployment	-5754
▁conversation	-5755
▁automatically	-5756
hab	-5757
▁195	-5758
▁End	-5759
▁Far	-5760
▁Fed	-5761
▁Gar	-5762
▁Its	-5763
▁cry	-5764
▁rot	-5765
lights	-5766
▁metal	-5767
bu	-5768
hi	-5769
amin	-5770
aped	-5771
▁sad	-5772
erves	-5773
▁Test	-5774
▁restr	-5775
ictions	-5776
▁African	-5777
▁removed	-5778
inct	-5779
road	-5780
▁Steve	-5781
▁Video	-5782
▁analy	-5783
▁imagine	-5784
▁occasion	-5785
▁advertising	-5786
▁approximately	-5787
uts	-5788
▁AT	-5789
aser	-5790
icit	-5791
▁hun	-5792
▁unc	-5793
▁plate	-5794
▁Daniel	-5795
▁broken	-5796
▁stopped	-5797
▁arrested	-5798
▁offensive	-5799
▁restaurants	-5800
ean	-5801
ifer	-5802
▁10,	-5803
alled	-5804
endar	-5805
▁Pass	-5806
▁Place	-5807
▁mechan	-5808
▁relevant	-5809
▁thoughts	-5810
▁vacation	-5811
▁eventually	-5812
rad	-5813
gend	-5814
yard	-5815
▁Dev	-5816
onsin	-5817
▁Pack	-5818
▁taxes	-5819
nThanks	-5820
▁Author	-5821
isconsin	-5822
▁faculty	-5823
▁resource	-5824
cs	-5825
can	-5826
och	-5827
▁MS	-5828
▁Mid	-5829
▁bat	-5830
▁tun	-5831
▁Oper	-5832
▁hang	-5833
▁task	-5834
▁noted	-5835
▁awards	-5836
▁pulled	-5837
▁therap	-5838
▁visual	-5839
▁Although	-5840
▁capacity	-5841
▁distance	-5842
▁officers	-5843
▁tournament	-5844
An	-5845
appy	-5846
▁jew	-5847
▁ven	-5848
▁elig	-5849
elines	-5850
nOther	-5851
▁drugs	-5852
▁fifth	-5853
▁tells	-5854
▁hoping	-5855
▁council	-5856
▁innovative	-5857
▁installation	-5858
how	-5859
▁ge	-5860
nDes	-5861
oria	-5862
quar	-5863
▁Aff	-5864
▁Tri	-5865
eries	-5866
▁Disc	-5867
▁crime	-5868
▁evalu	-5869
▁freed	-5870
▁sitting	-5871
▁behavior	-5872
▁citizens	-5873
▁millions	-5874
▁receiving	-5875
▁Environment	-5876
UN	-5877
udden	-5878
▁Cast	-5879
▁Data	-5880
▁Site	-5881
▁doubt	-5882
▁truck	-5883
ensions	-5884
merican	-5885
▁agencies	-5886
▁identify	-5887
▁described	-5888
ya	-5889
▁5,	-5890
nSee	-5891
▁$10	-5892
▁Box	-5893
▁tab	-5894
inois	-5895
urban	-5896
▁Kent	-5897
▁kill	-5898
▁mine	-5899
ression	-5900
OC	-5901
▁(5	-5902
▁16,	-5903
adium	-5904
▁Bowl	-5905
▁burn	-5906
▁forg	-5907
▁whom	-5908
▁Coast	-5909
▁Organ	-5910
▁craft	-5911
▁hopes	-5912
▁brands	-5913
▁lights	-5914
▁values	-5915
▁clearly	-5916
43	-5917
bar	-5918
iki	-5919
illy	-5920
▁12,	-5921
▁aid	-5922
adian	-5923
▁Carl	-5924
▁Cook	-5925
▁vent	-5926
▁Diego	-5927
▁holds	-5928
▁agreed	-5929
▁contem	-5930
▁covers	-5931
▁debate	-5932
▁native	-5933
▁edition	-5934
▁planned	-5935
▁Mountain	-5936
▁delicious	-5937
▁absolutely	-5938
arly	-5939
look	-5940
▁Bra	-5941
▁Cat	-5942
▁ends	-5943
iamond	-5944
▁Thank	-5945
▁mouth	-5946
▁Invest	-5947
▁expensive	-5948
▁researchers	-5949
21	-5950
!!\	-5951
ario	-5952
game	-5953
▁mel	-5954
idays	-5955
reate	-5956
▁hasn	-5957
▁Maybe	-5958
▁Offic	-5959
▁Young	-5960
▁teach	-5961
▁Mobile	-5962
▁fellow	-5963
▁forced	-5964
▁powder	-5965
▁greatest	-5966
▁mentioned	-5967
▁basketball	-5968
col	-5969
ria	-5970
▁6,	-5971
..."}	-5972
ender	-5973
iency	-5974
▁Asia	-5975
▁Nick	-5976
▁pump	-5977
▁soph	-5978
orters	-5979
▁talks	-5980
uration	-5981
▁lovely	-5982
▁prepare	-5983
2)	-5984
eah	-5985
▁3-	-5986
▁32	-5987
itan	-5988
nWhy	-5989
▁Ell	-5990
▁Ray	-5991
allas	-5992
redit	-5993
▁cuts	-5994
▁none	-5995
▁beach	-5996
▁feels	-5997
▁funny	-5998
▁trees	-5999
▁cutting	-6000
▁dropped	-6001
▁housing	-6002
▁outdoor	-6003
▁Hollywood	-6004
PM	-6005
cO	-6006
elry	-6007
foot	-6008
ikes	-6009
iors	-6010
▁sam	-6011
▁tow	-6012
▁situ	-6013
▁judge	-6014
▁bigger	-6015
▁resist	-6016
▁properties	-6017
▁MD	-6018
▁15,	-6019
▁Inn	-6020
prise	-6021
▁bond	-6022
▁tack	-6023
▁vary	-6024
▁pitch	-6025
▁serves	-6026
▁ceremon	-6027
▁confident	-6028
TA	-6029
▁Hun	-6030
lines	-6031
merce	-6032
nView	-6033
poses	-6034
▁Step	-6035
▁corn	-6036
ixture	-6037
▁dates	-6038
▁guard	-6039
▁Contin	-6040
▁instru	-6041
▁rental	-6042
ometimes	-6043
▁applied	-6044
▁accurate	-6045
▁generation	-6046
▁specifically	-6047
tra	-6048
More	-6049
▁Veg	-6050
▁Keep	-6051
▁favour	-6052
▁forces	-6053
▁alleged	-6054
▁graduate	-6055
▁celebrate	-6056
azon	-6057
uses	-6058
▁Bas	-6059
▁Yes	-6060
anche	-6061
▁Plus	-6062
weight	-6063
▁Broad	-6064
▁Const	-6065
▁fruit	-6066
▁detect	-6067
▁flight	-6068
▁reform	-6069
▁explain	-6070
▁Communic	-6071
▁improved	-6072
▁possibly	-6073
▁Australian	-6074
kes	-6075
▁NFL	-6076
▁wid	-6077
ports	-6078
▁boot	-6079
nCheck	-6080
▁nucle	-6081
▁steel	-6082
▁museum	-6083
nDon	-6084
real	-6085
▁yes	-6086
enses	-6087
letter	-6088
▁sauce	-6089
nHowever	-6090
▁Support	-6091
▁Oklahoma	-6092
▁supported	-6093
ba	-6094
lock	-6095
▁11,	-6096
verse	-6097
▁Miami	-6098
▁config	-6099
▁journey	-6100
▁license	-6101
▁trouble	-6102
▁Reserved	-6103
66	-6104
ua	-6105
iro	-6106
▁$4	-6107
▁Lt	-6108
utor	-6109
▁Equ	-6110
▁Inf	-6111
▁Leg	-6112
▁Low	-6113
▁tag	-6114
arian	-6115
cohol	-6116
▁Room	-6117
▁dram	-6118
▁fees	-6119
▁male	-6120
▁quiet	-6121
▁baking	-6122
▁Charles	-6123
▁presence	-6124
▁concerned	-6125
▁recommended	-6126
da	-6127
nEn	-6128
ycl	-6129
▁14,	-6130
▁wal	-6131
regon	-6132
▁Base	-6133
▁Tech	-6134
▁vice	-6135
abetes	-6136
▁Human	-6137
▁sympt	-6138
▁village	-6139
▁scholars	-6140
▁Executive	-6141
29	-6142
lete	-6143
rier	-6144
▁Walk	-6145
▁Word	-6146
▁advoc	-6147
▁crazy	-6148
▁flour	-6149
▁flavor	-6150
▁rating	-6151
▁Japanese	-6152
▁purposes	-6153
▁buildings	-6154
▁maintenance	-6155
RI	-6156
cT	-6157
800	-6158
▁Bo	-6159
▁Sus	-6160
aters	-6161
▁Both	-6162
▁Brad	-6163
▁jack	-6164
▁worse	-6165
▁Centre	-6166
▁stated	-6167
▁volume	-6168
▁drivers	-6169
▁supposed	-6170
ml	-6171
How	-6172
▁Ut	-6173
adel	-6174
nSub	-6175
▁Gra	-6176
▁NAS	-6177
irmed	-6178
▁chat	-6179
▁hurt	-6180
ampion	-6181
▁cloud	-6182
▁flood	-6183
related	-6184
▁During	-6185
▁cookies	-6186
▁seasons	-6187
yer	-6188
▁Hen	-6189
▁ang	-6190
▁tea	-6191
▁Cost	-6192
▁arts	-6193
▁mode	-6194
uction	-6195
▁lived	-6196
▁Friend	-6197
▁gather	-6198
▁sector	-6199
▁entered	-6200
▁minimum	-6201
▁returns	-6202
▁totally	-6203
▁components	-6204
▁communication	-6205
HL	-6206
rum	-6207
spe	-6208
▁gro	-6209
ockey	-6210
▁Lind	-6211
▁Vers	-6212
▁apps	-6213
▁auth	-6214
▁fear	-6215
ership	-6216
isters	-6217
▁Paris	-6218
▁doors	-6219
▁folks	-6220
▁optim	-6221
▁Global	-6222
▁Romney	-6223
▁command	-6224
▁ordered	-6225
forcement	-6226
▁violence	-6227
▁discovered	-6228
▁36	-6229
▁Cub	-6230
▁Set	-6231
▁nor	-6232
▁pal	-6233
▁spr	-6234
▁Guide	-6235
▁vision	-6236
▁accounts	-6237
▁cultural	-6238
boy	-6239
ien	-6240
nMr	-6241
hent	-6242
▁18,	-6243
▁Pop	-6244
▁Pot	-6245
▁rub	-6246
aints	-6247
▁lock	-6248
▁seed	-6249
nSince	-6250
▁Price	-6251
▁Awards	-6252
▁enthus	-6253
▁messages	-6254
▁surprise	-6255
▁broadcast	-6256
▁religious	-6257
▁introduced	-6258
▁recognized	-6259
▁outstanding	-6260
ERS	-6261
iana	-6262
berry	-6263
▁Ford	-6264
▁Kenn	-6265
▁beer	-6266
▁Santa	-6267
▁Vegas	-6268
▁rough	-6269
▁Taylor	-6270
▁attacks	-6271
▁climate	-6272
▁regional	-6273
▁supports	-6274
▁According	-6275
▁breakfast	-6276
▁guarantee	-6277
▁relationships	-6278
AY	-6279
eler	-6280
otal	-6281
▁17,	-6282
▁Tem	-6283
▁fro	-6284
▁ign	-6285
▁lux	-6286
hered	-6287
idden	-6288
▁Hard	-6289
▁cups	-6290
▁faster	-6291
▁Control	-6292
▁trading	-6293
▁Illinois	-6294
▁feedback	-6295
▁competitive	-6296
ERE	-6297
▁33	-6298
▁du	-6299
2010	-6300
inem	-6301
▁ast	-6302
▁dyn	-6303
▁pit	-6304
arrow	-6305
▁Tool	-6306
ouston	-6307
▁Staff	-6308
▁grown	-6309
▁carbon	-6310
▁offices	-6311
▁realize	-6312
▁chemical	-6313
▁extended	-6314
▁functions	-6315
▁instructions	-6316
LY	-6317
ora	-6318
bury	-6319
umes	-6320
▁Eag	-6321
▁Kim	-6322
▁Ros	-6323
▁mir	-6324
inals	-6325
ospit	-6326
▁Expl	-6327
▁Rose	-6328
▁grew	-6329
▁sizes	-6330
▁compar	-6331
▁critic	-6332
▁domain	-6333
▁tradem	-6334
▁delight	-6335
▁telling	-6336
▁downtown	-6337
▁defensive	-6338
▁Jr	-6339
▁OR	-6340
nRec	-6341
▁die	-6342
▁dish	-6343
▁ille	-6344
▁Quest	-6345
▁coast	-6346
▁conce	-6347
▁debut	-6348
▁negot	-6349
▁facing	-6350
▁tracks	-6351
▁maximum	-6352
▁considering	-6353
DS	-6354
▁Wi	-6355
aska	-6356
▁Ram	-6357
▁2004	-6358
▁tall	-6359
nToday	-6360
▁2013,	-6361
▁intellig	-6362
▁perfectly	-6363
▁originally	-6364
acle	-6365
erts	-6366
iano	-6367
▁ped	-6368
▁tail	-6369
▁Drive	-6370
▁leads	-6371
▁landsc	-6372
▁silver	-6373
▁weekly	-6374
▁yellow	-6375
iversary	-6376
▁criminal	-6377
▁appreciate	-6378
▁resolution	-6379
pass	-6380
▁Bul	-6381
▁unf	-6382
▁Farm	-6383
▁util	-6384
nFirst	-6385
orough	-6386
▁cheap	-6387
▁keeps	-6388
oration	-6389
▁Magazine	-6390
▁internal	-6391
▁Wisconsin	-6392
▁transform	-6393
28	-6394
sey	-6395
tle	-6396
nApp	-6397
▁20,	-6398
▁nav	-6399
▁Army	-6400
▁Lady	-6401
▁Trust	-6402
▁agent	-6403
▁foods	-6404
▁lists	-6405
▁repair	-6406
▁printed	-6407
▁univers	-6408
▁interests	-6409
▁convenient	-6410
▁distribution	-6411
▁Opt	-6412
▁Van	-6413
▁bear	-6414
▁mini	-6415
▁pink	-6416
▁thin	-6417
estyle	-6418
▁Cross	-6419
▁Davis	-6420
▁Follow	-6421
▁Atlanta	-6422
▁accepted	-6423
▁proposed	-6424
▁perspective	-6425
▁presentation	-6426
va	-6427
▁CH	-6428
suit	-6429
uous	-6430
▁21,	-6431
ashed	-6432
burgh	-6433
▁glad	-6434
▁hero	-6435
ickets	-6436
▁Store	-6437
▁joint	-6438
▁liber	-6439
▁constit	-6440
▁decades	-6441
▁clothing	-6442
New	-6443
nFr	-6444
▁Bi	-6445
▁ce	-6446
born	-6447
irty	-6448
ndom	-6449
phas	-6450
▁Hom	-6451
apped	-6452
▁mort	-6453
▁turns	-6454
▁Jewish	-6455
▁Kansas	-6456
▁pepper	-6457
▁sudden	-6458
▁windows	-6459
▁settings	-6460
▁connected	-6461
▁reporting	-6462
!)	-6463
bro	-6464
▁SP	-6465
nSte	-6466
▁13,	-6467
▁Harr	-6468
▁golf	-6469
▁pray	-6470
▁Dream	-6471
▁actions	-6472
▁conflic	-6473
▁awareness	-6474
▁registration	-6475
.'	-6476
oga	-6477
▁(4	-6478
▁Ep	-6479
▁Kat	-6480
▁Sat	-6481
▁Tig	-6482
etime	-6483
plete	-6484
▁Lord	-6485
▁ages	-6486
▁blow	-6487
▁cute	-6488
ansion	-6489
▁Works	-6490
▁fighting	-6491
▁meetings	-6492
▁depending	-6493
▁positions	-6494
▁determined	-6495
▁electronic	-6496
GA	-6497
alo	-6498
aly	-6499
iti	-6500
dale	-6501
mary	-6502
rast	-6503
inder	-6504
▁Help	-6505
▁iron	-6506
▁Jesus	-6507
▁affil	-6508
▁laugh	-6509
▁rapid	-6510
▁Second	-6511
▁perman	-6512
▁freedom	-6513
▁technologies	-6514
EST	-6515
idi	-6516
ogs	-6517
▁75	-6518
▁AR	-6519
nMon	-6520
nRes	-6521
▁Hon	-6522
▁Isl	-6523
abama	-6524
print	-6525
uting	-6526
▁Area	-6527
▁Foot	-6528
▁Four	-6529
▁thus	-6530
ternal	-6531
▁Smart	-6532
▁abuse	-6533
▁upper	-6534
▁Policy	-6535
▁random	-6536
▁properly	-6537
▁supplies	-6538
On	-6539
omy	-6540
▁7,	-6541
▁ok	-6542
odge	-6543
osit	-6544
wear	-6545
▁30,	-6546
▁Son	-6547
▁Span	-6548
▁bare	-6549
▁coup	-6550
▁meal	-6551
asters	-6552
▁Brian	-6553
▁concern	-6554
▁festival	-6555
▁revealed	-6556
▁valuable	-6557
ailability	-6558
▁processing	-6559
TC	-6560
gs	-6561
nDr	-6562
▁FA	-6563
onna	-6564
▁Hor	-6565
▁Lab	-6566
essed	-6567
shire	-6568
▁Start	-6569
▁advis	-6570
▁route	-6571
▁Dallas	-6572
▁attended	-6573
▁historic	-6574
▁ourselves	-6575
Ar	-6576
nof	-6577
▁48	-6578
▁CN	-6579
icket	-6580
oster	-6581
▁2009\	-6582
▁chain	-6583
▁Indust	-6584
▁stretch	-6585
lementary	-6586
▁professor	-6587
By	-6588
owa	-6589
pty	-6590
▁Sn	-6591
▁Orig	-6592
▁luck	-6593
ulture	-6594
▁2010,	-6595
▁trend	-6596
▁closer	-6597
▁paying	-6598
▁upload	-6599
▁Whether	-6600
▁mixture	-6601
▁recipes	-6602
▁Training	-6603
▁reference	-6604
▁therefore	-6605
All	-6606
mar	-6607
nIs	-6608
nUs	-6609
▁09	-6610
▁LA	-6611
mosp	-6612
page	-6613
▁adm	-6614
▁Hope	-6615
▁disp	-6616
▁impl	-6617
▁seek	-6618
▁wins	-6619
▁filed	-6620
▁conver	-6621
▁Systems	-6622
▁noticed	-6623
▁playoff	-6624
▁Copyright	-6625
▁investors	-6626
▁importance	-6627
▁surrounding	-6628
CD	-6629
fe	-6630
high	-6631
phia	-6632
▁Sea	-6633
▁odd	-6634
rible	-6635
urric	-6636
▁2003	-6637
▁Prem	-6638
▁poly	-6639
▁rail	-6640
▁grade	-6641
▁letters	-6642
▁influence	-6643
▁legislation	-6644
Ph	-6645
fs	-6646
ext	-6647
non	-6648
▁ET	-6649
rupt	-6650
umin	-6651
wart	-6652
▁amb	-6653
▁ben	-6654
▁pun	-6655
▁Bush	-6656
▁meat	-6657
apping	-6658
▁renew	-6659
▁resol	-6660
▁sorry	-6661
adelphia	-6662
▁Digital	-6663
▁pleased	-6664
▁searching	-6665
▁impressive	-6666
▁techniques	-6667
nor	-6668
▁ML	-6669
▁OS	-6670
host	-6671
ista	-6672
▁Bon	-6673
▁Bow	-6674
amber	-6675
▁inch	-6676
intend	-6677
▁delay	-6678
▁faces	-6679
▁loves	-6680
nFollow	-6681
respond	-6682
ographic	-6683
▁Seattle	-6684
▁gallery	-6685
▁Northern	-6686
▁5.	-6687
ahoo	-6688
cons	-6689
▁23,	-6690
▁Rod	-6691
▁Ron	-6692
▁Sky	-6693
▁cra	-6694
yrics	-6695
▁west	-6696
uality	-6697
▁boost	-6698
▁Andrew	-6699
▁Disney	-6700
▁Oregon	-6701
▁profit	-6702
▁enhance	-6703
▁figures	-6704
▁illustr	-6705
▁weapons	-6706
▁recovery	-6707
▁standing	-6708
CS	-6709
ban	-6710
oil	-6711
▁Ash	-6712
▁Ken	-6713
rence	-6714
uters	-6715
▁bound	-6716
▁scale	-6717
▁island	-6718
▁titles	-6719
▁turning	-6720
▁symptoms	-6721
▁Secretary	-6722
▁candidates	-6723
05	-6724
GE	-6725
Is	-6726
VER	-6727
phy	-6728
▁08	-6729
ella	-6730
ican	-6731
ogue	-6732
ouch	-6733
rics	-6734
▁27,	-6735
▁bon	-6736
▁Look	-6737
▁motiv	-6738
▁reward	-6739
▁studio	-6740
▁Justice	-6741
▁aspects	-6742
▁premium	-6743
▁affected	-6744
▁happening	-6745
▁suggested	-6746
▁authorities	-6747
Pl	-6748
▁ec	-6749
gage	-6750
▁FOR	-6751
▁Gen	-6752
agues	-6753
bsite	-6754
▁Tenn	-6755
▁surf	-6756
nesota	-6757
▁simpl	-6758
▁dining	-6759
▁reader	-6760
▁tested	-6761
▁analyst	-6762
▁division	-6763
▁regularly	-6764
ava	-6765
bol	-6766
ran	-6767
aron	-6768
ilty	-6769
claim	-6770
ework	-6771
gment	-6772
nMost	-6773
▁adds	-6774
▁sick	-6775
▁Italy	-6776
▁centre	-6777
▁satisf	-6778
▁factors	-6779
▁organic	-6780
▁packages	-6781
▁versions	-6782
▁interface	-6783
▁employment	-6784
UM	-6785
case	-6786
ingu	-6787
long	-6788
▁resc	-6789
▁Linux	-6790
▁likes	-6791
▁usual	-6792
ication	-6793
▁Assist	-6794
▁Summer	-6795
▁output	-6796
▁severe	-6797
▁invited	-6798
▁reduced	-6799
▁supporting	-6800
64	-6801
HS	-6802
nOr	-6803
nCon	-6804
▁Own	-6805
eller	-6806
nOver	-6807
▁Space	-6808
▁strip	-6809
iations	-6810
▁Miller	-6811
▁battery	-6812
▁employee	-6813
▁examples	-6814
▁incident	-6815
▁categories	-6816
Ad	-6817
kee	-6818
utch	-6819
▁Key	-6820
enced	-6821
ensus	-6822
▁hate	-6823
▁hook	-6824
▁wash	-6825
▁voters	-6826
▁walked	-6827
▁Through	-6828
▁herself	-6829
▁streets	-6830
▁tradition	-6831
3)	-6832
ati	-6833
obby	-6834
rate	-6835
▁Bru	-6836
▁Jay	-6837
▁tur	-6838
▁Prov	-6839
▁Shop	-6840
▁hell	-6841
orable	-6842
scribe	-6843
▁Liber	-6844
▁fixed	-6845
▁liked	-6846
unction	-6847
▁victim	-6848
▁Germany	-6849
▁failure	-6850
▁apparently	-6851
▁identified	-6852
▁incredible	-6853
II	-6854
car	-6855
fts	-6856
ulf	-6857
▁07	-6858
▁194	-6859
▁Ira	-6860
▁joy	-6861
▁wel	-6862
eting	-6863
▁Mult	-6864
▁arms	-6865
▁dial	-6866
acking	-6867
▁Where	-6868
▁column	-6869
▁emphas	-6870
▁hosted	-6871
▁trends	-6872
▁unable	-6873
▁musical	-6874
▁creation	-6875
▁candidate	-6876
▁processes	-6877
▁foundation	-6878
▁volunteers	-6879
▁Corporation	-6880
ala	-6881
run	-6882
▁.\	-6883
▁FL	-6884
keep	-6885
▁Oak	-6886
▁sew	-6887
▁vir	-6888
anges	-6889
ylvan	-6890
▁$100	-6891
▁Code	-6892
▁Join	-6893
▁inqu	-6894
aduate	-6895
▁Three	-6896
▁input	-6897
▁breast	-6898
▁filter	-6899
▁linked	-6900
missions	-6901
▁hosting	-6902
▁treated	-6903
▁Canadian	-6904
▁confirmed	-6905
▁dangerous	-6906
▁industrial	-6907
▁membership	-6908
▁partnership	-6909
ded	-6910
nQu	-6911
▁22,	-6912
▁LLC	-6913
▁Ltd	-6914
▁Mrs	-6915
Story	-6916
▁Rand	-6917
▁Learn	-6918
▁mixed	-6919
▁causes	-6920
▁junior	-6921
▁sample	-6922
▁Airport	-6923
▁Spanish	-6924
▁painting	-6925
▁photograp	-6926
>\	-6927
▁(\	-6928
-2013	-6929
ATION	-6930
▁eggs	-6931
▁pure	-6932
▁Kevin	-6933
▁Those	-6934
▁Applic	-6935
▁crisis	-6936
▁forest	-6937
▁strike	-6938
▁Student	-6939
▁involve	-6940
▁massive	-6941
▁victims	-6942
▁addresses	-6943
▁scientists	-6944
▁participants	-6945
xy	-6946
oir	-6947
▁Ul	-6948
With	-6949
▁ris	-6950
▁wet	-6951
anged	-6952
osite	-6953
rical	-6954
▁auto	-6955
▁east	-6956
▁broke	-6957
▁atmosp	-6958
▁height	-6959
▁phones	-6960
▁stands	-6961
▁doctors	-6962
▁politics	-6963
▁typically	-6964
CO	-6965
ls	-6966
▁Las	-6967
▁dim	-6968
cknow	-6969
using	-6970
▁Fred	-6971
▁Know	-6972
▁soul	-6973
ounded	-6974
▁Local	-6975
▁Major	-6976
▁Using	-6977
▁horse	-6978
▁occup	-6979
▁quant	-6980
▁Garden	-6981
▁Travel	-6982
▁colour	-6983
▁Alabama	-6984
▁concert	-6985
▁coordin	-6986
▁nuclear	-6987
▁ceremony	-6988
▁eligible	-6989
▁furniture	-6990
▁developers	-6991
▁significantly	-6992
▁8,	-6993
▁9,	-6994
▁USB	-6995
▁rum	-6996
ented	-6997
heast	-6998
stone	-6999
▁Watch	-7000
▁cycle	-7001
▁flash	-7002
onymous	-7003
▁blocks	-7004
▁franch	-7005
iability	-7006
▁choices	-7007
▁drawing	-7008
▁injured	-7009
▁entirely	-7010
▁volunteer	-7011
''	-7012
97	-7013
PD	-7014
bo	-7015
▁($	-7016
▁03	-7017
▁37	-7018
▁PA	-7019
▁24,	-7020
▁CON	-7021
athan	-7022
cycle	-7023
iscal	-7024
▁Golf	-7025
▁boat	-7026
▁icon	-7027
▁logo	-7028
▁moder	-7029
utional	-7030
▁refund	-7031
▁struct	-7032
▁passing	-7033
ifications	-7034
▁apartment	-7035
▁percentage	-7036
▁Republicans	-7037
cC	-7038
oore	-7039
anger	-7040
power	-7041
▁Stat	-7042
iously	-7043
▁Hills	-7044
▁Safety	-7045
▁Season	-7046
▁Silver	-7047
▁arrive	-7048
▁Houston	-7049
▁Pacific	-7050
▁Studies	-7051
▁guarante	-7052
▁Minnesota	-7053
Up	-7054
erg	-7055
iece	-7056
nPre	-7057
star	-7058
▁28,	-7059
▁Dom	-7060
dated	-7061
▁Note	-7062
▁Sept	-7063
▁bars	-7064
▁flav	-7065
▁hall	-7066
▁sole	-7067
cluded	-7068
▁merch	-7069
▁retire	-7070
▁Country	-7071
▁Maryland	-7072
▁surprised	-7073
84	-7074
oses	-7075
stra	-7076
▁150	-7077
▁tie	-7078
▁Iraq	-7079
intage	-7080
pected	-7081
▁skill	-7082
akistan	-7083
▁remote	-7084
▁superv	-7085
▁authors	-7086
▁portion	-7087
▁typical	-7088
ibilities	-7089
▁approval	-7090
EA	-7091
RS	-7092
To	-7093
sen	-7094
▁MO	-7095
▁400	-7096
nJoin	-7097
odies	-7098
otton	-7099
▁Film	-7100
▁nurs	-7101
▁phil	-7102
▁spin	-7103
▁vend	-7104
▁dough	-7105
▁worst	-7106
▁nearby	-7107
▁joining	-7108
▁scientific	-7109
▁improvement	-7110
==	-7111
Bl	-7112
UL	-7113
ih	-7114
nAm	-7115
nPr	-7116
zer	-7117
▁Lo	-7118
▁Mo	-7119
▁Gro	-7120
▁hyd	-7121
acked	-7122
▁iPod	-7123
▁ment	-7124
▁rear	-7125
nThank	-7126
sembly	-7127
▁spoke	-7128
▁matters	-7129
▁ongoing	-7130
▁watched	-7131
▁Anderson	-7132
▁everyday	-7133
▁sessions	-7134
▁conducted	-7135
▁returning	-7136
Un	-7137
cD	-7138
sm	-7139
!!!	-7140
ghan	-7141
▁Sav	-7142
▁dur	-7143
▁obt	-7144
2019\	-7145
folio	-7146
▁(200	-7147
▁eleg	-7148
▁loan	-7149
▁Creat	-7150
▁goods	-7151
ologist	-7152
▁unlike	-7153
▁anticip	-7154
▁knowing	-7155
▁networks	-7156
▁encouraged	-7157
▁Philadelphia	-7158
▁successfully	-7159
▁manufacturing	-7160
▁01	-7161
▁HP	-7162
2011	-7163
alty	-7164
nPol	-7165
roit	-7166
umer	-7167
▁19,	-7168
▁Run	-7169
....\	-7170
uster	-7171
▁[...	-7172
rition	-7173
▁climb	-7174
▁moves	-7175
▁trips	-7176
utation	-7177
▁decade	-7178
▁termin	-7179
▁carried	-7180
▁younger	-7181
▁believes	-7182
▁submitted	-7183
▁continuing	-7184
▁interactive	-7185
96	-7186
nTr	-7187
They	-7188
imer	-7189
rome	-7190
uter	-7191
▁Ire	-7192
▁pil	-7193
▁sac	-7194
▁sky	-7195
achel	-7196
ilton	-7197
▁Iran	-7198
▁lapt	-7199
istrib	-7200
▁Jason	-7201
▁adapt	-7202
▁prepar	-7203
▁capture	-7204
▁fishing	-7205
▁patterns	-7206
▁suffered	-7207
▁description	-7208
And	-7209
amon	-7210
ione	-7211
ixth	-7212
▁1-8	-7213
▁800	-7214
▁Lew	-7215
cover	-7216
ordan	-7217
▁Turn	-7218
▁mile	-7219
▁tank	-7220
cludes	-7221
▁marks	-7222
▁sheet	-7223
▁conserv	-7224
▁leather	-7225
▁describe	-7226
▁computers	-7227
▁immediate	-7228
afe	-7229
uan	-7230
vas	-7231
onto	-7232
▁26,	-7233
▁Cir	-7234
▁Pow	-7235
▁Hawai	-7236
▁Order	-7237
▁depth	-7238
▁Instead	-7239
▁alcohol	-7240
▁matches	-7241
▁attorney	-7242
▁interior	-7243
▁negative	-7244
▁warranty	-7245
nb	-7246
via	-7247
▁34	-7248
▁Mov	-7249
▁Ren	-7250
▁Rog	-7251
▁Tit	-7252
▁pin	-7253
class	-7254
poons	-7255
uling	-7256
▁rose	-7257
▁zone	-7258
▁wheel	-7259
ossible	-7260
▁acknow	-7261
▁narrow	-7262
▁script	-7263
▁writes	-7264
▁airport	-7265
▁creates	-7266
▁carefully	-7267
▁organized	-7268
▁constantly	-7269
▁disappoint	-7270
36	-7271
SD	-7272
des	-7273
law	-7274
cers	-7275
nLet	-7276
▁pod	-7277
owned	-7278
▁Iowa	-7279
▁Rick	-7280
▁Writ	-7281
▁rein	-7282
makers	-7283
▁Korea	-7284
▁Motor	-7285
▁Story	-7286
▁noise	-7287
ylvania	-7288
▁garlic	-7289
▁pocket	-7290
▁concent	-7291
▁offense	-7292
▁discussed	-7293
▁contribute	-7294
▁historical	-7295
eep	-7296
nam	-7297
ouri	-7298
▁$1.	-7299
▁Ave	-7300
elect	-7301
ially	-7302
inson	-7303
▁Utah	-7304
▁liqu	-7305
▁stir	-7306
▁Brook	-7307
▁aside	-7308
▁lucky	-7309
▁pharm	-7310
▁organis	-7311
▁sending	-7312
▁cleaning	-7313
▁speaking	-7314
▁recording	-7315
▁performing	-7316
BO	-7317
▁55	-7318
▁Ly	-7319
▁MA	-7320
flow	-7321
▁25,	-7322
▁Does	-7323
▁Scot	-7324
▁Supp	-7325
▁warn	-7326
▁heads	-7327
▁prove	-7328
▁spots	-7329
▁guilty	-7330
▁Station	-7331
including	-7332
▁requests	-7333
▁spokesman	-7334
▁celebration	-7335
▁announcement	-7336
34	-7337
So	-7338
nCan	-7339
▁Try	-7340
nSign	-7341
▁Barb	-7342
▁bags	-7343
▁Harry	-7344
▁Sound	-7345
▁moist	-7346
▁voted	-7347
ultural	-7348
▁Credit	-7349
▁murder	-7350
▁complic	-7351
▁frequently	-7352
▁programming	-7353
▁suggestions	-7354
▁institutions	-7355
?\"	-7356
▁Ro	-7357
olis	-7358
▁kit	-7359
▁wra	-7360
enger	-7361
itage	-7362
osoph	-7363
▁Type	-7364
▁weak	-7365
orders	-7366
▁Flash	-7367
▁crash	-7368
▁Before	-7369
▁excess	-7370
▁stream	-7371
▁taught	-7372
▁follows	-7373
▁promise	-7374
▁trained	-7375
▁lighting	-7376
▁correspond	-7377
▁strategies	-7378
EG	-7379
Tr	-7380
cL	-7381
cm	-7382
zes	-7383
▁BB	-7384
abeth	-7385
iform	-7386
▁Requ	-7387
▁styl	-7388
▁finds	-7389
iveness	-7390
orgeous	-7391
▁illegal	-7392
▁infrast	-7393
▁privacy	-7394
▁savings	-7395
▁machines	-7396
▁wireless	-7397
▁practical	-7398
▁engineering	-7399
▁Administration	-7400
87	-7401
ta	-7402
ras	-7403
uls	-7404
▁Ma	-7405
▁Ve	-7406
▁Bal	-7407
▁ham	-7408
level	-7409
stein	-7410
▁Dark	-7411
▁Eric	-7412
ildren	-7413
▁Penns	-7414
▁enable	-7415
▁proven	-7416
▁Express	-7417
▁Members	-7418
▁authent	-7419
▁visited	-7420
▁witness	-7421
▁assistant	-7422
▁providers	-7423
▁affordable	-7424
Ed	-7425
bd	-7426
nl	-7427
▁$6	-7428
nfor	-7429
vell	-7430
▁tip	-7431
essee	-7432
nHave	-7433
▁Hart	-7434
▁Made	-7435
▁maps	-7436
▁vast	-7437
icking	-7438
▁pizza	-7439
▁shirt	-7440
▁spark	-7441
resents	-7442
▁Amazon	-7443
▁hotels	-7444
▁fitness	-7445
▁justice	-7446
▁objects	-7447
▁routine	-7448
▁viewing	-7449
▁directed	-7450
▁collected	-7451
/3	-7452
PI	-7453
Sc	-7454
!\"	-7455
uis	-7456
you	-7457
bles	-7458
pson	-7459
▁Toy	-7460
▁arg	-7461
▁obl	-7462
etary	-7463
▁Cert	-7464
▁Cond	-7465
▁Tony	-7466
▁2008\	-7467
▁walls	-7468
▁Cancer	-7469
▁lyrics	-7470
▁remark	-7471
▁context	-7472
▁Software	-7473
▁mountain	-7474
At	-7475
-20	-7476
tic	-7477
▁Cab	-7478
▁Cru	-7479
ether	-7480
▁Fall	-7481
▁Kids	-7482
▁rice	-7483
▁bench	-7484
ception	-7485
▁encoun	-7486
▁enroll	-7487
▁fairly	-7488
formance	-7489
▁protein	-7490
▁winners	-7491
▁clinical	-7492
▁effectively	-7493
37	-7494
cG	-7495
Our	-7496
mal	-7497
uten	-7498
▁Fac	-7499
▁PDF	-7500
▁2001	-7501
▁2002	-7502
▁Bern	-7503
▁Josh	-7504
▁hole	-7505
▁susp	-7506
▁Force	-7507
▁Ocean	-7508
▁Queen	-7509
▁amend	-7510
▁desire	-7511
▁papers	-7512
▁riding	-7513
▁theory	-7514
▁chances	-7515
▁channel	-7516
▁chapter	-7517
▁clothes	-7518
▁shouldn	-7519
▁believed	-7520
▁reliable	-7521
▁estimated	-7522
▁extension	-7523
▁signature	-7524
▁accessible	-7525
▁experiment	-7526
aud	-7527
uer	-7528
iley	-7529
ints	-7530
made	-7531
rell	-7532
▁Ath	-7533
▁Cra	-7534
▁Pit	-7535
elson	-7536
ingly	-7537
nMany	-7538
prene	-7539
▁2009,	-7540
▁Index	-7541
▁Phone	-7542
▁stone	-7543
▁Server	-7544
American	-7545
friendly	-7546
▁entries	-7547
▁forever	-7548
▁innings	-7549
▁Memorial	-7550
▁requested	-7551
▁sustainable	-7552
HA	-7553
UC	-7554
nUp	-7555
oln	-7556
▁oz	-7557
ilit	-7558
▁Wat	-7559
▁san	-7560
nOnce	-7561
nWell	-7562
▁Ball	-7563
▁ease	-7564
▁Point	-7565
▁regul	-7566
▁Gallery	-7567
▁catalog	-7568
▁diverse	-7569
▁hitting	-7570
▁jewelry	-7571
▁shipped	-7572
▁contrast	-7573
▁instance	-7574
▁Financial	-7575
▁seriously	-7576
▁transition	-7577
PC	-7578
▁DC	-7579
▁31,	-7580
▁Map	-7581
▁Rub	-7582
▁trick	-7583
▁Joseph	-7584
▁factor	-7585
▁prompt	-7586
▁singer	-7587
gressive	-7588
▁Matthew	-7589
▁ancient	-7590
▁therapy	-7591
▁opinions	-7592
▁listening	-7593
▁permanent	-7594
▁statements	-7595
▁anniversary	-7596
▁availability	-7597
0.	-7598
equ	-7599
▁(7	-7600
▁02	-7601
▁CO	-7602
▁ol	-7603
amel	-7604
nReg	-7605
oral	-7606
▁HIV	-7607
ounce	-7608
venth	-7609
▁Anth	-7610
rovers	-7611
▁2008,	-7612
reprene	-7613
▁hospit	-7614
▁relief	-7615
▁string	-7616
▁Theatre	-7617
▁intense	-7618
ervations	-7619
)|\	-7620
ura	-7621
▁SE	-7622
▁SM	-7623
aine	-7624
hire	-7625
imore	-7626
▁enem	-7627
ington	-7628
▁Guard	-7629
▁Royal	-7630
▁banks	-7631
▁blogs	-7632
▁juice	-7633
▁Afghan	-7634
▁Agency	-7635
▁belong	-7636
▁motion	-7637
▁Another	-7638
▁Eastern	-7639
▁Indiana	-7640
▁Columbia	-7641
▁medicine	-7642
▁obviously	-7643
▁healthcare	-7644
▁contributions	-7645
38	-7646
ani	-7647
rem	-7648
▁49	-7649
bour	-7650
teen	-7651
▁bow	-7652
▁fle	-7653
inity	-7654
nNote	-7655
▁Jess	-7656
▁batt	-7657
▁slic	-7658
▁Labor	-7659
▁empty	-7660
▁kinds	-7661
▁saved	-7662
▁execut	-7663
▁Britain	-7664
▁awarded	-7665
▁moments	-7666
▁strange	-7667
▁breaking	-7668
▁identity	-7669
▁newspaper	-7670
▁relatively	-7671
▁appointment	-7672
▁collections	-7673
▁publication	-7674
do	-7675
lo	-7676
nby	-7677
▁AC	-7678
▁OK	-7679
fall	-7680
lder	-7681
nRep	-7682
writ	-7683
▁Lut	-7684
▁Mom	-7685
▁rac	-7686
▁cock	-7687
▁trib	-7688
incoln	-7689
▁comic	-7690
▁equal	-7691
▁grass	-7692
▁layer	-7693
▁dollar	-7694
▁elimin	-7695
▁Olympic	-7696
▁criteria	-7697
▁realized	-7698
▁basically	-7699
▁Democratic	-7700
▁atmosphere	-7701
▁surprising	-7702
▁Pennsylvania	-7703
▁contemporary	-7704
▁expectations	-7705
▁participating	-7706
▁communications	-7707
esy	-7708
amps	-7709
▁McG	-7710
acher	-7711
eople	-7712
front	-7713
▁Balt	-7714
▁heav	-7715
esides	-7716
▁quote	-7717
izabeth	-7718
▁agents	-7719
▁anyway	-7720
▁boards	-7721
▁bottle	-7722
▁ending	-7723
fficient	-7724
▁Ireland	-7725
▁assault	-7726
▁cabinet	-7727
▁claimed	-7728
▁killing	-7729
▁upgrade	-7730
▁attached	-7731
▁domestic	-7732
▁Resources	-7733
▁expressed	-7734
Fr	-7735
nLe	-7736
ums	-7737
▁44	-7738
▁Kh	-7739
ipal	-7740
irms	-7741
▁Buy	-7742
▁Cur	-7743
▁Tro	-7744
▁bab	-7745
▁syn	-7746
nThen	-7747
▁Adam	-7748
▁Email	-7749
▁habit	-7750
▁login	-7751
▁prize	-7752
▁stuck	-7753
▁behalf	-7754
▁border	-7755
▁errors	-7756
▁Version	-7757
▁coaches	-7758
▁enthusi	-7759
▁scoring	-7760
▁calendar	-7761
▁holidays	-7762
▁displayed	-7763
▁household	-7764
▁challenging	-7765
▁championship	-7766
Sp	-7767
zy	-7768
:15	-7769
anes	-7770
nAre	-7771
olds	-7772
pton	-7773
▁Ref	-7774
iants	-7775
▁lets	-7776
▁tied	-7777
▁Roman	-7778
▁blend	-7779
▁urban	-7780
▁cooper	-7781
urrently	-7782
▁Detroit	-7783
▁compete	-7784
▁factory	-7785
▁Kentucky	-7786
▁bathroom	-7787
▁recognize	-7788
▁inspiration	-7789
SC	-7790
edu	-7791
iac	-7792
That	-7793
rich	-7794
▁URL	-7795
icate	-7796
▁1999	-7797
▁gang	-7798
nWhere	-7799
▁Creek	-7800
▁Stock	-7801
▁assum	-7802
▁squad	-7803
Welcome	-7804
▁Resort	-7805
▁Select	-7806
▁Senior	-7807
▁Square	-7808
▁planet	-7809
▁scores	-7810
▁Natural	-7811
▁Supreme	-7812
▁finance	-7813
▁replaced	-7814
▁somewhat	-7815
▁construct	-7816
▁contained	-7817
▁explained	-7818
▁touchdown	-7819
▁exhibition	-7820
▁represents	-7821
▁photographs	-7822
cH	-7823
-15	-7824
osc	-7825
▁1\	-7826
uine	-7827
▁Ban	-7828
▁raw	-7829
otted	-7830
▁Phys	-7831
▁Stan	-7832
▁fort	-7833
▁magn	-7834
▁vibr	-7835
▁forth	-7836
clusion	-7837
▁infect	-7838
▁terror	-7839
▁gorgeous	-7840
▁certified	-7841
▁expertise	-7842
▁favourite	-7843
▁enforcement	-7844
▁replacement	-7845
▁Communications	-7846
▁infrastructure	-7847
.1	-7848
nic	-7849
▁Op	-7850
anny	-7851
week	-7852
▁Jac	-7853
▁dad	-7854
razil	-7855
▁split	-7856
winning	-7857
▁Action	-7858
▁Muslim	-7859
▁comedy	-7860
▁decent	-7861
▁edited	-7862
▁reject	-7863
▁saving	-7864
▁default	-7865
▁heading	-7866
▁champion	-7867
▁diabetes	-7868
▁ultimate	-7869
▁improving	-7870
▁instrument	-7871
▁officially	-7872
▁reasonable	-7873
OG	-7874
300	-7875
▁65	-7876
▁ED	-7877
▁:)\	-7878
▁Cas	-7879
riers	-7880
worth	-7881
▁Greg	-7882
▁Hamp	-7883
▁Publ	-7884
▁entr	-7885
▁fest	-7886
▁tape	-7887
stream	-7888
▁Moore	-7889
▁boxes	-7890
▁Annual	-7891
▁Golden	-7892
▁capable	-7893
▁carrying	-7894
▁minister	-7895
▁Tennessee	-7896
▁adventure	-7897
▁Collection	-7898
▁accomplish	-7899
▁Championship	-7900
▁transportation	-7901
QL	-7902
cf	-7903
ITY	-7904
aug	-7905
http	-7906
mart	-7907
pret	-7908
rite	-7909
▁Dur	-7910
▁Luc	-7911
inent	-7912
▁puzz	-7913
▁Right	-7914
▁Sales	-7915
▁Yahoo	-7916
▁chair	-7917
▁chose	-7918
▁Forest	-7919
▁Jordan	-7920
▁manner	-7921
▁tablet	-7922
▁thinks	-7923
▁accused	-7924
▁assists	-7925
▁bedroom	-7926
▁illness	-7927
▁graphics	-7928
▁suggests	-7929
98	-7930
Be	-7931
AND	-7932
ART	-7933
axy	-7934
nIm	-7935
▁AD	-7936
▁Ms	-7937
▁Dar	-7938
▁Dog	-7939
▁III	-7940
▁Jun	-7941
▁RSS	-7942
adies	-7943
anned	-7944
▁Bull	-7945
inking	-7946
itable	-7947
▁Irish	-7948
▁alive	-7949
▁clubs	-7950
▁meets	-7951
▁smile	-7952
▁Austin	-7953
▁racing	-7954
▁talked	-7955
▁Chapter	-7956
▁destroy	-7957
▁listing	-7958
▁signing	-7959
▁Building	-7960
▁Missouri	-7961
▁Portland	-7962
▁handling	-7963
▁emotional	-7964
2-	-7965
94	-7966
aha	-7967
cut	-7968
oen	-7969
▁(6	-7970
▁Ur	-7971
)."}	-7972
Star	-7973
adow	-7974
bell	-7975
rete	-7976
▁$20	-7977
▁Dun	-7978
atics	-7979
▁trim	-7980
angers	-7981
iments	-7982
▁Bible	-7983
▁Greek	-7984
▁giant	-7985
▁solve	-7986
▁circum	-7987
▁indeed	-7988
▁elected	-7989
▁founded	-7990
▁Democrats	-7991
▁Insurance	-7992
▁assessment	-7993
RC	-7994
..\	-7995
From	-7996
Last	-7997
Read	-7998
Tube	-7999
umps	-8000
▁coc	-8001
▁lit	-8002
▁suc	-8003
orous	-8004
ureau	-8005
▁Mill	-8006
▁Swed	-8007
▁Zeal	-8008
▁coin	-8009
phones	-8010
▁Heart	-8011
▁displ	-8012
illiant	-8013
▁driven	-8014
igration	-8015
nContact	-8016
▁centers	-8017
▁admitted	-8018
▁clicking	-8019
▁informed	-8020
▁proposal	-8021
▁thorough	-8022
▁Associated	-8023
▁controvers	-8024
▁situations	-8025
▁Environmental	-8026
EX	-8027
cP	-8028
gov	-8029
sea	-8030
umni	-8031
▁Marc	-8032
▁acts	-8033
ocated	-8034
▁solar	-8035
▁Govern	-8036
▁Player	-8037
▁attach	-8038
▁marked	-8039
▁scenes	-8040
________	-8041
▁Schools	-8042
▁combine	-8043
▁certific	-8044
▁producer	-8045
▁stunning	-8046
▁talented	-8047
▁efficiency	-8048
▁personally	-8049
▁destination	-8050
▁subscription	-8051
Le	-8052
bal	-8053
ili	-8054
odd	-8055
▁Du	-8056
oker	-8057
▁lin	-8058
opher	-8059
style	-8060
▁Beaut	-8061
▁Photo	-8062
▁Study	-8063
▁Table	-8064
▁agric	-8065
▁bunch	-8066
inating	-8067
▁Brother	-8068
▁dealing	-8069
▁writers	-8070
▁aircraft	-8071
▁explains	-8072
▁exposure	-8073
▁franchise	-8074
▁involving	-8075
▁photography	-8076
/\	-8077
74	-8078
ept	-8079
isa	-8080
war	-8081
▁Es	-8082
hops	-8083
olph	-8084
▁EST	-8085
▁Mir	-8086
▁vul	-8087
ethod	-8088
riger	-8089
▁Trib	-8090
nEvery	-8091
▁2012.	-8092
▁Event	-8093
▁facts	-8094
▁opens	-8095
▁Steven	-8096
▁compat	-8097
▁headed	-8098
▁intent	-8099
▁luxury	-8100
▁symbol	-8101
▁Challen	-8102
▁chopped	-8103
▁filling	-8104
▁virtual	-8105
▁Students	-8106
▁normally	-8107
▁pleasure	-8108
▁telephone	-8109
▁monitoring	-8110
▁possibility	-8111
▁improvements	-8112
NT	-8113
nis	-8114
aire	-8115
nJan	-8116
▁hur	-8117
eling	-8118
onder	-8119
▁Buff	-8120
▁Dave	-8121
▁Prom	-8122
▁fuck	-8123
▁Mount	-8124
▁chips	-8125
▁roads	-8126
▁Nation	-8127
▁assets	-8128
▁breath	-8129
▁recycl	-8130
▁struck	-8131
▁Stadium	-8132
▁Medicine	-8133
▁matching	-8134
▁lifestyle	-8135
▁pregnancy	-8136
▁collaboration	-8137
▁~	-8138
▁06	-8139
▁Ap	-8140
!!!\	-8141
Book	-8142
Cont	-8143
ipes	-8144
▁Iss	-8145
▁Tax	-8146
Press	-8147
▁Arab	-8148
▁Mess	-8149
▁fasc	-8150
▁yard	-8151
▁Asian	-8152
▁soccer	-8153
▁Edition	-8154
▁Stephen	-8155
▁Baseball	-8156
▁Jennifer	-8157
▁attending	-8158
▁developer	-8159
▁highlights	-8160
▁interviews	-8161
▁representative	-8162
▁recommendations	-8163
aze	-8164
eek	-8165
stal	-8166
vate	-8167
▁Cro	-8168
attan	-8169
eding	-8170
oured	-8171
rated	-8172
▁HERE	-8173
▁Vice	-8174
▁butt	-8175
▁king	-8176
▁unem	-8177
ocking	-8178
▁Anton	-8179
▁actor	-8180
▁chart	-8181
▁spray	-8182
earning	-8183
ighters	-8184
▁acting	-8185
▁fiscal	-8186
nAnother	-8187
▁closing	-8188
▁operate	-8189
▁coaching	-8190
▁distinct	-8191
▁memories	-8192
▁occurred	-8193
▁presents	-8194
▁sections	-8195
▁consistent	-8196
▁impossible	-8197
▁newsletter	-8198
▁recognition	-8199
ais	-8200
▁64	-8201
nHis	-8202
▁Dak	-8203
icide	-8204
▁Moon	-8205
▁Ther	-8206
▁pace	-8207
ingers	-8208
ronics	-8209
▁Visit	-8210
▁phase	-8211
tsburgh	-8212
▁Editor	-8213
▁Studio	-8214
▁rising	-8215
▁Russian	-8216
▁Zealand	-8217
▁closely	-8218
▁counsel	-8219
▁extract	-8220
▁raising	-8221
▁Football	-8222
▁Pakistan	-8223
▁Sciences	-8224
▁drinking	-8225
▁enjoying	-8226
▁generate	-8227
imp	-8228
nda	-8229
▁85	-8230
▁FM	-8231
▁Ha	-8232
asks	-8233
izer	-8234
nCol	-8235
▁29,	-8236
▁Cop	-8237
▁lip	-8238
▁pra	-8239
overs	-8240
wered	-8241
▁cats	-8242
▁solo	-8243
iament	-8244
▁Lewis	-8245
▁Sarah	-8246
▁drawn	-8247
▁newly	-8248
▁recru	-8249
▁sight	-8250
▁smell	-8251
▁surve	-8252
▁Wilson	-8253
▁dreams	-8254
▁gotten	-8255
▁legend	-8256
▁resort	-8257
▁Collect	-8258
▁guidelines	-8259
▁integrated	-8260
yp	-8261
▁;	-8262
Not	-8263
new	-8264
▁04	-8265
blog	-8266
from	-8267
unes	-8268
▁ads	-8269
▁tiny	-8270
▁unus	-8271
▁Phill	-8272
▁discl	-8273
▁shell	-8274
▁vital	-8275
▁Number	-8276
▁aspect	-8277
▁cameras	-8278
▁Standard	-8279
▁consists	-8280
▁releases	-8281
▁increases	-8282
▁programme	-8283
▁traveling	-8284
*\	-8285
May	-8286
igs	-8287
▁EX	-8288
izon	-8289
mann	-8290
that	-8291
town	-8292
▁Cow	-8293
▁NBA	-8294
▁Oil	-8295
▁Yan	-8296
▁ske	-8297
anted	-8298
uties	-8299
▁Coll	-8300
▁Resp	-8301
▁boss	-8302
▁fulf	-8303
▁roof	-8304
Posted	-8305
▁Month	-8306
▁chest	-8307
▁ocean	-8308
▁yield	-8309
▁Histor	-8310
▁Posted	-8311
▁invite	-8312
▁prohib	-8313
tainment	-8314
▁Account	-8315
▁Toronto	-8316
▁instant	-8317
▁warning	-8318
criptions	-8319
▁Shipping	-8320
▁findings	-8321
▁guidance	-8322
▁payments	-8323
▁Hampshire	-8324
▁Professor	-8325
▁increasingly	-8326
67	-8327
bow	-8328
ype	-8329
alle	-8330
gypt	-8331
hour	-8332
mers	-8333
then	-8334
▁Apr	-8335
▁Sox	-8336
letin	-8337
stall	-8338
▁Case	-8339
▁clar	-8340
ardens	-8341
ellect	-8342
▁Henry	-8343
▁Latin	-8344
▁risks	-8345
▁shops	-8346
reation	-8347
▁Change	-8348
▁assign	-8349
▁visits	-8350
▁widely	-8351
▁checked	-8352
▁largely	-8353
▁Comments	-8354
▁conflict	-8355
▁protected	-8356
▁attractive	-8357
02	-8358
▁Cy	-8359
▁Ox	-8360
▁SH	-8361
etts	-8362
greg	-8363
oned	-8364
otte	-8365
step	-8366
▁DNA	-8367
▁LED	-8368
▁Pen	-8369
▁hat	-8370
isted	-8371
▁Holy	-8372
▁NCAA	-8373
▁Wine	-8374
▁bull	-8375
▁legs	-8376
▁mere	-8377
▁pets	-8378
▁pill	-8379
▁Marsh	-8380
▁Small	-8381
quality	-8382
▁Hawaii	-8383
▁attrib	-8384
▁quotes	-8385
▁Patrick	-8386
▁defined	-8387
▁dynamic	-8388
▁superior	-8389
▁Relations	-8390
▁classroom	-8391
▁exception	-8392
▁suffering	-8393
▁initiative	-8394
▁revolution	-8395
nQ	-8396
One	-8397
]"}	-8398
▁CF	-8399
▁FR	-8400
▁SO	-8401
▁af	-8402
etch	-8403
lers	-8404
▁2.0	-8405
▁hyp	-8406
everal	-8407
▁Sandy	-8408
▁sixth	-8409
ulating	-8410
▁Bridge	-8411
▁tennis	-8412
▁Officer	-8413
▁engaged	-8414
▁Products	-8415
▁Regional	-8416
▁ultimately	-8417
▁performances	-8418
-13	-8419
Mon	-8420
acc	-8421
sex	-8422
she	-8423
▁-\	-8424
etic	-8425
icut	-8426
▁$25	-8427
▁Ice	-8428
▁Pin	-8429
▁flo	-8430
cThis	-8431
▁Talk	-8432
▁stim	-8433
▁wake	-8434
bridge	-8435
inance	-8436
▁Spain	-8437
▁Still	-8438
▁blank	-8439
▁renov	-8440
▁Orange	-8441
▁obtain	-8442
▁signal	-8443
▁recover	-8444
▁lifetime	-8445
▁rebounds	-8446
▁Available	-8447
▁diversity	-8448
▁differences	-8449
/10	-8450
bel	-8451
fish	-8452
leep	-8453
▁Tal	-8454
▁bug	-8455
asted	-8456
ceeds	-8457
ormal	-8458
▁Ross	-8459
▁aver	-8460
▁exec	-8461
▁terr	-8462
ortion	-8463
▁river	-8464
▁Brazil	-8465
▁retired	-8466
nAlthough	-8467
▁covering	-8468
▁feelings	-8469
▁managing	-8470
▁obtained	-8471
▁stations	-8472
▁portfolio	-8473
▁primarily	-8474
▁wondering	-8475
▁everywhere	-8476
68	-8477
ILL	-8478
nDe	-8479
nSp	-8480
▁Cut	-8481
▁cos	-8482
iders	-8483
mates	-8484
sized	-8485
▁Nash	-8486
ussion	-8487
▁Again	-8488
▁Money	-8489
▁Trade	-8490
▁fiber	-8491
ogether	-8492
▁Barack	-8493
▁engage	-8494
▁flying	-8495
▁passes	-8496
▁Channel	-8497
▁Highway	-8498
▁Village	-8499
▁causing	-8500
▁reprodu	-8501
▁veteran	-8502
▁printing	-8503
▁Champions	-8504
▁Elizabeth	-8505
▁Marketing	-8506
▁authority	-8507
▁designers	-8508
▁everybody	-8509
▁maintaining	-8510
31	-8511
nGo	-8512
nOf	-8513
View	-8514
nTwo	-8515
nUse	-8516
vals	-8517
wich	-8518
xxxx	-8519
▁Arm	-8520
▁Jam	-8521
/2013	-8522
▁Line	-8523
▁edit	-8524
▁vill	-8525
50,000	-8526
▁2013.	-8527
▁blind	-8528
▁votes	-8529
nPolice	-8530
▁Living	-8531
▁Russia	-8532
▁formed	-8533
▁donations	-8534
▁favorites	-8535
▁somewhere	-8536
▁colleagues	-8537
▁guaranteed	-8538
▁preparation	-8539
',	-8540
eld	-8541
nBl	-8542
▁38	-8543
aret	-8544
▁Ask	-8545
▁Hay	-8546
▁Wed	-8547
▁rib	-8548
ifies	-8549
▁Baby	-8550
▁Emer	-8551
▁Mail	-8552
▁Snow	-8553
▁diss	-8554
▁grad	-8555
▁mand	-8556
▁puts	-8557
▁Allen	-8558
▁Break	-8559
▁Enjoy	-8560
▁Share	-8561
▁Wales	-8562
▁birds	-8563
▁flower	-8564
▁stayed	-8565
▁waters	-8566
▁Comment	-8567
▁consequ	-8568
▁constant	-8569
▁Baltimore	-8570
▁qualified	-8571
MI	-8572
uy	-8573
nOh	-8574
rog	-8575
athy	-8576
char	-8577
▁lie	-8578
about	-8579
rease	-8580
store	-8581
▁Bang	-8582
▁Conf	-8583
▁narr	-8584
▁root	-8585
earing	-8586
▁fired	-8587
▁setup	-8588
▁sharp	-8589
▁tweet	-8590
▁weren	-8591
anguage	-8592
▁Common	-8593
▁finest	-8594
▁fundra	-8595
▁wealth	-8596
▁Lincoln	-8597
▁compens	-8598
▁farmers	-8599
▁proceed	-8600
▁flexible	-8601
OK	-8602
00\	-8603
Web	-8604
bra	-8605
nTe	-8606
iler	-8607
raud	-8608
▁NHL	-8609
▁Roy	-8610
cious	-8611
nWill	-8612
▁torn	-8613
giving	-8614
▁drama	-8615
▁fewer	-8616
▁magic	-8617
▁reply	-8618
▁roles	-8619
itution	-8620
ointing	-8621
▁packed	-8622
▁YouTube	-8623
▁trailer	-8624
▁keyboard	-8625
▁brilliant	-8626
▁childhood	-8627
▁landscape	-8628
▁subscribe	-8629
▁Protection	-8630
▁networking	-8631
▁procedures	-8632
▁connections	-8633
▁Professional	-8634
▁participation	-8635
nEd	-8636
tes	-8637
▁6.	-8638
ippi	-8639
vard	-8640
▁Lyn	-8641
▁Pur	-8642
▁Sym	-8643
▁Was	-8644
ipper	-8645
▁defe	-8646
▁trem	-8647
▁unex	-8648
erring	-8649
ockets	-8650
▁hosts	-8651
faction	-8652
▁ranked	-8653
▁transp	-8654
▁Clinton	-8655
▁Restaur	-8656
▁desired	-8657
▁insight	-8658
▁mailing	-8659
▁suspend	-8660
▁uniform	-8661
▁checking	-8662
▁pregnant	-8663
▁Solutions	-8664
▁responded	-8665
▁regulations	-8666
▁intelligence	-8667
EF	-8668
IGH	-8669
Rep	-8670
aga	-8671
irk	-8672
web	-8673
alse	-8674
inth	-8675
achus	-8676
ashes	-8677
▁1980	-8678
▁Bart	-8679
▁Bird	-8680
▁Leon	-8681
▁User	-8682
▁Wars	-8683
▁dust	-8684
▁evol	-8685
▁mood	-8686
ielder	-8687
▁plane	-8688
▁Cooper	-8689
▁strict	-8690
▁compare	-8691
▁southern	-8692
▁discounts	-8693
▁Engineering	-8694
▁presidential	-8695
/8	-8696
bi	-8697
But	-8698
apy	-8699
▁DO	-8700
/200	-8701
amil	-8702
brid	-8703
iche	-8704
nVis	-8705
oked	-8706
wing	-8707
▁Did	-8708
▁Nob	-8709
chers	-8710
nOrig	-8711
▁Days	-8712
▁Hold	-8713
▁acid	-8714
▁nose	-8715
▁sear	-8716
▁shoe	-8717
hether	-8718
owered	-8719
▁2007,	-8720
▁Front	-8721
▁Kelly	-8722
▁array	-8723
nDuring	-8724
▁dishes	-8725
▁logged	-8726
▁lowest	-8727
▁voting	-8728
omething	-8729
▁auction	-8730
▁circumst	-8731
▁sponsors	-8732
▁reputation	-8733
78	-8734
-19	-8735
10.	-8736
aza	-8737
▁95	-8738
▁CT	-8739
Your	-8740
elle	-8741
▁Yet	-8742
▁mal	-8743
▁rug	-8744
▁ski	-8745
iking	-8746
orses	-8747
▁soup	-8748
person	-8749
▁Camer	-8750
▁Prime	-8751
▁Youth	-8752
▁shift	-8753
▁Athlet	-8754
▁Winter	-8755
▁inquir	-8756
▁limits	-8757
▁orange	-8758
▁vulner	-8759
▁samples	-8760
▁theater	-8761
▁Attorney	-8762
▁entering	-8763
SL	-8764
oa	-8765
Man	-8766
dep	-8767
▁GT	-8768
▁SU	-8769
▁"\"	-8770
▁hal	-8771
▁sid	-8772
▁vit	-8773
world	-8774
▁Buck	-8775
▁Give	-8776
▁NASA	-8777
▁coal	-8778
▁admin	-8779
▁lemon	-8780
▁venue	-8781
▁Harris	-8782
▁Tigers	-8783
▁laptop	-8784
▁nights	-8785
▁languages	-8786
▁overnight	-8787
▁sponsored	-8788
▁possession	-8789
▁Connecticut	-8790
nZ	-8791
ila	-8792
▁$7	-8793
▁1/4	-8794
▁Bad	-8795
▁bid	-8796
▁tap	-8797
ighth	-8798
▁Gate	-8799
▁Gift	-8800
▁Link	-8801
▁buck	-8802
▁hung	-8803
▁math	-8804
▁toys	-8805
▁Level	-8806
▁overw	-8807
▁pants	-8808
▁weigh	-8809
▁weird	-8810
▁assume	-8811
▁copies	-8812
▁gaming	-8813
▁Records	-8814
▁succeed	-8815
▁wanting	-8816
achusetts	-8817
▁Register	-8818
▁substant	-8819
▁suitable	-8820
▁reduction	-8821
▁entreprene	-8822
▁discussions	-8823
TP	-8824
IVE	-8825
nSc	-8826
▁SC	-8827
agan	-8828
lass	-8829
▁hip	-8830
aning	-8831
asant	-8832
▁Anal	-8833
▁Band	-8834
▁Size	-8835
▁purs	-8836
▁tone	-8837
amsung	-8838
embers	-8839
osophy	-8840
▁seats	-8841
amework	-8842
clusive	-8843
▁courts	-8844
▁dating	-8845
▁emails	-8846
▁hanging	-8847
▁dramatic	-8848
▁romantic	-8849
▁authentic	-8850
▁innovation	-8851
▁distributed	-8852
▁Entertainment	-8853
AB	-8854
NY	-8855
ko	-8856
▁CP	-8857
nPer	-8858
pany	-8859
▁era	-8860
▁tut	-8861
▁1990	-8862
▁Auto	-8863
▁Chap	-8864
▁jail	-8865
▁Falls	-8866
▁Polit	-8867
▁Steel	-8868
innamon	-8869
▁loving	-8870
▁Capital	-8871
▁pricing	-8872
▁screens	-8873
▁reporter	-8874
▁reviewed	-8875
▁stronger	-8876
▁swimming	-8877
▁technique	-8878
▁respective	-8879
▁Unfortunately	-8880
EP	-8881
ami	-8882
rix	-8883
▁05	-8884
iere	-8885
zing	-8886
mouth	-8887
ridge	-8888
▁Cand	-8889
▁Come	-8890
▁Mach	-8891
▁bomb	-8892
▁buff	-8893
▁tech	-8894
ingham	-8895
▁Mayor	-8896
▁Which	-8897
▁Would	-8898
▁clock	-8899
▁salad	-8900
▁swing	-8901
▁Howard	-8902
▁Though	-8903
▁judges	-8904
▁Mississ	-8905
▁convert	-8906
▁falling	-8907
▁powered	-8908
▁Customer	-8909
▁reducing	-8910
▁speakers	-8911
▁expansion	-8912
▁generated	-8913
▁principles	-8914
▁instruction	-8915
cF	-8916
Get	-8917
UST	-8918
obb	-8919
pir	-8920
▁(0	-8921
ango	-8922
cker	-8923
eman	-8924
mans	-8925
sole	-8926
▁120	-8927
▁Est	-8928
nPost	-8929
ugust	-8930
▁Kong	-8931
▁coat	-8932
▁evil	-8933
▁plot	-8934
▁pupp	-8935
oosing	-8936
▁Egypt	-8937
issions	-8938
▁[...]\	-8939
▁scheme	-8940
aturally	-8941
ibraries	-8942
▁Russell	-8943
▁Sheriff	-8944
▁Stewart	-8945
anchester	-8946
▁personnel	-8947
▁resulting	-8948
▁manufacturers	-8949
BM	-8950
aa	-8951
ogy	-8952
olt	-8953
nMar	-8954
thon	-8955
herry	-8956
oween	-8957
proof	-8958
words	-8959
▁Andy	-8960
▁Corp	-8961
▁Fact	-8962
▁Need	-8963
▁asks	-8964
▁lect	-8965
▁pitc	-8966
apolis	-8967
▁Books	-8968
▁Laure	-8969
▁bills	-8970
▁divid	-8971
▁Bureau	-8972
▁borrow	-8973
▁browse	-8974
▁hidden	-8975
▁weapon	-8976
urricane	-8977
▁Classic	-8978
▁anymore	-8979
▁focuses	-8980
▁reserve	-8981
ventional	-8982
▁component	-8983
▁medication	-8984
4)	-8985
cW	-8986
nMe	-8987
▁SD	-8988
nInd	-8989
orld	-8990
requ	-8991
▁Nik	-8992
▁Non	-8993
▁fur	-8994
▁ink	-8995
aware	-8996
casts	-8997
▁Must	-8998
▁sexy	-8999
▁toss	-9000
▁rival	-9001
▁union	-9002
written	-9003
▁Eagles	-9004
▁Should	-9005
▁acquis	-9006
▁breaks	-9007
▁golden	-9008
▁territ	-9009
▁founder	-9010
▁pointed	-9011
▁texture	-9012
▁estimates	-9013
▁procedure	-9014
▁promotion	-9015
▁statistics	-9016
▁temperatures	-9017
AV	-9018
IDS	-9019
aun	-9020
ima	-9021
pay	-9022
▁WH	-9023
emet	-9024
otta	-9025
site	-9026
tail	-9027
▁1.5	-9028
▁10-	-9029
▁Bed	-9030
▁Dam	-9031
▁Fal	-9032
▁Jer	-9033
▁Osc	-9034
angel	-9035
▁Easy	-9036
▁bass	-9037
▁cycl	-9038
▁drag	-9039
▁lake	-9040
▁lies	-9041
▁sacr	-9042
▁Pract	-9043
viously	-9044
▁bridge	-9045
▁cooked	-9046
▁versat	-9047
ordinary	-9048
secutive	-9049
▁Anthony	-9050
▁couples	-9051
▁damaged	-9052
▁enables	-9053
▁predict	-9054
▁protest	-9055
▁vintage	-9056
▁declined	-9057
▁religion	-9058
▁appointed	-9059
▁containing	-9060
▁reportedly	-9061
▁functionality	-9062
ICK	-9063
osa	-9064
▁DI	-9065
▁$15	-9066
▁mac	-9067
▁pic	-9068
month	-9069
nEach	-9070
nLike	-9071
ordon	-9072
ropri	-9073
▁Core	-9074
▁Pict	-9075
▁Save	-9076
▁fits	-9077
anning	-9078
▁Adobe	-9079
▁Advis	-9080
▁Birth	-9081
▁Judge	-9082
▁drove	-9083
▁falls	-9084
▁patch	-9085
▁Prince	-9086
▁casual	-9087
▁explan	-9088
▁lineup	-9089
▁newest	-9090
nWelcome	-9091
▁homeown	-9092
▁precise	-9093
▁privile	-9094
▁attempts	-9095
▁incorpor	-9096
▁priority	-9097
▁shoulder	-9098
▁hopefully	-9099
▁Tournament	-9100
%,	-9101
Im	-9102
UD	-9103
/11	-9104
/12	-9105
:45	-9106
iah	-9107
ubs	-9108
▁7.	-9109
▁Ra	-9110
nWho	-9111
oper	-9112
orse	-9113
ulum	-9114
▁Ast	-9115
▁Sir	-9116
▁toy	-9117
2014\	-9118
Every	-9119
sters	-9120
woman	-9121
▁Bask	-9122
▁Kate	-9123
▁euro	-9124
▁knee	-9125
▁lift	-9126
ername	-9127
itches	-9128
▁bands	-9129
▁Edward	-9130
▁Mother	-9131
▁excite	-9132
▁explos	-9133
▁finger	-9134
▁harder	-9135
▁orient	-9136
▁poster	-9137
▁genuine	-9138
▁Exchange	-9139
▁estimate	-9140
▁focusing	-9141
▁opposite	-9142
▁alongside	-9143
▁finishing	-9144
cR	-9145
cr	-9146
Col	-9147
OVE	-9148
mel	-9149
▁(8	-9150
▁42	-9151
▁Ba	-9152
isan	-9153
nSpe	-9154
nell	-9155
rett	-9156
uana	-9157
ulpt	-9158
▁Fab	-9159
▁cul	-9160
ishop	-9161
organ	-9162
▁Burn	-9163
▁embr	-9164
ressed	-9165
▁Style	-9166
▁crisp	-9167
▁rural	-9168
▁templ	-9169
athered	-9170
▁Better	-9171
▁Events	-9172
▁Region	-9173
▁combat	-9174
quarters	-9175
▁Springs	-9176
▁element	-9177
▁displays	-9178
▁external	-9179
▁remained	-9180
▁Challenge	-9181
▁complaint	-9182
▁contracts	-9183
▁reception	-9184
▁functional	-9185
▁implementation	-9186
MC	-9187
mo	-9188
Net	-9189
▁2-	-9190
anne	-9191
▁Bry	-9192
▁Nic	-9193
▁adj	-9194
▁1970	-9195
▁Dead	-9196
▁stro	-9197
Please	-9198
▁absor	-9199
▁admit	-9200
▁faced	-9201
▁gonna	-9202
▁smoke	-9203
▁stead	-9204
ivities	-9205
through	-9206
▁Luther	-9207
▁cookie	-9208
▁divide	-9209
▁speaker	-9210
▁staying	-9211
▁donation	-9212
▁refriger	-9213
▁Transport	-9214
▁literally	-9215
▁controlled	-9216
▁retirement	-9217
▁convenience	-9218
▁necessarily	-9219
▁architecture	-9220
▁conservative	-9221
.-	-9222
DC	-9223
De	-9224
HP	-9225
df	-9226
):\	-9227
aws	-9228
gie	-9229
▁46	-9230
▁NO	-9231
!\"\	-9232
this	-9233
upid	-9234
▁CNN	-9235
▁Exp	-9236
▁Fat	-9237
▁Sem	-9238
▁god	-9239
▁Barn	-9240
▁Dick	-9241
terior	-9242
▁Coach	-9243
▁Maine	-9244
▁Think	-9245
▁Tools	-9246
▁brush	-9247
▁stake	-9248
ebruary	-9249
▁Justin	-9250
▁formal	-9251
▁Website	-9252
▁comprom	-9253
▁penalty	-9254
▁singing	-9255
nSaturday	-9256
▁Lawrence	-9257
▁achieved	-9258
▁controls	-9259
▁fabulous	-9260
▁involves	-9261
▁allegedly	-9262
▁workshops	-9263
▁purchasing	-9264
▁association	-9265
▁consecutive	-9266
▁residential	-9267
▁universities	-9268
▁Massachusetts	-9269
ja	-9270
ipt	-9271
nie	-9272
▁CL	-9273
!!!!	-9274
News	-9275
lace	-9276
tegr	-9277
yler	-9278
▁Alp	-9279
▁mut	-9280
imize	-9281
ummer	-9282
▁Name	-9283
▁Tele	-9284
▁bold	-9285
▁flag	-9286
▁jury	-9287
▁Bears	-9288
▁Never	-9289
▁kills	-9290
▁loyal	-9291
▁plain	-9292
▁2012.\	-9293
▁cotton	-9294
▁curren	-9295
▁forums	-9296
▁hockey	-9297
▁liquid	-9298
▁origin	-9299
▁overse	-9300
resident	-9301
▁acceler	-9302
▁adopted	-9303
▁elegant	-9304
▁ranging	-9305
isticated	-9306
▁Personal	-9307
▁athletes	-9308
▁disaster	-9309
▁equipped	-9310
▁expanded	-9311
▁licensed	-9312
▁subjects	-9313
▁incredibly	-9314
55	-9315
-11	-9316
-14	-9317
uma	-9318
yes	-9319
▁AS	-9320
▁Rh	-9321
gets	-9322
html	-9323
pire	-9324
▁ABC	-9325
▁Gun	-9326
▁NYC	-9327
▁hel	-9328
▁sod	-9329
aired	-9330
andal	-9331
athon	-9332
bound	-9333
nFree	-9334
▁Shel	-9335
▁Very	-9336
▁snap	-9337
ateful	-9338
erving	-9339
minute	-9340
▁Peace	-9341
▁Psych	-9342
▁Stone	-9343
▁dozen	-9344
▁bodies	-9345
▁humans	-9346
▁insert	-9347
▁pushed	-9348
▁stocks	-9349
▁Chamber	-9350
▁Explore	-9351
▁artwork	-9352
▁persons	-9353
▁regions	-9354
▁unusual	-9355
▁utility	-9356
▁Chairman	-9357
▁Computer	-9358
▁chairman	-9359
▁overwhel	-9360
▁sentence	-9361
▁Represent	-9362
▁physician	-9363
▁evaluation	-9364
ALL	-9365
iot	-9366
▁2\	-9367
▁Ca	-9368
avid	-9369
enth	-9370
nYes	-9371
urse	-9372
▁Dor	-9373
▁Mah	-9374
▁voc	-9375
Berry	-9376
check	-9377
▁Roll	-9378
▁dont	-9379
▁grab	-9380
▁noon	-9381
▁semi	-9382
▁ther	-9383
inding	-9384
reated	-9385
▁entit	-9386
▁Father	-9387
▁grocer	-9388
▁twenty	-9389
graduate	-9390
▁Mission	-9391
▁depends	-9392
▁facilit	-9393
▁lessons	-9394
▁picking	-9395
▁accuracy	-9396
▁athletic	-9397
▁relative	-9398
▁whenever	-9399
▁struggling	-9400
▁vegetables	-9401
▁interaction	-9402
▁circumstances	-9403
39	-9404
def	-9405
elp	-9406
udd	-9407
who	-9408
arel	-9409
yers	-9410
cific	-9411
▁Rain	-9412
▁myst	-9413
▁phen	-9414
▁rely	-9415
▁trig	-9416
aspoon	-9417
screen	-9418
struct	-9419
swered	-9420
▁Susan	-9421
▁maker	-9422
▁Celebr	-9423
▁Galaxy	-9424
▁defect	-9425
▁spaces	-9426
▁Friends	-9427
▁granted	-9428
▁western	-9429
▁browsing	-9430
▁repeated	-9431
▁strategic	-9432
▁Pittsburgh	-9433
▁enterprise	-9434
▁Mississippi	-9435
▁contribution	-9436
▁unemployment	-9437
FF	-9438
ASE	-9439
ira	-9440
ram	-9441
▁4-	-9442
▁6-	-9443
ador	-9444
▁Ven	-9445
▁nob	-9446
▁unw	-9447
nBack	-9448
▁Mind	-9449
▁dual	-9450
▁hide	-9451
▁leaf	-9452
▁wave	-9453
annels	-9454
lessly	-9455
olitan	-9456
▁2011.	-9457
▁beans	-9458
▁bonus	-9459
▁holes	-9460
▁proof	-9461
▁recon	-9462
emetery	-9463
▁Marine	-9464
▁Nelson	-9465
▁mainly	-9466
▁slowly	-9467
▁Kennedy	-9468
▁Stories	-9469
▁carries	-9470
▁survive	-9471
▁unknown	-9472
ellectual	-9473
▁Learning	-9474
▁accompan	-9475
▁delivers	-9476
▁reaction	-9477
▁teaspoon	-9478
▁tomatoes	-9479
▁evolution	-9480
▁indicated	-9481
▁potentially	-9482
oni	-9483
wan	-9484
▁UC	-9485
▁pp	-9486
nDis	-9487
nRem	-9488
omic	-9489
orks	-9490
prof	-9491
▁Dyn	-9492
▁ERA	-9493
▁Gre	-9494
▁McK	-9495
▁pul	-9496
▁shr	-9497
aping	-9498
entle	-9499
nJohn	-9500
▁Pick	-9501
▁dess	-9502
▁lady	-9503
▁seam	-9504
acular	-9505
engers	-9506
nGreat	-9507
roduct	-9508
▁ultra	-9509
▁usage	-9510
ainless	-9511
▁coupon	-9512
▁desper	-9513
▁roster	-9514
▁shapes	-9515
▁Limited	-9516
▁Perfect	-9517
▁exhibit	-9518
itionally	-9519
▁answered	-9520
▁attitude	-9521
▁managers	-9522
▁suddenly	-9523
▁automatic	-9524
▁champions	-9525
▁producing	-9526
▁girlfriend	-9527
rys	-9528
edge	-9529
oken	-9530
olly	-9531
▁Nav	-9532
▁Sab	-9533
▁Tel	-9534
▁tum	-9535
itzer	-9536
nStud	-9537
▁Capt	-9538
▁Deal	-9539
▁Past	-9540
▁deck	-9541
▁laid	-9542
▁mild	-9543
▁tire	-9544
▁vess	-9545
market	-9546
overty	-9547
▁Bloom	-9548
▁begun	-9549
▁blame	-9550
▁firms	-9551
▁honey	-9552
▁inner	-9553
▁Member	-9554
▁Michel	-9555
▁Murray	-9556
▁manual	-9557
▁troops	-9558
▁Charlie	-9559
▁Kingdom	-9560
▁desktop	-9561
▁donated	-9562
▁interact	-9563
▁describes	-9564
▁principal	-9565
▁Convention	-9566
▁smartphone	-9567
▁Afghanistan	-9568
PL	-9569
oli	-9570
▁54	-9571
etry	-9572
▁ALL	-9573
▁Pad	-9574
▁phr	-9575
▁tor	-9576
inema	-9577
▁Aren	-9578
▁Heat	-9579
▁Sche	-9580
▁bicy	-9581
▁duty	-9582
andise	-9583
nLearn	-9584
▁Terry	-9585
▁meals	-9586
▁pride	-9587
nBefore	-9588
▁circle	-9589
▁recall	-9590
▁sought	-9591
▁streak	-9592
▁Consult	-9593
▁actress	-9594
▁greatly	-9595
▁seventh	-9596
▁Continue	-9597
▁Olympics	-9598
▁struggle	-9599
▁workshop	-9600
▁ownership	-9601
▁Experience	-9602
▁regardless	-9603
▁integration	-9604
▁conservation	-9605
PT	-9606
nn	-9607
uz	-9608
See	-9609
TER	-9610
awa	-9611
mat	-9612
▁00	-9613
▁CR	-9614
▁CS	-9615
▁PS	-9616
▁Pa	-9617
ader	-9618
orne	-9619
raid	-9620
rock	-9621
▁600	-9622
▁Ent	-9623
▁Rap	-9624
/2012	-9625
nEven	-9626
oenix	-9627
ricts	-9628
▁Cool	-9629
▁Gene	-9630
▁Jobs	-9631
▁tube	-9632
igious	-9633
iology	-9634
veland	-9635
▁Gener	-9636
▁Posts	-9637
▁walks	-9638
amental	-9639
ownload	-9640
▁losses	-9641
▁shower	-9642
▁stable	-9643
children	-9644
▁Reading	-9645
▁Reviews	-9646
▁forecast	-9647
▁strongly	-9648
▁wildlife	-9649
▁Sometimes	-9650
▁directory	-9651
▁residence	-9652
▁personality	-9653
▁quarterback	-9654
▁consideration	-9655
0\	-9656
App	-9657
aux	-9658
esc	-9659
▁"\	-9660
▁5-	-9661
▁Os	-9662
bean	-9663
gins	-9664
▁10.	-9665
▁Bag	-9666
haust	-9667
inkle	-9668
nTags	-9669
▁Brew	-9670
▁Info	-9671
▁Pink	-9672
▁Wire	-9673
▁clim	-9674
▁jazz	-9675
▁soil	-9676
▁tags	-9677
ensity	-9678
estone	-9679
▁2007\	-9680
▁Civil	-9681
▁Krist	-9682
▁Treat	-9683
▁deleg	-9684
▁loans	-9685
▁loose	-9686
▁pilot	-9687
▁tasks	-9688
▁tours	-9689
▁upset	-9690
eration	-9691
▁Korean	-9692
▁Valent	-9693
▁democr	-9694
▁drinks	-9695
▁stored	-9696
▁Defense	-9697
▁lawsuit	-9698
▁travell	-9699
▁viewers	-9700
▁acquired	-9701
▁playoffs	-9702
▁trademark	-9703
▁expression	-9704
92	-9705
Hz	-9706
Add	-9707
▁2:	-9708
▁id	-9709
fire	-9710
nyou	-9711
oops	-9712
rets	-9713
tery	-9714
▁Mix	-9715
▁Ten	-9716
▁rig	-9717
▁bone	-9718
▁exem	-9719
▁guns	-9720
arring	-9721
ijuana	-9722
▁Adams	-9723
▁Andre	-9724
▁Cloud	-9725
▁Model	-9726
▁yours	-9727
irlines	-9728
▁Dakota	-9729
▁Return	-9730
▁deploy	-9731
▁worried	-9732
▁Victoria	-9733
▁northern	-9734
▁Authority	-9735
▁purchases	-9736
▁screening	-9737
▁Manchester	-9738
▁completion	-9739
▁capabilities	-9740
▁representatives	-9741
62	-9742
TML	-9743
cHe	-9744
▁BM	-9745
▁EU	-9746
ampa	-9747
sect	-9748
▁COM	-9749
▁Sex	-9750
▁cow	-9751
▁haz	-9752
hetic	-9753
immer	-9754
leans	-9755
nDate	-9756
utter	-9757
▁Sony	-9758
▁bell	-9759
▁chap	-9760
▁ward	-9761
iating	-9762
ieties	-9763
▁Saint	-9764
▁Sport	-9765
▁balls	-9766
▁resid	-9767
▁seeds	-9768
▁ships	-9769
intendo	-9770
limited	-9771
▁Denver	-9772
▁barely	-9773
▁frustr	-9774
▁powers	-9775
▁rescue	-9776
▁dismiss	-9777
▁honored	-9778
▁contents	-9779
▁Cleveland	-9780
▁Questions	-9781
▁producers	-9782
▁promoting	-9783
▁celebrated	-9784
▁excitement	-9785
▁opposition	-9786
▁remarkable	-9787
▁supplement	-9788
▁tablespoons	-9789
▁documentation	-9790
yo	-9791
aka	-9792
die	-9793
▁1:	-9794
▁ca	-9795
▁je	-9796
▁mm	-9797
▁||	-9798
aton	-9799
even	-9800
kees	-9801
rait	-9802
▁fru	-9803
▁mob	-9804
▁tub	-9805
annon	-9806
ivals	-9807
outer	-9808
ppers	-9809
table	-9810
▁Song	-9811
▁clip	-9812
▁okay	-9813
▁slee	-9814
▁worn	-9815
hattan	-9816
ichael	-9817
▁Movie	-9818
▁cents	-9819
▁races	-9820
▁screw	-9821
▁tired	-9822
atching	-9823
chestra	-9824
▁Palest	-9825
▁defeat	-9826
▁gained	-9827
▁guides	-9828
unicipal	-9829
▁Antonio	-9830
▁careful	-9831
▁underst	-9832
▁vendors	-9833
▁argument	-9834
▁potatoes	-9835
▁preferred	-9836
▁temporary	-9837
▁documentary	-9838
▁scholarship	-9839
04	-9840
3-	-9841
DP	-9842
VI	-9843
▁)	-9844
▁"[	-9845
▁99	-9846
▁AB	-9847
core	-9848
rior	-9849
▁Han	-9850
clude	-9851
grade	-9852
▁Gulf	-9853
▁Jane	-9854
▁Pear	-9855
▁Sant	-9856
▁beef	-9857
▁elev	-9858
▁sees	-9859
▁tort	-9860
▁wise	-9861
Donald	-9862
iatric	-9863
semble	-9864
▁Intel	-9865
▁Simon	-9866
▁Stars	-9867
▁candy	-9868
▁quilt	-9869
▁Compet	-9870
▁Nature	-9871
▁Harvard	-9872
▁Nations	-9873
▁Orleans	-9874
▁Perhaps	-9875
▁diamond	-9876
▁equally	-9877
▁graphic	-9878
▁shelter	-9879
▁Archives	-9880
▁brothers	-9881
▁concepts	-9882
▁earnings	-9883
▁indicate	-9884
▁ministry	-9885
▁resulted	-9886
▁terrible	-9887
▁throwing	-9888
▁tracking	-9889
▁preparing	-9890
▁specified	-9891
▁prevention	-9892
▁unexpected	-9893
▁exceptional	-9894
▁initiatives	-9895
▁personalized	-9896
uh	-9897
cor	-9898
ige	-9899
Free	-9900
bits	-9901
mons	-9902
▁Fer	-9903
▁mad	-9904
acker	-9905
cular	-9906
erald	-9907
nMake	-9908
nwith	-9909
pense	-9910
▁2014	-9911
▁Corn	-9912
▁Flow	-9913
▁Iron	-9914
▁Nort	-9915
▁Text	-9916
▁conj	-9917
▁loud	-9918
▁tact	-9919
azines	-9920
mented	-9921
▁Round	-9922
▁aimed	-9923
▁spell	-9924
▁Argent	-9925
▁Choose	-9926
▁branch	-9927
▁canvas	-9928
▁prayer	-9929
▁stages	-9930
▁tender	-9931
▁Israeli	-9932
▁Roberts	-9933
▁burning	-9934
▁compact	-9935
▁subsequ	-9936
▁applying	-9937
▁suspended	-9938
▁definition	-9939
▁contributed	-9940
▁departments	-9941
▁restrictions	-9942
▁sophisticated	-9943
,'	-9944
7-	-9945
ND	-9946
Pr	-9947
isp	-9948
▁39	-9949
elve	-9950
owed	-9951
▁10%	-9952
▁Fan	-9953
▁mph	-9954
▁sin	-9955
▁Anna	-9956
▁Cart	-9957
▁Fast	-9958
▁Five	-9959
▁Navy	-9960
▁Whit	-9961
▁rend	-9962
▁spir	-9963
irates	-9964
▁Corps	-9965
▁ratio	-9966
holders	-9967
isation	-9968
nReview	-9969
▁2013.\	-9970
▁Junior	-9971
▁cancel	-9972
▁devast	-9973
▁drives	-9974
▁proved	-9975
▁rounds	-9976
▁Barbara	-9977
▁Finance	-9978
▁Senator	-9979
▁crucial	-9980
▁demands	-9981
▁mistake	-9982
▁preview	-9983
▁vanilla	-9984
▁Brooklyn	-9985
▁concrete	-9986
▁soldiers	-9987
▁Halloween	-9988
▁admission	-9989
▁associate	-9990
▁aggressive	-9991
▁comparison	-9992
▁popularity	-9993
▁publishing	-9994
TE	-9995
600	-9996
Now	-9997
Sub	-9998
onz	-9999
▁cm	-10000
bors	-10001
cour	-10002
npro	-10003
olar	-10004
▁20-	-10005
▁360	-10006
▁Gib	-10007
▁anx	-10008
Click	-10009
annah	-10010
nWant	-10011
▁Bapt	-10012
▁Rent	-10013
▁dies	-10014
▁fool	-10015
▁outs	-10016
▁till	-10017
▁tons	-10018
▁vacc	-10019
covery	-10020
ctober	-10021
▁Vista	-10022
▁knife	-10023
▁towns	-10024
▁Effect	-10025
▁afraid	-10026
▁deeply	-10027
▁inning	-10028
▁Jessica	-10029
▁Tickets	-10030
▁exposed	-10031
▁footage	-10032
▁neither	-10033
▁Atlantic	-10034
▁disabled	-10035
▁prosecut	-10036
▁intention	-10037
▁naturally	-10038
▁nutrition	-10039
▁Elementary	-10040
DAY	-10041
cat	-10042
rat	-10043
vol	-10044
▁MB	-10045
itty	-10046
oval	-10047
▁2.5	-10048
▁Agr	-10049
▁Ark	-10050
▁Ess	-10051
▁Eth	-10052
▁Has	-10053
▁Ont	-10054
isers	-10055
xygen	-10056
▁stem	-10057
making	-10058
nEnter	-10059
▁Sweet	-10060
▁overl	-10061
▁stamp	-10062
western	-10063
▁Animal	-10064
▁babies	-10065
▁grants	-10066
▁lesson	-10067
▁oldest	-10068
eptember	-10069
▁buttons	-10070
▁dealers	-10071
▁pushing	-10072
▁tremend	-10073
▁Partners	-10074
▁colleges	-10075
▁inventory	-10076
▁retailers	-10077
▁Restaurant	-10078
▁creativity	-10079
▁nationwide	-10080
47	-10081
FA	-10082
GO	-10083
-18	-10084
rox	-10085
beat	-10086
hyth	-10087
tech	-10088
▁250	-10089
▁3.0	-10090
▁Dri	-10091
▁Ori	-10092
▁Sug	-10093
anked	-10094
early	-10095
issue	-10096
▁Laur	-10097
▁lens	-10098
▁pean	-10099
▁porn	-10100
▁Capit	-10101
▁Dance	-10102
▁Metro	-10103
▁cheer	-10104
▁false	-10105
▁prime	-10106
mitting	-10107
nFriday	-10108
nMonday	-10109
▁Albert	-10110
▁Gordon	-10111
▁Things	-10112
▁apolog	-10113
▁funded	-10114
nLooking	-10115
▁Buffalo	-10116
▁Philipp	-10117
▁Reserve	-10118
▁credits	-10119
▁figured	-10120
▁heavily	-10121
▁letting	-10122
▁shortly	-10123
▁smoking	-10124
▁colorful	-10125
▁mortgage	-10126
▁studying	-10127
▁acknowled	-10128
▁impressed	-10129
▁musicians	-10130
▁platforms	-10131
▁secretary	-10132
▁maintained	-10133
▁Performance	-10134
▁importantly	-10135
▁disappointed	-10136
▁participated	-10137
She	-10138
▁41	-10139
ATED	-10140
atal	-10141
bing	-10142
olen	-10143
▁1.0	-10144
▁tox	-10145
icals	-10146
igate	-10147
ounge	-10148
storm	-10149
▁Bond	-10150
▁Bron	-10151
▁Cole	-10152
▁Pant	-10153
▁army	-10154
▁gate	-10155
essing	-10156
▁Larry	-10157
▁Suite	-10158
▁compr	-10159
▁olive	-10160
▁parks	-10161
▁threw	-10162
▁tries	-10163
ruption	-10164
▁margin	-10165
▁resume	-10166
▁reveal	-10167
▁sheets	-10168
▁suffer	-10169
▁tackle	-10170
▁viewed	-10171
▁Affairs	-10172
▁Despite	-10173
▁durable	-10174
▁servers	-10175
▁Creative	-10176
▁Governor	-10177
▁deadline	-10178
▁username	-10179
▁exploring	-10180
▁literature	-10181
▁motorcycle	-10182
▁appearances	-10183
▁celebrating	-10184
▁exclusively	-10185
▁publications	-10186
CP	-10187
HE	-10188
Me	-10189
ICE	-10190
▁DJ	-10191
▁IL	-10192
▁(18	-10193
▁Blu	-10194
▁ESP	-10195
▁FAQ	-10196
ocial	-10197
omore	-10198
▁CONT	-10199
▁Dean	-10200
▁Vent	-10201
▁Glass	-10202
▁alarm	-10203
▁alert	-10204
▁fraud	-10205
▁hired	-10206
nSearch	-10207
ropical	-10208
▁Doctor	-10209
▁Toyota	-10210
▁Walker	-10211
▁jacket	-10212
▁Options	-10213
▁banking	-10214
▁flights	-10215
▁harvest	-10216
▁rolling	-10217
▁studied	-10218
▁visible	-10219
▁freshman	-10220
▁outcomes	-10221
▁discovery	-10222
▁secondary	-10223
▁virtually	-10224
▁Application	-10225
▁medications	-10226
▁represented	-10227
▁extraordinary	-10228
OB	-10229
cd	-10230
Des	-10231
oft	-10232
zed	-10233
▁Om	-10234
▁Po	-10235
burn	-10236
cYou	-10237
oust	-10238
▁$50	-10239
▁Joy	-10240
▁Ped	-10241
piece	-10242
riber	-10243
▁Beck	-10244
▁Chel	-10245
▁Hong	-10246
▁Math	-10247
▁Nurs	-10248
▁Sean	-10249
▁keys	-10250
▁1-800	-10251
▁Griff	-10252
▁bikes	-10253
▁brace	-10254
▁hyper	-10255
▁virus	-10256
▁withd	-10257
section	-10258
▁Queens	-10259
▁checks	-10260
▁exceed	-10261
▁prints	-10262
▁Content	-10263
▁Mexican	-10264
▁healing	-10265
▁poverty	-10266
▁premier	-10267
▁enhanced	-10268
▁governor	-10269
▁reaching	-10270
▁survived	-10271
▁hospitals	-10272
▁mountains	-10273
▁recipient	-10274
▁approaches	-10275
.3	-10276
.:	-10277
bec	-10278
nal	-10279
nan	-10280
uct	-10281
▁Ga	-10282
addy	-10283
anth	-10284
boro	-10285
nRet	-10286
ooks	-10287
▁GOP	-10288
▁gym	-10289
aying	-10290
inate	-10291
nTake	-10292
▁Beat	-10293
▁Cars	-10294
▁Rome	-10295
▁dirt	-10296
▁fake	-10297
anches	-10298
ceived	-10299
▁Happy	-10300
▁Maria	-10301
▁Veter	-10302
▁Wayne	-10303
▁codes	-10304
▁fault	-10305
▁shock	-10306
▁tooth	-10307
▁Method	-10308
▁Source	-10309
▁indoor	-10310
aughters	-10311
▁Premier	-10312
▁Weather	-10313
▁deficit	-10314
▁divided	-10315
▁fingers	-10316
▁stylish	-10317
▁venture	-10318
▁entrance	-10319
▁mistakes	-10320
▁targeted	-10321
▁Manhattan	-10322
▁infection	-10323
▁placement	-10324
▁uncertain	-10325
▁electricity	-10326
▁occasionally	-10327
▁satisfaction	-10328
42	-10329
KE	-10330
yd	-10331
rep	-10332
▁0\	-10333
▁BE	-10334
agen	-10335
mate	-10336
stop	-10337
usal	-10338
▁190	-10339
▁350	-10340
▁Ide	-10341
▁Put	-10342
▁mic	-10343
acent	-10344
nHigh	-10345
▁THIS	-10346
▁Viet	-10347
▁scar	-10348
cThere	-10349
ifting	-10350
▁2010.	-10351
▁Paper	-10352
▁Speed	-10353
▁dried	-10354
▁minds	-10355
▁piano	-10356
▁reven	-10357
▁roots	-10358
imental	-10359
pending	-10360
▁Alaska	-10361
▁Simply	-10362
▁prizes	-10363
nTuesday	-10364
▁Phoenix	-10365
▁amounts	-10366
▁exhaust	-10367
▁painted	-10368
▁Remember	-10369
▁operated	-10370
▁veterans	-10371
vironments	-10372
▁interpret	-10373
▁compliment	-10374
▁prescription	-10375
Us	-10376
IST	-10377
nFe	-10378
Date	-10379
Just	-10380
ieve	-10381
nPat	-10382
▁3.5	-10383
▁Der	-10384
▁Kit	-10385
▁RBI	-10386
amics	-10387
books	-10388
nPart	-10389
oting	-10390
utors	-10391
▁Comb	-10392
▁Drug	-10393
▁Mall	-10394
▁isol	-10395
▁toll	-10396
heimer	-10397
istent	-10398
master	-10399
▁bacon	-10400
▁lease	-10401
▁semin	-10402
▁surge	-10403
▁treas	-10404
▁Advent	-10405
▁Scient	-10406
▁donate	-10407
▁escape	-10408
▁folder	-10409
▁frozen	-10410
▁heaven	-10411
▁module	-10412
▁panels	-10413
▁shirts	-10414
itations	-10415
▁Samsung	-10416
▁fantasy	-10417
▁formula	-10418
▁Broadway	-10419
▁Interest	-10420
▁Marshall	-10421
▁calories	-10422
▁diseases	-10423
▁episodes	-10424
▁promised	-10425
▁semester	-10426
▁WordPress	-10427
▁advertise	-10428
▁contacted	-10429
▁districts	-10430
▁initially	-10431
▁redistrib	-10432
▁appreciated	-10433
▁communicate	-10434
▁fundamental	-10435
uj	-10436
ASH	-10437
TON	-10438
cho	-10439
ugg	-10440
amar	-10441
nMan	-10442
nTop	-10443
rous	-10444
▁Bab	-10445
▁Boe	-10446
▁Hud	-10447
▁Pas	-10448
oding	-10449
unate	-10450
▁Body	-10451
▁Fame	-10452
▁Grow	-10453
▁shit	-10454
ounces	-10455
stract	-10456
▁Prize	-10457
▁Quick	-10458
▁Trail	-10459
▁Trial	-10460
▁rated	-10461
▁scrap	-10462
▁slide	-10463
▁twist	-10464
ivalent	-10465
ository	-10466
ounding	-10467
▁Battle	-10468
▁Ground	-10469
▁agenda	-10470
▁horses	-10471
▁locate	-10472
outheast	-10473
▁captain	-10474
nThursday	-10475
▁Advanced	-10476
▁Charlotte	-10477
▁campaigns	-10478
▁correctly	-10479
▁reporters	-10480
▁sensitive	-10481
▁compliance	-10482
▁engagement	-10483
▁flexibility	-10484
▁entertaining	-10485
ds	-10486
1.\	-10487
ESS	-10488
▁>\	-10489
▁IM	-10490
▁NE	-10491
home	-10492
onda	-10493
▁Beh	-10494
▁Kay	-10495
▁Nut	-10496
▁Wii	-10497
apore	-10498
brook	-10499
eland	-10500
▁Belg	-10501
▁Duke	-10502
▁Gree	-10503
▁Lock	-10504
▁Race	-10505
▁Sale	-10506
▁Unit	-10507
▁bulk	-10508
▁wing	-10509
acious	-10510
encing	-10511
reedom	-10512
▁Carib	-10513
▁crack	-10514
▁stops	-10515
▁Proper	-10516
▁deeper	-10517
▁exists	-10518
▁gender	-10519
▁sculpt	-10520
▁Islamic	-10521
▁Univers	-10522
▁deserve	-10523
▁editing	-10524
▁Economic	-10525
▁Medicare	-10526
▁Scotland	-10527
▁adoption	-10528
▁referred	-10529
▁unlikely	-10530
nPublished	-10531
▁marijuana	-10532
▁concerning	-10533
▁introduction	-10534
KS	-10535
nAv	-10536
nut	-10537
oam	-10538
▁WW	-10539
abil	-10540
arms	-10541
asty	-10542
nSim	-10543
ogen	-10544
quet	-10545
▁(10	-10546
▁BBC	-10547
▁CBS	-10548
▁NEW	-10549
▁Pap	-10550
▁pip	-10551
cThey	-10552
otion	-10553
stick	-10554
uthor	-10555
▁Brid	-10556
▁Norm	-10557
▁lung	-10558
▁wrap	-10559
ellite	-10560
▁Clear	-10561
▁Death	-10562
▁Grant	-10563
▁elder	-10564
▁onion	-10565
▁paste	-10566
▁Create	-10567
▁Excell	-10568
▁Hotels	-10569
▁lately	-10570
▁ruling	-10571
▁Details	-10572
▁mystery	-10573
▁periods	-10574
▁printer	-10575
▁summary	-10576
ictionary	-10577
▁Planning	-10578
▁assigned	-10579
▁balanced	-10580
▁gathered	-10581
▁overview	-10582
▁introduce	-10583
▁lawmakers	-10584
▁processor	-10585
▁BlackBerry	-10586
▁governments	-10587
▁administrator	-10588
76	-10589
VP	-10590
010	-10591
mic	-10592
▁1-	-10593
▁Ah	-10594
esty	-10595
heat	-10596
mith	-10597
wind	-10598
▁Bou	-10599
▁Gab	-10600
▁Lic	-10601
backs	-10602
icked	-10603
nKeep	-10604
umble	-10605
▁1995	-10606
▁1998	-10607
▁Meet	-10608
▁Prin	-10609
▁Sure	-10610
▁aims	-10611
▁exit	-10612
▁quar	-10613
▁vine	-10614
▁Arena	-10615
▁Cream	-10616
▁Delhi	-10617
▁Initi	-10618
▁Jerry	-10619
▁Nancy	-10620
▁Princ	-10621
▁Print	-10622
▁aband	-10623
▁enemy	-10624
▁stood	-10625
▁Double	-10626
▁Giants	-10627
▁curric	-10628
▁extent	-10629
▁lawyer	-10630
▁locked	-10631
▁stupid	-10632
▁versus	-10633
▁wooden	-10634
▁Yankees	-10635
▁carrier	-10636
▁chronic	-10637
▁fiction	-10638
▁rentals	-10639
▁violent	-10640
▁Everyone	-10641
▁captured	-10642
▁commonly	-10643
▁courtesy	-10644
▁expenses	-10645
▁listings	-10646
▁phenomen	-10647
▁abilities	-10648
▁expecting	-10649
▁responses	-10650
▁electrical	-10651
▁settlement	-10652
▁explanation	-10653
▁Thanksgiving	-10654
▁photographer	-10655
.2	-10656
Mar	-10657
aho	-10658
don	-10659
hol	-10660
lla	-10661
opy	-10662
▁SW	-10663
▁TD	-10664
enny	-10665
itis	-10666
oret	-10667
pack	-10668
▁Cry	-10669
▁Tru	-10670
▁alt	-10671
▁gap	-10672
▁sed	-10673
agram	-10674
nNews	-10675
shirt	-10676
▁1960	-10677
▁Boys	-10678
▁gran	-10679
▁peak	-10680
▁sour	-10681
▁vert	-10682
▁yoga	-10683
asting	-10684
father	-10685
▁Girls	-10686
▁Scout	-10687
▁annoy	-10688
▁winds	-10689
duction	-10690
▁Easter	-10691
▁boring	-10692
▁buyers	-10693
▁comics	-10694
▁handed	-10695
▁hearts	-10696
▁hiring	-10697
▁occurs	-10698
▁puzzle	-10699
▁scream	-10700
▁Baptist	-10701
▁dancing	-10702
▁blogging	-10703
▁giveaway	-10704
▁optional	-10705
▁striking	-10706
▁elections	-10707
▁integrity	-10708
▁delivering	-10709
▁specialist	-10710
▁complicated	-10711
▁involvement	-10712
▁spectacular	-10713
93	-10714
Do	-10715
)||	-10716
Day	-10717
ibl	-10718
▁$12	-10719
▁Bol	-10720
▁Gov	-10721
▁Nap	-10722
▁Six	-10723
▁jur	-10724
▁roy	-10725
nBoth	-10726
owing	-10727
▁Cash	-10728
▁Reds	-10729
▁unve	-10730
mother	-10731
ottest	-10732
urches	-10733
▁1,000	-10734
▁Islam	-10735
▁Mason	-10736
▁rally	-10737
▁wines	-10738
▁2011.\	-10739
▁Castle	-10740
▁Future	-10741
▁Turkey	-10742
▁labels	-10743
arehouse	-10744
▁Address	-10745
▁Brandon	-10746
▁Diamond	-10747
▁Morning	-10748
▁minimal	-10749
▁subsidi	-10750
▁channels	-10751
▁emerging	-10752
▁grateful	-10753
▁Assistant	-10754
▁offerings	-10755
▁depression	-10756
▁passengers	-10757
▁acquisition	-10758
▁coordinator	-10759
▁essentially	-10760
▁arrangements	-10761
▁representing	-10762
▁controversial	-10763
PG	-10764
sl	-10765
▁?	-10766
Jan	-10767
gun	-10768
anie	-10769
atar	-10770
cats	-10771
cthe	-10772
okia	-10773
umbl	-10774
▁pad	-10775
▁pig	-10776
▁sne	-10777
ierce	-10778
reach	-10779
▁Feat	-10780
▁Side	-10781
▁chip	-10782
▁2004,	-10783
▁Final	-10784
▁humor	-10785
▁ridic	-10786
▁teens	-10787
▁teeth	-10788
▁waist	-10789
▁denied	-10790
▁eighth	-10791
▁floors	-10792
▁gentle	-10793
▁immigr	-10794
nBecause	-10795
▁Ontario	-10796
▁Process	-10797
▁Complete	-10798
▁Jonathan	-10799
▁ordinary	-10800
▁framework	-10801
▁graduated	-10802
▁magazines	-10803
▁consumption	-10804
▁investments	-10805
▁promotional	-10806
/1	-10807
Fi	-10808
ML	-10809
NS	-10810
Oh	-10811
vo	-10812
!)\	-10813
ITE	-10814
Ste	-10815
emb	-10816
ols	-10817
▁:\	-10818
▁Bh	-10819
▁Sa	-10820
▁TR	-10821
ntil	-10822
▁Hat	-10823
agine	-10824
otive	-10825
▁Gary	-10826
▁Jere	-10827
▁Kind	-10828
▁Trip	-10829
▁belt	-10830
▁bout	-10831
▁pose	-10832
▁pour	-10833
nVisit	-10834
oppers	-10835
▁2006,	-10836
▁Links	-10837
▁embed	-10838
▁gains	-10839
▁laser	-10840
berries	-10841
urchase	-10842
▁Estate	-10843
▁Single	-10844
▁garage	-10845
▁inject	-10846
▁Further	-10847
▁Liberty	-10848
▁Madison	-10849
▁engines	-10850
▁recruit	-10851
▁watches	-10852
▁Independ	-10853
▁analysts	-10854
▁nonprofit	-10855
▁recession	-10856
▁spiritual	-10857
▁apartments	-10858
▁compatible	-10859
▁downloaded	-10860
▁industries	-10861
▁trademarks	-10862
▁Christopher	-10863
▁certificate	-10864
▁institution	-10865
▁environments	-10866
▁respectively	-10867
▁presentations	-10868
NC	-10869
UE	-10870
ez	-10871
1/2	-10872
oof	-10873
▁68	-10874
▁CC	-10875
acon	-10876
aved	-10877
door	-10878
eled	-10879
quer	-10880
▁Hus	-10881
▁Moh	-10882
▁maj	-10883
aceut	-10884
essor	-10885
speed	-10886
uplic	-10887
utral	-10888
▁Budd	-10889
▁Dise	-10890
▁Lisa	-10891
▁Poly	-10892
▁Todd	-10893
▁adap	-10894
▁bail	-10895
▁Homes	-10896
▁Image	-10897
▁Tampa	-10898
▁Tyler	-10899
▁alike	-10900
▁cabin	-10901
▁fluid	-10902
▁tires	-10903
▁wider	-10904
▁Legisl	-10905
▁Potter	-10906
▁Update	-10907
▁backed	-10908
▁dispos	-10909
▁ladies	-10910
▁salary	-10911
▁Fashion	-10912
▁charity	-10913
▁sleeping	-10914
▁survival	-10915
▁elsewhere	-10916
▁existence	-10917
▁gathering	-10918
▁demonstrate	-10919
BL	-10920
En	-10921
RO	-10922
Ind	-10923
cos	-10924
iox	-10925
nex	-10926
▁#1	-10927
post	-10928
zens	-10929
▁Age	-10930
▁Amy	-10931
▁Zoo	-10932
▁aer	-10933
stock	-10934
ython	-10935
▁Conc	-10936
▁hire	-10937
▁zero	-10938
ountry	-10939
▁Build	-10940
▁Clark	-10941
▁acres	-10942
▁distr	-10943
▁drops	-10944
▁handy	-10945
▁legit	-10946
▁lobby	-10947
▁rehab	-10948
▁Spirit	-10949
▁carpet	-10950
▁compos	-10951
▁desert	-10952
▁transf	-10953
▁flavors	-10954
▁qualify	-10955
ropolitan	-10956
▁Features	-10957
▁Official	-10958
▁counties	-10959
▁measured	-10960
▁ordering	-10961
nWednesday	-10962
▁batteries	-10963
▁encounter	-10964
▁expanding	-10965
▁Everything	-10966
▁applicable	-10967
▁directions	-10968
▁protecting	-10969
bul	-10970
cca	-10971
fox	-10972
han	-10973
nre	-10974
opt	-10975
▁51	-10976
▁Hu	-10977
▁IV	-10978
airy	-10979
emed	-10980
ilet	-10981
olid	-10982
▁30-	-10983
▁50%	-10984
▁>>\	-10985
▁MLB	-10986
▁Ted	-10987
▁Vin	-10988
▁lbs	-10989
Tunes	-10990
ifier	-10991
issan	-10992
nCall	-10993
nthat	-10994
▁1000	-10995
▁Fish	-10996
▁Prot	-10997
▁Send	-10998
▁beds	-10999
▁bron	-11000
▁hood	-11001
▁pond	-11002
▁yarn	-11003
arlier	-11004
ousing	-11005
ported	-11006
tended	-11007
uminum	-11008
▁Lions	-11009
▁Oscar	-11010
▁ranks	-11011
selling	-11012
▁Employ	-11013
▁Visual	-11014
▁actors	-11015
▁counts	-11016
▁pursue	-11017
▁titled	-11018
▁wheels	-11019
▁Install	-11020
▁Quality	-11021
▁Reuters	-11022
▁beating	-11023
▁endorse	-11024
▁handful	-11025
▁inspire	-11026
▁roughly	-11027
▁Agricult	-11028
▁Consumer	-11029
▁precious	-11030
▁stopping	-11031
▁thousand	-11032
▁boyfriend	-11033
▁philosophy	-11034
▁structures	-11035
▁intellectual	-11036
▁Transportation	-11037
▁identification	-11038
.4	-11039
/7	-11040
PP	-11041
Cal	-11042
fly	-11043
▁52	-11044
▁Ow	-11045
▁ft	-11046
▁ru	-11047
best	-11048
card	-11049
ccup	-11050
cycl	-11051
enna	-11052
ickr	-11053
unks	-11054
▁Dry	-11055
▁Imp	-11056
▁Rio	-11057
▁tsp	-11058
After	-11059
isdom	-11060
nGood	-11061
▁ESPN	-11062
▁Pers	-11063
▁Stay	-11064
▁Xbox	-11065
▁buzz	-11066
▁migr	-11067
▁seal	-11068
ervice	-11069
itched	-11070
ptions	-11071
strong	-11072
▁Impro	-11073
▁Innov	-11074
▁Magic	-11075
▁Title	-11076
▁Woods	-11077
▁alleg	-11078
▁angle	-11079
▁laund	-11080
▁shelf	-11081
▁suite	-11082
urities	-11083
▁10,000	-11084
▁Victor	-11085
▁permit	-11086
▁refres	-11087
▁stolen	-11088
▁arrival	-11089
▁heating	-11090
▁hunting	-11091
▁rapidly	-11092
▁suicide	-11093
nLocation	-11094
▁Hamilton	-11095
▁Nintendo	-11096
▁climbing	-11097
▁ensuring	-11098
▁prospect	-11099
▁diagnosis	-11100
▁followers	-11101
▁Additional	-11102
▁commentary	-11103
▁accomplished	-11104
HD	-11105
jo	-11106
aya	-11107
esh	-11108
oca	-11109
oks	-11110
lett	-11111
onde	-11112
othy	-11113
reck	-11114
▁$2.	-11115
▁Bee	-11116
▁Hal	-11117
▁Lat	-11118
▁Neb	-11119
▁Ord	-11120
▁Var	-11121
eness	-11122
▁Coun	-11123
▁HTML	-11124
▁Java	-11125
▁Marl	-11126
▁Tell	-11127
▁dipl	-11128
▁fert	-11129
▁obst	-11130
▁pics	-11131
▁pine	-11132
nApril	-11133
omatic	-11134
▁edges	-11135
▁medal	-11136
▁polls	-11137
▁react	-11138
▁ruled	-11139
▁uncle	-11140
avorite	-11141
▁Images	-11142
▁Malays	-11143
▁Wright	-11144
▁charts	-11145
▁danger	-11146
▁mathem	-11147
▁muscle	-11148
▁rarely	-11149
nWhether	-11150
▁Chelsea	-11151
▁archive	-11152
▁cancell	-11153
▁nursing	-11154
▁Columbus	-11155
▁choosing	-11156
▁chemicals	-11157
▁competing	-11158
▁Leadership	-11159
▁equivalent	-11160
▁disabilities	-11161
.;	-11162
OX	-11163
INE	-11164
OST	-11165
URE	-11166
cal	-11167
ito	-11168
nst	-11169
▁47	-11170
▁BL	-11171
▁EC	-11172
▁TX	-11173
emon	-11174
nHer	-11175
nOff	-11176
nRel	-11177
▁din	-11178
▁gig	-11179
▁iOS	-11180
▁lap	-11181
angle	-11182
elled	-11183
netic	-11184
pract	-11185
umblr	-11186
▁Hend	-11187
▁LOVE	-11188
▁chol	-11189
▁hadn	-11190
ishers	-11191
▁Jimmy	-11192
▁Short	-11193
▁Touch	-11194
enities	-11195
▁dealer	-11196
▁fisher	-11197
▁myster	-11198
▁wishes	-11199
ologists	-11200
▁colored	-11201
▁curious	-11202
▁devoted	-11203
▁fastest	-11204
▁grocery	-11205
▁publish	-11206
▁receipt	-11207
▁worship	-11208
▁Alliance	-11209
▁Industry	-11210
▁Thompson	-11211
▁abortion	-11212
▁Alexander	-11213
▁attempted	-11214
▁customized	-11215
▁designated	-11216
▁difficulty	-11217
▁generations	-11218
▁conventional	-11219
▁configuration	-11220
6)	-11221
tw	-11222
Med	-11223
cIf	-11224
erk	-11225
nGu	-11226
ugs	-11227
▁..	-11228
▁DE	-11229
▁ax	-11230
****	-11231
acco	-11232
issa	-11233
▁Bat	-11234
▁Gil	-11235
▁NBC	-11236
▁kil	-11237
track	-11238
▁Lane	-11239
▁calm	-11240
▁disk	-11241
▁prev	-11242
▁suck	-11243
▁tune	-11244
effect	-11245
ultane	-11246
▁crown	-11247
▁enorm	-11248
▁pursu	-11249
▁uncom	-11250
▁Rating	-11251
▁preced	-11252
▁Release	-11253
▁anybody	-11254
▁beaches	-11255
▁ceiling	-11256
▁costume	-11257
▁expects	-11258
▁landing	-11259
▁restore	-11260
ationally	-11261
▁Franklin	-11262
▁annually	-11263
▁defeated	-11264
▁premiere	-11265
▁Architect	-11266
▁Louisiana	-11267
▁selecting	-11268
▁continuous	-11269
▁treatments	-11270
▁merchandise	-11271
▁reservations	-11272
09	-11273
BR	-11274
MP	-11275
-17	-11276
400	-11277
OUR	-11278
hot	-11279
urg	-11280
▁3\	-11281
▁43	-11282
▁AF	-11283
▁GO	-11284
etta	-11285
nDid	-11286
only	-11287
oons	-11288
shot	-11289
wall	-11290
▁Roc	-11291
▁Tok	-11292
▁arr	-11293
amous	-11294
liers	-11295
nStep	-11296
ushes	-11297
▁Desk	-11298
▁Mean	-11299
▁Mini	-11300
▁Prop	-11301
▁Sent	-11302
achers	-11303
imedia	-11304
incinn	-11305
nPhoto	-11306
nStart	-11307
nThose	-11308
▁Cover	-11309
▁alter	-11310
▁innoc	-11311
▁toler	-11312
▁Oxford	-11313
▁barrel	-11314
▁hardly	-11315
▁hybrid	-11316
▁iTunes	-11317
▁sacrif	-11318
▁solely	-11319
appropri	-11320
nDespite	-11321
▁Nothing	-11322
▁Results	-11323
▁applies	-11324
▁careers	-11325
▁outcome	-11326
▁segment	-11327
▁seniors	-11328
▁wrapped	-11329
▁claiming	-11330
▁evaluate	-11331
▁delighted	-11332
▁employers	-11333
▁operators	-11334
▁proposals	-11335
▁recruiting	-11336
▁references	-11337
▁strengthen	-11338
▁accompanied	-11339
▁recommendation	-11340
07	-11341
79	-11342
Or	-11343
wa	-11344
Bul	-11345
Why	-11346
Yes	-11347
fig	-11348
lan	-11349
nOk	-11350
udy	-11351
▁56	-11352
▁PL	-11353
news	-11354
udes	-11355
uman	-11356
▁Alt	-11357
▁Fly	-11358
▁Hop	-11359
▁Hur	-11360
▁IRS	-11361
▁Kar	-11362
▁Les	-11363
▁Wee	-11364
▁fet	-11365
▁unp	-11366
▁zip	-11367
depth	-11368
ifted	-11369
nMean	-11370
▁$500	-11371
▁Cant	-11372
▁joke	-11373
▁panc	-11374
▁pork	-11375
Source	-11376
orious	-11377
ounced	-11378
urious	-11379
▁Cable	-11380
▁Chair	-11381
▁Clean	-11382
▁Craig	-11383
▁Robin	-11384
▁fragr	-11385
▁grabb	-11386
▁seeks	-11387
esterol	-11388
fielder	-11389
▁Fisher	-11390
▁Weight	-11391
▁basket	-11392
▁layout	-11393
▁loaded	-11394
▁outfit	-11395
▁shorts	-11396
communic	-11397
▁Profile	-11398
▁Working	-11399
▁discrim	-11400
▁nations	-11401
▁seating	-11402
▁Ministry	-11403
▁actively	-11404
▁cinnamon	-11405
▁emphasis	-11406
▁entitled	-11407
▁observed	-11408
▁reserves	-11409
▁universe	-11410
▁celebrity	-11411
▁financing	-11412
▁complaints	-11413
▁convention	-11414
▁resistance	-11415
▁surrounded	-11416
▁accommodate	-11417
▁administrative	-11418
01	-11419
Fl	-11420
ii	-11421
ORT	-11422
gor	-11423
hou	-11424
nFl	-11425
ped	-11426
was	-11427
▁)\	-11428
▁Mu	-11429
▁Rs	-11430
Here	-11431
cend	-11432
nArt	-11433
nSec	-11434
plus	-11435
▁(\"	-11436
▁12-	-11437
▁Aid	-11438
▁Mit	-11439
▁Nev	-11440
▁ank	-11441
▁fed	-11442
▁hub	-11443
ailed	-11444
ecome	-11445
lined	-11446
usive	-11447
▁1996	-11448
▁7:30	-11449
▁Parl	-11450
▁Pent	-11451
▁Rail	-11452
▁cous	-11453
▁rush	-11454
▁sits	-11455
▁tale	-11456
author	-11457
▁Being	-11458
▁Total	-11459
▁apple	-11460
▁cater	-11461
▁helic	-11462
▁prest	-11463
▁sweep	-11464
ambling	-11465
ategory	-11466
▁Campus	-11467
▁Morgan	-11468
▁speaks	-11469
▁themes	-11470
▁trails	-11471
▁apparel	-11472
▁disturb	-11473
▁sisters	-11474
incinnati	-11475
▁employer	-11476
▁modified	-11477
▁opponent	-11478
▁Caribbean	-11479
▁Hurricane	-11480
▁Valentine	-11481
▁daughters	-11482
▁directors	-11483
▁eliminate	-11484
▁emissions	-11485
▁instantly	-11486
▁packaging	-11487
▁specialty	-11488
▁collecting	-11489
▁curriculum	-11490
▁sufficient	-11491
▁fascinating	-11492
▁Registration	-11493
▁consequences	-11494
Go	-11495
fa	-11496
Res	-11497
una	-11498
▁(9	-11499
▁Wy	-11500
2000	-11501
elta	-11502
iary	-11503
will	-11504
▁GMT	-11505
▁Row	-11506
▁Syd	-11507
▁Too	-11508
▁dil	-11509
▁soy	-11510
aders	-11511
aukee	-11512
eters	-11513
maker	-11514
nMark	-11515
▁Coal	-11516
▁Hans	-11517
▁Vill	-11518
▁bund	-11519
▁frag	-11520
charge	-11521
nUnder	-11522
prises	-11523
school	-11524
▁Honey	-11525
▁inaug	-11526
▁nurse	-11527
pection	-11528
▁Dragon	-11529
▁Guaran	-11530
▁Harbor	-11531
▁discip	-11532
▁fallen	-11533
▁Finally	-11534
▁Holiday	-11535
▁Reports	-11536
▁Section	-11537
▁blocked	-11538
▁pitcher	-11539
▁placing	-11540
▁Medicaid	-11541
▁currency	-11542
▁declared	-11543
▁dialogue	-11544
▁overseas	-11545
▁Technical	-11546
▁frequency	-11547
▁versatile	-11548
▁passionate	-11549
▁substitute	-11550
▁achievement	-11551
▁transaction	-11552
::	-11553
Gu	-11554
IO	-11555
2.\	-11556
:12	-11557
\")	-11558
aki	-11559
nEm	-11560
nas	-11561
▁CM	-11562
▁Wa	-11563
▁oh	-11564
Mart	-11565
Well	-11566
bian	-11567
hard	-11568
ilst	-11569
▁Cos	-11570
▁bes	-11571
.....	-11572
2019,	-11573
break	-11574
click	-11575
first	-11576
quest	-11577
stage	-11578
uerto	-11579
▁1997	-11580
▁Beth	-11581
▁Kyle	-11582
▁penc	-11583
▁rook	-11584
▁slip	-11585
nSorry	-11586
vation	-11587
▁Benef	-11588
▁Chase	-11589
▁Mater	-11590
▁Perry	-11591
▁adequ	-11592
▁brack	-11593
▁greet	-11594
▁picks	-11595
▁punch	-11596
▁saves	-11597
▁snack	-11598
▁stere	-11599
▁waves	-11600
▁Beauty	-11601
▁Carter	-11602
▁Photos	-11603
▁Record	-11604
▁cruise	-11605
▁grades	-11606
▁landed	-11607
▁timely	-11608
--------	-11609
▁Oakland	-11610
▁booking	-11611
▁cheaper	-11612
▁theatre	-11613
▁Commerce	-11614
▁Language	-11615
▁checkout	-11616
▁exterior	-11617
▁Singapore	-11618
▁diagnosed	-11619
▁legendary	-11620
▁streaming	-11621
▁completing	-11622
▁supporters	-11623
▁competitors	-11624
▁characteristics	-11625
()	-11626
08	-11627
49	-11628
?)	-11629
SO	-11630
UI	-11631
VA	-11632
vd	-11633
-25	-11634
Che	-11635
rah	-11636
||\	-11637
▁BY	-11638
fund	-11639
lend	-11640
ummy	-11641
▁20%	-11642
▁Tan	-11643
▁Ton	-11644
▁cub	-11645
attoo	-11646
nCons	-11647
ouses	-11648
white	-11649
▁Anne	-11650
▁Cany	-11651
▁Jake	-11652
▁Virt	-11653
▁grid	-11654
▁kiss	-11655
▁nick	-11656
▁rack	-11657
▁rust	-11658
▁spam	-11659
unches	-11660
waukee	-11661
▁Barry	-11662
▁Idaho	-11663
▁colon	-11664
▁comed	-11665
▁explo	-11666
▁grace	-11667
nCustom	-11668
rection	-11669
▁Peters	-11670
▁accord	-11671
▁clever	-11672
▁deaths	-11673
▁honors	-11674
▁jumped	-11675
▁latter	-11676
▁legacy	-11677
▁oxygen	-11678
▁warned	-11679
▁Islands	-11680
▁Rangers	-11681
▁absence	-11682
▁decline	-11683
▁magical	-11684
roduction	-11685
▁Heritage	-11686
▁Michelle	-11687
▁branches	-11688
▁overcome	-11689
▁proceeds	-11690
▁produces	-11691
▁Southwest	-11692
▁anonymous	-11693
▁container	-11694
▁detection	-11695
▁neighbors	-11696
▁objective	-11697
▁opponents	-11698
▁pollution	-11699
▁prospects	-11700
▁vegetable	-11701
▁attendance	-11702
▁collective	-11703
▁encouraging	-11704
▁implemented	-11705
41	-11706
83	-11707
CL	-11708
Te	-11709
ji	-11710
ELL	-11711
adi	-11712
iva	-11713
ova	-11714
pes	-11715
Time	-11716
gate	-11717
olas	-11718
vity	-11719
▁Dub	-11720
▁Job	-11721
▁SEC	-11722
▁Tea	-11723
▁gam	-11724
agedy	-11725
izard	-11726
oning	-11727
orted	-11728
▁1950	-11729
▁Mars	-11730
▁Pope	-11731
▁Salt	-11732
▁Wolf	-11733
▁aged	-11734
▁nuts	-11735
▁rebu	-11736
▁sail	-11737
▁sons	-11738
nStill	-11739
ustain	-11740
▁Among	-11741
▁Blues	-11742
▁Bring	-11743
▁Early	-11744
▁mouse	-11745
▁scope	-11746
▁sweat	-11747
▁Donald	-11748
▁Hunter	-11749
▁belief	-11750
▁stones	-11751
▁treats	-11752
▁worker	-11753
nFinally	-11754
▁Capitol	-11755
▁affairs	-11756
▁beloved	-11757
▁circuit	-11758
▁helicop	-11759
▁islands	-11760
▁pockets	-11761
▁Assembly	-11762
▁Palestin	-11763
▁Resource	-11764
▁archives	-11765
▁addressed	-11766
▁destroyed	-11767
▁headlines	-11768
▁licensing	-11769
▁publisher	-11770
▁stainless	-11771
▁complement	-11772
▁thoroughly	-11773
▁politicians	-11774
▁compensation	-11775
-\	-11776
/5	-11777
89	-11778
219	-11779
gom	-11780
oat	-11781
oyd	-11782
uum	-11783
▁IC	-11784
ront	-11785
tics	-11786
▁BMW	-11787
▁Lib	-11788
▁Rot	-11789
▁cam	-11790
▁gal	-11791
arest	-11792
found	-11793
scale	-11794
▁Such	-11795
▁beta	-11796
▁crop	-11797
ending	-11798
▁2006\	-11799
▁Prior	-11800
▁booth	-11801
▁charm	-11802
▁overs	-11803
▁straw	-11804
ingerie	-11805
▁Integr	-11806
▁Orland	-11807
▁albums	-11808
▁dozens	-11809
▁lovers	-11810
▁quoted	-11811
▁strips	-11812
▁surely	-11813
▁somehow	-11814
▁starter	-11815
▁vibrant	-11816
▁frequent	-11817
▁organize	-11818
▁publicly	-11819
▁breathing	-11820
▁inspiring	-11821
▁prominent	-11822
▁Basketball	-11823
▁conclusion	-11824
▁excellence	-11825
▁negotiations	-11826
▁accommodation	-11827
Se	-11828
=\"	-11829
CAR	-11830
nGr	-11831
rob	-11832
Orig	-11833
agic	-11834
bled	-11835
kers	-11836
quis	-11837
tems	-11838
what	-11839
▁Inv	-11840
heart	-11841
nOpen	-11842
ogurt	-11843
▁Circ	-11844
▁Crit	-11845
▁Dist	-11846
▁Ever	-11847
▁Lion	-11848
▁anch	-11849
▁cord	-11850
▁dose	-11851
▁dump	-11852
▁elim	-11853
▁leak	-11854
▁mall	-11855
▁quit	-11856
▁reun	-11857
▁synd	-11858
▁Bruce	-11859
▁Grove	-11860
▁Nokia	-11861
▁Terms	-11862
▁cakes	-11863
▁globe	-11864
▁knock	-11865
▁pasta	-11866
▁stays	-11867
manship	-11868
▁Modern	-11869
▁bacter	-11870
▁onions	-11871
▁priced	-11872
▁repeat	-11873
▁rolled	-11874
▁trials	-11875
ilarious	-11876
▁Freedom	-11877
▁resolve	-11878
▁Programs	-11879
▁distingu	-11880
▁homeless	-11881
▁operator	-11882
▁profiles	-11883
▁reminded	-11884
▁removing	-11885
▁sequence	-11886
▁somebody	-11887
▁traveled	-11888
▁forgotten	-11889
▁classified	-11890
▁exploration	-11891
▁demonstrated	-11892
▁specifications	-11893
46	-11894
SW	-11895
UP	-11896
hr	-11897
ANT	-11898
Can	-11899
Eng	-11900
era	-11901
▁Az	-11902
▁tu	-11903
cest	-11904
gain	-11905
kind	-11906
nAss	-11907
pted	-11908
▁Bus	-11909
▁Gay	-11910
▁Lot	-11911
▁Mas	-11912
▁fib	-11913
▁pix	-11914
2026.	-11915
raska	-11916
▁Mitt	-11917
▁Poll	-11918
▁Stri	-11919
▁Tips	-11920
▁exch	-11921
▁gene	-11922
▁pear	-11923
▁Alice	-11924
▁Value	-11925
▁adopt	-11926
▁armed	-11927
▁crust	-11928
▁param	-11929
ighting	-11930
ishment	-11931
leyball	-11932
nDirect	-11933
▁Sydney	-11934
▁Warren	-11935
▁Wonder	-11936
▁enjoys	-11937
▁nomine	-11938
▁runner	-11939
........	-11940
▁Tribune	-11941
▁assured	-11942
▁critics	-11943
▁formats	-11944
▁funeral	-11945
▁highway	-11946
▁tablets	-11947
▁artistic	-11948
▁portable	-11949
▁receiver	-11950
▁indicates	-11951
▁territory	-11952
▁Cincinnati	-11953
▁authorized	-11954
▁consultant	-11955
▁requirement	-11956
▁developments	-11957
▁transactions	-11958
▁possibilities	-11959
MD	-11960
wy	-11961
:26	-11962
agu	-11963
cIn	-11964
inf	-11965
lon	-11966
▁WE	-11967
2033	-11968
awks	-11969
cure	-11970
enez	-11971
isle	-11972
nWeb	-11973
unny	-11974
▁3/4	-11975
▁Joh	-11976
▁Lie	-11977
▁ele	-11978
▁hes	-11979
▁les	-11980
erver	-11981
etter	-11982
nNext	-11983
rigue	-11984
▁Cold	-11985
▁Self	-11986
▁YOUR	-11987
▁epic	-11988
▁ster	-11989
▁Compl	-11990
▁Ranch	-11991
▁asset	-11992
▁cliff	-11993
▁dirty	-11994
▁disag	-11995
▁lands	-11996
▁shade	-11997
playing	-11998
▁Course	-11999
▁Hudson	-12000
▁Puerto	-12001
▁Reader	-12002
▁peanut	-12003
▁routes	-12004
▁rubber	-12005
▁stroke	-12006
▁timing	-12007
▁trucks	-12008
▁Disease	-12009
▁dressed	-12010
▁grounds	-12011
▁physics	-12012
▁ranking	-12013
▁ratings	-12014
▁threats	-12015
▁Montreal	-12016
▁generous	-12017
▁thrilled	-12018
nMeanwhile	-12019
▁audiences	-12020
▁satisfied	-12021
▁Initiative	-12022
▁meaningful	-12023
▁tremendous	-12024
▁understood	-12025
▁beautifully	-12026
▁electronics	-12027
▁headquarters	-12028
'.	-12029
pg	-12030
ITH	-12031
ilm	-12032
▁MT	-12033
IGHT	-12034
anga	-12035
nCar	-12036
plex	-12037
they	-12038
turn	-12039
▁$30	-12040
▁Aqu	-12041
▁Dal	-12042
▁Hig	-12043
▁Ult	-12044
These	-12045
ancou	-12046
stead	-12047
▁Chef	-12048
▁Chem	-12049
▁Jeep	-12050
▁Stre	-12051
▁bust	-12052
▁damn	-12053
▁demo	-12054
▁drew	-12055
▁inex	-12056
▁myth	-12057
▁soap	-12058
Friday	-12059
assion	-12060
nQuest	-12061
uisine	-12062
▁Domin	-12063
▁Eagle	-12064
▁Owner	-12065
▁Ridge	-12066
▁Syria	-12067
▁baked	-12068
▁firef	-12069
▁grain	-12070
▁joins	-12071
▁pound	-12072
▁rocks	-12073
lington	-12074
ocument	-12075
▁Morris	-12076
▁Rachel	-12077
▁Recent	-12078
▁Summit	-12079
▁makeup	-12080
▁refere	-12081
▁riders	-12082
▁rivals	-12083
▁surviv	-12084
ancouver	-12085
atherine	-12086
▁Leonard	-12087
▁Meeting	-12088
▁fabrics	-12089
▁relaxed	-12090
▁romance	-12091
▁surveys	-12092
nDownload	-12093
▁McDonald	-12094
▁churches	-12095
▁combines	-12096
▁engaging	-12097
▁preserve	-12098
▁rejected	-12099
▁relating	-12100
▁spectrum	-12101
▁converted	-12102
▁radiation	-12103
▁stability	-12104
▁substance	-12105
▁threatened	-12106
▁vulnerable	-12107
▁highlighted	-12108
8)	-12109
82	-12110
MB	-12111
-05	-12112
Art	-12113
USA	-12114
abs	-12115
enz	-12116
gra	-12117
nHi	-12118
nbe	-12119
rot	-12120
sub	-12121
▁AA	-12122
▁GB	-12123
Back	-12124
disc	-12125
erek	-12126
glas	-12127
ivic	-12128
mall	-12129
uits	-12130
▁$1,	-12131
▁$3.	-12132
▁Alb	-12133
▁Aub	-12134
▁EDT	-12135
▁Tol	-12136
▁UPS	-12137
ceive	-12138
isure	-12139
ripts	-12140
▁Alan	-12141
▁Bott	-12142
▁File	-12143
▁Tree	-12144
▁Want	-12145
▁brid	-12146
▁hunt	-12147
▁nerv	-12148
▁owns	-12149
▁scan	-12150
▁tops	-12151
boards	-12152
ippers	-12153
▁Chrys	-12154
▁Legal	-12155
▁Third	-12156
▁buyer	-12157
▁camps	-12158
▁shame	-12159
▁wrest	-12160
closure	-12161
itative	-12162
nThough	-12163
▁Canyon	-12164
▁Syrian	-12165
▁slides	-12166
▁stitch	-12167
liminary	-12168
▁Chicken	-12169
▁Kitchen	-12170
▁Theater	-12171
▁bottles	-12172
▁elderly	-12173
▁enabled	-12174
▁locally	-12175
▁singles	-12176
reational	-12177
▁Analysis	-12178
▁Delivery	-12179
▁adorable	-12180
▁operates	-12181
▁outdoors	-12182
▁Cardinals	-12183
▁Nashville	-12184
▁amenities	-12185
▁libraries	-12186
▁objectives	-12187
▁celebrities	-12188
▁investigating	-12189
Am	-12190
SH	-12191
fc	-12192
4.\	-12193
:59	-12194
ACK	-12195
OME	-12196
itr	-12197
unc	-12198
wed	-12199
▁4\	-12200
▁5\	-12201
▁8.	-12202
▁:-	-12203
▁Gh	-12204
▁OH	-12205
▁Rd	-12206
▁VA	-12207
====	-12208
?\"\	-12209
inar	-12210
open	-12211
▁Bie	-12212
▁Dim	-12213
▁Vac	-12214
cWhat	-12215
icity	-12216
ideos	-12217
ingle	-12218
itate	-12219
nOnly	-12220
nfrom	-12221
ospel	-12222
pling	-12223
rogen	-12224
▁Anim	-12225
▁Bear	-12226
▁Hear	-12227
▁Less	-12228
▁Turk	-12229
▁ears	-12230
▁hill	-12231
▁loop	-12232
▁mask	-12233
▁odds	-12234
▁quil	-12235
▁ramp	-12236
ioneer	-12237
keeper	-12238
nWatch	-12239
▁Audio	-12240
▁Crown	-12241
▁Fresh	-12242
▁Patch	-12243
▁Pharm	-12244
▁Tokyo	-12245
▁abund	-12246
▁nutri	-12247
▁pulls	-12248
nPeople	-12249
▁Always	-12250
▁Person	-12251
▁Points	-12252
▁Weekly	-12253
▁backup	-12254
▁digest	-12255
▁insect	-12256
▁killer	-12257
ications	-12258
▁editors	-12259
▁hottest	-12260
▁workout	-12261
▁Academic	-12262
▁Birthday	-12263
▁Cemetery	-12264
▁Scholars	-12265
▁moderate	-12266
▁arguments	-12267
▁happiness	-12268
▁rewritten	-12269
▁simultane	-12270
▁suppliers	-12271
ternational	-12272
▁homeowners	-12273
▁arrangement	-12274
▁legislative	-12275
▁appreciation	-12276
▁consistently	-12277
▁investigators	-12278
CR	-12279
Dep	-12280
gon	-12281
lem	-12282
vet	-12283
▁Ta	-12284
▁da	-12285
eyer	-12286
half	-12287
▁(12	-12288
ching	-12289
emade	-12290
ieces	-12291
▁Cell	-12292
▁Reed	-12293
▁Rice	-12294
▁bite	-12295
▁cust	-12296
▁stom	-12297
▁tear	-12298
arrass	-12299
closed	-12300
ferent	-12301
ourmet	-12302
▁12:00	-12303
▁Aaron	-12304
▁Dodge	-12305
▁Guest	-12306
▁accum	-12307
▁drain	-12308
▁invas	-12309
▁Clinic	-12310
▁Graham	-12311
▁Knight	-12312
▁define	-12313
▁dental	-12314
▁duties	-12315
▁equity	-12316
▁gently	-12317
▁safely	-12318
▁serial	-12319
▁thrown	-12320
▁triple	-12321
▁Culture	-12322
▁Vietnam	-12323
▁Without	-12324
▁advisor	-12325
▁anytime	-12326
▁handled	-12327
▁liberal	-12328
▁tribute	-12329
▁Arkansas	-12330
▁Particip	-12331
▁assembly	-12332
▁bedrooms	-12333
▁congress	-12334
▁showcase	-12335
▁supplier	-12336
▁withdraw	-12337
▁broadband	-12338
▁paintings	-12339
▁sophomore	-12340
▁Conditions	-12341
▁Prevention	-12342
▁newspapers	-12343
▁physically	-12344
▁productive	-12345
▁regulatory	-12346
▁examination	-12347
▁descriptions	-12348
▁overwhelming	-12349
▁redistributed	-12350
SM	-12351
UG	-12352
:20	-12353
dri	-12354
enh	-12355
nSe	-12356
pic	-12357
▁72	-12358
▁Kr	-12359
▁Mi	-12360
▁VP	-12361
▁mg	-12362
apse	-12363
bass	-12364
boys	-12365
engu	-12366
mind	-12367
ques	-12368
▁Eve	-12369
▁Tag	-12370
▁bol	-12371
▁eco	-12372
PDATE	-12373
liest	-12374
▁Juan	-12375
▁Safe	-12376
▁Stop	-12377
▁Trad	-12378
▁bits	-12379
▁cant	-12380
▁gray	-12381
▁lone	-12382
▁pant	-12383
▁shed	-12384
▁wore	-12385
▁Blood	-12386
▁Bobby	-12387
▁Leave	-12388
▁Panel	-12389
▁Track	-12390
▁Train	-12391
▁aging	-12392
▁blast	-12393
▁divor	-12394
▁fails	-12395
▁rhyth	-12396
▁showc	-12397
▁sorts	-12398
reement	-12399
▁Active	-12400
▁Greece	-12401
▁Making	-12402
▁Screen	-12403
▁crimes	-12404
▁deadly	-12405
▁layers	-12406
▁merely	-12407
▁wisdom	-12408
izations	-12409
▁Current	-12410
▁Foreign	-12411
▁Updated	-12412
▁Volunte	-12413
▁citizen	-12414
▁cooling	-12415
▁dresses	-12416
▁pending	-12417
▁pulling	-12418
▁refused	-12419
▁Explorer	-12420
▁deserves	-12421
▁notified	-12422
▁reflects	-12423
▁computing	-12424
▁criticism	-12425
▁sentenced	-12426
▁Parliament	-12427
▁applicants	-12428
▁capability	-12429
▁graduation	-12430
▁navigation	-12431
▁presenting	-12432
▁regulation	-12433
▁efficiently	-12434
▁lightweight	-12435
▁contributing	-12436
▁measurements	-12437
06	-12438
TR	-12439
:42	-12440
EAR	-12441
NET	-12442
Per	-12443
Rec	-12444
Sec	-12445
ela	-12446
hma	-12447
mun	-12448
olk	-12449
ori	-12450
pur	-12451
▁"(	-12452
▁66	-12453
▁Lu	-12454
leen	-12455
omed	-12456
omin	-12457
oots	-12458
pace	-12459
thur	-12460
▁Gas	-12461
▁thy	-12462
/2011	-12463
bably	-12464
nHome	-12465
pound	-12466
▁Anti	-12467
▁Wash	-12468
▁glow	-12469
▁mole	-12470
▁moon	-12471
▁neat	-12472
▁Notes	-12473
▁appet	-12474
▁backs	-12475
▁cited	-12476
▁cloth	-12477
▁imper	-12478
▁manip	-12479
▁query	-12480
▁reads	-12481
▁rings	-12482
▁rolls	-12483
▁vocal	-12484
istical	-12485
▁Empire	-12486
▁Nevada	-12487
▁Newton	-12488
▁Rogers	-12489
▁Target	-12490
▁Temple	-12491
▁Yellow	-12492
▁habits	-12493
▁potato	-12494
▁superb	-12495
▁Century	-12496
▁Indians	-12497
▁Indones	-12498
▁Private	-12499
▁Thunder	-12500
▁athlete	-12501
▁opposed	-12502
▁stadium	-12503
ilitation	-12504
▁advocate	-12505
▁carriers	-12506
▁enormous	-12507
▁promises	-12508
▁scenario	-12509
ographical	-12510
▁Argentina	-12511
▁Therefore	-12512
▁nominated	-12513
▁processed	-12514
▁agreements	-12515
▁nationally	-12516
▁practition	-12517
▁imagination	-12518
▁operational	-12519
▁transferred	-12520
73	-12521
hh	-12522
-16	-12523
IES	-12524
ORK	-12525
▁59	-12526
▁BC	-12527
▁ME	-12528
.)"}	-12529
acre	-12530
chet	-12531
held	-12532
idth	-12533
iger	-12534
nare	-12535
offs	-12536
onic	-12537
osex	-12538
udge	-12539
▁24-	-12540
▁Cou	-12541
▁Fla	-12542
▁fut	-12543
▁spa	-12544
▁vel	-12545
acter	-12546
ammed	-12547
ateur	-12548
email	-12549
gener	-12550
marks	-12551
rying	-12552
▁Carm	-12553
▁Host	-12554
▁Jean	-12555
▁MORE	-12556
▁Nich	-12557
▁cure	-12558
▁rope	-12559
▁zomb	-12560
ancers	-12561
cology	-12562
ruptcy	-12563
▁Baker	-12564
▁Cards	-12565
▁Could	-12566
▁Delta	-12567
▁Emily	-12568
▁Issue	-12569
▁Years	-12570
▁angry	-12571
▁delet	-12572
▁jeans	-12573
▁sidew	-12574
▁Artist	-12575
▁Branch	-12576
▁Remove	-12577
▁meters	-12578
▁shield	-12579
▁slices	-12580
▁tissue	-12581
▁Coordin	-12582
▁Monitor	-12583
▁courage	-12584
▁lasting	-12585
nRemember	-12586
▁Electric	-12587
▁cultures	-12588
▁finishes	-12589
▁tropical	-12590
nSubscribe	-12591
▁Economics	-12592
▁Orchestra	-12593
▁concluded	-12594
▁enjoyable	-12595
▁passenger	-12596
▁dimensions	-12597
▁executives	-12598
▁experiments	-12599
▁confirmation	-12600
▁certification	-12601
1-	-12602
Sk	-12603
/13	-12604
:10	-12605
ARD	-12606
ORE	-12607
chi	-12608
may	-12609
nat	-12610
▁EN	-12611
▁PD	-12612
Some	-12613
affe	-12614
illo	-12615
ivan	-12616
link	-12617
onut	-12618
show	-12619
uity	-12620
▁110	-12621
▁2-1	-12622
▁API	-12623
▁Bah	-12624
▁Dra	-12625
▁Guy	-12626
▁Rat	-12627
▁SQL	-12628
▁Wol	-12629
▁bin	-12630
▁fel	-12631
About	-12632
Point	-12633
istor	-12634
▁Cape	-12635
▁Chev	-12636
▁Clay	-12637
▁Coup	-12638
▁Deep	-12639
▁Fine	-12640
▁Pere	-12641
▁cupc	-12642
▁pile	-12643
▁thro	-12644
health	-12645
nShare	-12646
shirts	-12647
▁Kings	-12648
▁Plant	-12649
▁breed	-12650
▁cyber	-12651
▁encry	-12652
▁fence	-12653
▁kinda	-12654
▁lined	-12655
▁loads	-12656
▁relie	-12657
▁suits	-12658
attered	-12659
iameter	-12660
unglass	-12661
▁Planet	-12662
▁Thread	-12663
▁abroad	-12664
▁astron	-12665
▁caring	-12666
▁crafts	-12667
▁fruits	-12668
▁marine	-12669
▁plates	-12670
▁sooner	-12671
▁toilet	-12672
▁verify	-12673
▁Montana	-12674
▁batting	-12675
▁doubles	-12676
▁examine	-12677
▁fitting	-12678
▁remarks	-12679
▁reveals	-12680
▁transit	-12681
itzerland	-12682
▁Modified	-12683
▁basement	-12684
▁charming	-12685
▁protocol	-12686
▁Chocolate	-12687
▁appearing	-12688
▁liability	-12689
▁violation	-12690
▁attempting	-12691
▁dedication	-12692
▁investigate	-12693
▁agricultural	-12694
%.	-12695
4-	-12696
Ne	-12697
cE	-12698
700	-12699
:25	-12700
BER	-12701
dem	-12702
nWH	-12703
▁GA	-12704
▁Ky	-12705
▁WA	-12706
acey	-12707
iper	-12708
▁Deg	-12709
▁Wes	-12710
▁Wik	-12711
▁bub	-12712
▁jet	-12713
chell	-12714
comed	-12715
phony	-12716
pring	-12717
stown	-12718
umper	-12719
▁Mand	-12720
▁Much	-12721
▁Pain	-12722
▁Rams	-12723
▁Stir	-12724
▁boil	-12725
▁flee	-12726
▁pipe	-12727
▁pron	-12728
▁silk	-12729
Search	-12730
abling	-12731
called	-12732
criber	-12733
elfare	-12734
gomery	-12735
idding	-12736
▁Liter	-12737
▁anger	-12738
▁appli	-12739
▁domin	-12740
▁grows	-12741
▁memor	-12742
▁sized	-12743
▁tasty	-12744
ificial	-12745
▁Having	-12746
▁Jeremy	-12747
▁Leader	-12748
▁Murphy	-12749
▁Sweden	-12750
▁bother	-12751
▁closet	-12752
▁convin	-12753
▁excuse	-12754
▁multip	-12755
▁rookie	-12756
▁undert	-12757
▁venues	-12758
▁voices	-12759
nJanuary	-12760
ographer	-12761
▁blessed	-12762
▁colours	-12763
▁handles	-12764
▁nervous	-12765
▁revised	-12766
▁runners	-12767
▁scratch	-12768
▁suppose	-12769
ustration	-12770
▁aluminum	-12771
▁moisture	-12772
▁sporting	-12773
▁measuring	-12774
▁requiring	-12775
appropriate	-12776
▁Enterprise	-12777
▁attachment	-12778
▁commenting	-12779
▁discussing	-12780
▁impression	-12781
▁mainstream	-12782
▁conjunction	-12783
?!	-12784
Dr	-12785
gi	-12786
:05	-12787
:40	-12788
:50	-12789
Pal	-12790
azy	-12791
▁78	-12792
▁Aw	-12793
▁EP	-12794
▁Kl	-12795
erse	-12796
good	-12797
hill	-12798
igen	-12799
inge	-12800
phis	-12801
pled	-12802
robe	-12803
vacy	-12804
your	-12805
▁911	-12806
▁Tob	-12807
▁que	-12808
Quest	-12809
While	-12810
after	-12811
allel	-12812
opper	-12813
retty	-12814
▁Brun	-12815
▁Gray	-12816
▁Half	-12817
▁boom	-12818
▁folk	-12819
▁grey	-12820
▁lips	-12821
▁mamm	-12822
▁rede	-12823
▁vamp	-12824
Monday	-12825
ulator	-12826
▁Evans	-12827
▁Lower	-12828
▁Spect	-12829
▁blues	-12830
▁eager	-12831
▁fancy	-12832
▁resem	-12833
▁steam	-12834
▁width	-12835
leading	-12836
▁Anyone	-12837
▁Native	-12838
▁Racing	-12839
▁banner	-12840
▁delete	-12841
▁forgot	-12842
▁hungry	-12843
▁incent	-12844
▁mirror	-12845
▁nobody	-12846
▁offend	-12847
▁subtle	-12848
icrosoft	-12849
nThrough	-12850
▁Article	-12851
▁Nursing	-12852
▁Success	-12853
▁cleared	-12854
▁dessert	-12855
▁envelop	-12856
▁infring	-12857
▁podcast	-12858
▁profits	-12859
▁pumpkin	-12860
▁spotted	-12861
▁teaches	-12862
▁charging	-12863
▁confused	-12864
▁tutorial	-12865
▁weekends	-12866
▁Meanwhile	-12867
▁Milwaukee	-12868
▁Northwest	-12869
▁hilarious	-12870
▁Commercial	-12871
▁conversion	-12872
▁destruction	-12873
▁transformation	-12874
:14	-12875
AME	-12876
Bay	-12877
RAM	-12878
arb	-12879
iov	-12880
nit	-12881
pdf	-12882
pot	-12883
▁Da	-12884
▁SA	-12885
Post	-12886
aden	-12887
nAct	-12888
zone	-12889
▁193	-12890
▁Buc	-12891
▁Got	-12892
▁Kal	-12893
▁Lif	-12894
▁Sac	-12895
▁ber	-12896
LEASE	-12897
addle	-12898
ollar	-12899
▁6:30	-12900
▁9:00	-12901
▁Cris	-12902
▁Exam	-12903
▁Gill	-12904
▁Pete	-12905
▁Thus	-12906
▁horm	-12907
▁yeah	-12908
handed	-12909
levard	-12910
orneys	-12911
▁Brist	-12912
▁Graph	-12913
▁Voice	-12914
▁boots	-12915
▁genre	-12916
▁theft	-12917
illance	-12918
looking	-12919
nSelect	-12920
▁Career	-12921
▁Gibson	-12922
▁Portug	-12923
▁alumni	-12924
▁banana	-12925
▁comply	-12926
▁crying	-12927
▁kicked	-12928
▁resign	-12929
▁sewing	-12930
Bulletin	-12931
▁Cameron	-12932
▁Several	-12933
▁blogger	-12934
▁glasses	-12935
▁inquiry	-12936
▁laundry	-12937
▁massage	-12938
▁Manufact	-12939
▁Shopping	-12940
▁surfaces	-12941
▁terminal	-12942
▁Vancouver	-12943
▁amendment	-12944
▁chemistry	-12945
▁convicted	-12946
▁departure	-12947
▁inflation	-12948
▁provision	-12949
▁adventures	-12950
▁ridiculous	-12951
▁suspension	-12952
▁cholesterol	-12953
▁conferences	-12954
▁prestigious	-12955
▁Additionally	-12956
][	-12957
lu	-12958
OTE	-12959
deg	-12960
rod	-12961
▁$8	-12962
▁AG	-12963
▁sq	-12964
inue	-12965
isms	-12966
wick	-12967
▁Cox	-12968
▁EPA	-12969
▁Spa	-12970
▁bot	-12971
Today	-12972
World	-12973
cepts	-12974
oline	-12975
▁AIDS	-12976
▁Bass	-12977
▁Doug	-12978
▁Feed	-12979
▁Reid	-12980
▁Ward	-12981
▁alph	-12982
ailing	-12983
alties	-12984
cribed	-12985
ipedia	-12986
nDavid	-12987
▁10:00	-12988
▁2,000	-12989
▁Hours	-12990
▁Large	-12991
▁Roger	-12992
▁Urban	-12993
▁feeds	-12994
▁thumb	-12995
▁wides	-12996
zheimer	-12997
▁Bruins	-12998
▁Saints	-12999
▁Survey	-13000
▁Warner	-13001
▁frames	-13002
▁gluten	-13003
▁patent	-13004
▁phrase	-13005
▁plugin	-13006
▁settle	-13007
▁Collins	-13008
▁endless	-13009
▁mothers	-13010
▁reverse	-13011
aceutical	-13012
nStudents	-13013
▁compiled	-13014
▁confront	-13015
▁contacts	-13016
▁heritage	-13017
▁momentum	-13018
▁rotation	-13019
▁demanding	-13020
▁installing	-13021
▁subscriber	-13022
▁subsidiary	-13023
▁warranties	-13024
▁Switzerland	-13025
▁allegations	-13026
▁anticipated	-13027
▁orientation	-13028
▁Technologies	-13029
▁representation	-13030
5)	-13031
Hi	-13032
IX	-13033
LD	-13034
ASS	-13035
fto	-13036
nEl	-13037
php	-13038
uda	-13039
uto	-13040
▁BR	-13041
mits	-13042
nSen	-13043
rons	-13044
than	-13045
▁Jen	-13046
▁Loc	-13047
▁Pul	-13048
▁cha	-13049
arcia	-13050
green	-13051
nBest	-13052
plant	-13053
▁Feel	-13054
▁Kath	-13055
▁Lank	-13056
▁Rico	-13057
▁glob	-13058
▁lawn	-13059
▁outr	-13060
▁teas	-13061
▁ties	-13062
tender	-13063
▁Chand	-13064
▁Dolph	-13065
▁Users	-13066
▁ankle	-13067
▁femin	-13068
▁flags	-13069
▁gloss	-13070
▁ninth	-13071
▁oblig	-13072
embered	-13073
essment	-13074
ometown	-13075
ournals	-13076
▁Johnny	-13077
▁clinic	-13078
▁pickup	-13079
▁coupons	-13080
▁fulfill	-13081
▁gardens	-13082
▁genetic	-13083
▁lightly	-13084
▁manages	-13085
▁trusted	-13086
▁Wireless	-13087
▁Workshop	-13088
▁adjacent	-13089
▁employed	-13090
▁receives	-13091
▁Equipment	-13092
▁classical	-13093
▁downloads	-13094
▁educators	-13095
▁milestone	-13096
▁motivated	-13097
▁occasions	-13098
▁referring	-13099
▁satellite	-13100
▁Healthcare	-13101
▁Revolution	-13102
▁affiliated	-13103
▁prohibited	-13104
▁separately	-13105
▁cooperation	-13106
▁specialized	-13107
▁destinations	-13108
▁intervention	-13109
.6	-13110
48	-13111
OO	-13112
/16	-13113
▁Ak	-13114
▁CV	-13115
▁FC	-13116
▁MC	-13117
▁ye	-13118
anas	-13119
angs	-13120
azed	-13121
bage	-13122
help	-13123
inez	-13124
oder	-13125
oven	-13126
poon	-13127
such	-13128
▁Bak	-13129
▁FDA	-13130
▁MIT	-13131
▁Ple	-13132
▁Tab	-13133
▁jar	-13134
▁por	-13135
acles	-13136
agger	-13137
jamin	-13138
nCong	-13139
paper	-13140
ucker	-13141
▁Cruz	-13142
▁Dale	-13143
▁Dawn	-13144
▁Fans	-13145
▁Hair	-13146
▁Move	-13147
▁Sund	-13148
▁bake	-13149
▁tong	-13150
INGTON	-13151
heriff	-13152
nMarch	-13153
nOffic	-13154
▁Billy	-13155
▁Citiz	-13156
▁Paint	-13157
▁arena	-13158
▁essay	-13159
▁exped	-13160
▁moral	-13161
▁shine	-13162
▁wings	-13163
borough	-13164
nSource	-13165
natural	-13166
▁Brooks	-13167
▁Butter	-13168
▁Unlike	-13169
▁Vision	-13170
▁duplic	-13171
▁exotic	-13172
▁foster	-13173
▁makers	-13174
▁sensor	-13175
▁strive	-13176
▁Commons	-13177
▁Funeral	-13178
▁camping	-13179
▁console	-13180
▁feeding	-13181
▁painful	-13182
▁replied	-13183
▁scandal	-13184
▁touched	-13185
irmingham	-13186
▁Campaign	-13187
▁Includes	-13188
▁dressing	-13189
▁dropping	-13190
▁relaxing	-13191
▁revenues	-13192
▁Alzheimer	-13193
▁accompany	-13194
▁animation	-13195
▁designing	-13196
▁editorial	-13197
▁formation	-13198
▁replacing	-13199
▁workforce	-13200
▁adjustable	-13201
▁preliminary	-13202
▁Commissioner	-13203
▁manufactured	-13204
▁sustainability	-13205
di	-13206
dr	-13207
:19	-13208
ANS	-13209
ONE	-13210
REL	-13211
SQL	-13212
eff	-13213
rik	-13214
▁97	-13215
▁AV	-13216
▁EV	-13217
Page	-13218
bird	-13219
isor	-13220
nTra	-13221
▁185	-13222
▁AAA	-13223
▁Dad	-13224
▁Him	-13225
▁LCD	-13226
▁Mes	-13227
▁Pra	-13228
▁toe	-13229
adesh	-13230
group	-13231
nDoes	-13232
nProf	-13233
nSend	-13234
neath	-13235
party	-13236
pread	-13237
▁Hamm	-13238
▁Luke	-13239
▁Ring	-13240
▁Skin	-13241
▁chef	-13242
▁drum	-13243
▁parl	-13244
Health	-13245
around	-13246
gorith	-13247
holder	-13248
isting	-13249
writer	-13250
▁2005,	-13251
▁Cliff	-13252
▁Honda	-13253
▁outer	-13254
▁robot	-13255
▁skirt	-13256
century	-13257
million	-13258
parents	-13259
▁Turner	-13260
▁booked	-13261
▁horror	-13262
▁mining	-13263
▁retain	-13264
fficking	-13265
heastern	-13266
ifferent	-13267
▁Bradley	-13268
▁Griffin	-13269
▁Machine	-13270
▁beliefs	-13271
▁closest	-13272
▁empower	-13273
▁expense	-13274
▁gaining	-13275
▁talents	-13276
▁tragedy	-13277
▁Democrat	-13278
▁Original	-13279
▁bloggers	-13280
▁disorder	-13281
▁drawings	-13282
▁insights	-13283
▁monetary	-13284
▁sometime	-13285
▁Breakfast	-13286
▁convinced	-13287
▁disappear	-13288
▁embarrass	-13289
▁engineers	-13290
▁principle	-13291
▁sacrifice	-13292
▁Industrial	-13293
▁Operations	-13294
▁compelling	-13295
▁compromise	-13296
▁dealership	-13297
▁Competition	-13298
▁immigration	-13299
▁substantial	-13300
▁experiencing	-13301
▁implementing	-13302
▁Championships	-13303
FS	-13304
bc	-13305
Reg	-13306
Top	-13307
lie	-13308
occ	-13309
ski	-13310
urf	-13311
wic	-13312
▁57	-13313
▁7-	-13314
9.99	-13315
Home	-13316
John	-13317
Wind	-13318
heim	-13319
inos	-13320
ixed	-13321
▁700	-13322
▁Hub	-13323
▁Lip	-13324
▁ONE	-13325
▁Pic	-13326
▁Veh	-13327
▁avo	-13328
▁bom	-13329
▁duo	-13330
▁gem	-13331
April	-13332
amboo	-13333
being	-13334
imens	-13335
nered	-13336
▁Cubs	-13337
▁Dame	-13338
▁Mets	-13339
▁Pine	-13340
▁aest	-13341
▁amid	-13342
▁dash	-13343
▁fate	-13344
▁rape	-13345
ernand	-13346
formed	-13347
member	-13348
othing	-13349
riguez	-13350
▁Autom	-13351
▁Below	-13352
▁Focus	-13353
▁Storm	-13354
▁bases	-13355
▁meter	-13356
▁newer	-13357
▁parad	-13358
thernet	-13359
▁Berlin	-13360
▁Scouts	-13361
▁alerts	-13362
▁allerg	-13363
▁assemb	-13364
▁bronze	-13365
▁ethnic	-13366
▁hazard	-13367
▁prosec	-13368
▁ribbon	-13369
▁shaped	-13370
▁testim	-13371
▁Looking	-13372
▁affects	-13373
▁amongst	-13374
▁broader	-13375
▁caramel	-13376
▁corners	-13377
▁discipl	-13378
▁emotion	-13379
▁lighter	-13380
▁pitched	-13381
▁reminds	-13382
▁stepped	-13383
▁targets	-13384
▁Airlines	-13385
▁Articles	-13386
▁Robinson	-13387
▁emotions	-13388
▁horrible	-13389
▁judgment	-13390
▁navigate	-13391
▁portrait	-13392
▁wardrobe	-13393
▁weakness	-13394
▁welcomed	-13395
▁Emergency	-13396
▁Universal	-13397
▁launching	-13398
▁nomination	-13399
▁consultation	-13400
▁transmission	-13401
▁undergraduate	-13402
%)	-13403
AG	-13404
DR	-13405
cp	-13406
▁`	-13407
-1,	-13408
260	-13409
:35	-13410
:47	-13411
bie	-13412
nGl	-13413
▁8-	-13414
▁98	-13415
▁:)	-13416
▁NJ	-13417
▁PT	-13418
Mark	-13419
ammy	-13420
anim	-13421
eded	-13422
nCal	-13423
nRed	-13424
size	-13425
ttps	-13426
ugly	-13427
▁$19	-13428
▁Cav	-13429
▁Eye	-13430
▁Sel	-13431
▁hem	-13432
▁unt	-13433
▁8:00	-13434
▁Horn	-13435
▁Lost	-13436
▁Luck	-13437
▁Neil	-13438
▁dear	-13439
▁foul	-13440
▁nest	-13441
▁oral	-13442
▁slot	-13443
▁twin	-13444
celona	-13445
▁2003,	-13446
▁Honor	-13447
▁Ident	-13448
▁align	-13449
▁argue	-13450
▁harsh	-13451
▁incom	-13452
▁rides	-13453
▁sells	-13454
▁spoon	-13455
▁steal	-13456
▁tuned	-13457
mediate	-13458
▁Bright	-13459
▁Simple	-13460
▁corpor	-13461
▁gallon	-13462
▁rumors	-13463
▁sliced	-13464
▁spoken	-13465
atabases	-13466
▁Douglas	-13467
▁earning	-13468
▁passage	-13469
▁reaches	-13470
▁removal	-13471
▁twitter	-13472
▁Malaysia	-13473
▁Nebraska	-13474
▁Veterans	-13475
▁animated	-13476
▁explicit	-13477
▁explores	-13478
▁gameplay	-13479
▁honestly	-13480
▁lineback	-13481
▁profound	-13482
▁renowned	-13483
▁Barcelona	-13484
▁achieving	-13485
▁alternate	-13486
▁centuries	-13487
▁confusion	-13488
▁defending	-13489
▁desperate	-13490
▁recycling	-13491
▁Louisville	-13492
▁Montgomery	-13493
▁beneficial	-13494
▁consulting	-13495
▁invitation	-13496
▁Agriculture	-13497
▁instruments	-13498
▁translation	-13499
▁Conservation	-13500
▁Constitution	-13501
▁acknowledged	-13502
▁recreational	-13503
▁announcements	-13504
▁entrepreneurs	-13505
▁constitutional	-13506
fu	-13507
203	-13508
ECT	-13509
aro	-13510
cMy	-13511
eda	-13512
eor	-13513
ois	-13514
▁HE	-13515
▁NA	-13516
▁RV	-13517
▁SB	-13518
▁ic	-13519
also	-13520
base	-13521
otos	-13522
walk	-13523
▁ate	-13524
etics	-13525
garet	-13526
nNeed	-13527
▁$200	-13528
▁Kirk	-13529
▁Soul	-13530
▁knit	-13531
▁slim	-13532
▁todd	-13533
aments	-13534
arking	-13535
ercury	-13536
herent	-13537
second	-13538
▁Draft	-13539
▁Dutch	-13540
▁Jamie	-13541
▁Karen	-13542
▁Raven	-13543
▁Sleep	-13544
▁march	-13545
▁mayor	-13546
▁silly	-13547
▁spare	-13548
ascular	-13549
forming	-13550
ificent	-13551
▁Harvey	-13552
▁Lauren	-13553
▁aggreg	-13554
▁basics	-13555
▁chairs	-13556
▁steady	-13557
▁sticks	-13558
▁suited	-13559
▁throws	-13560
▁turkey	-13561
▁Faculty	-13562
▁Francis	-13563
▁Knights	-13564
▁Writing	-13565
▁arrives	-13566
▁circles	-13567
▁Advisory	-13568
▁Brothers	-13569
▁Chrysler	-13570
▁Database	-13571
▁delicate	-13572
▁engineer	-13573
▁leverage	-13574
▁petition	-13575
▁promoted	-13576
▁quarters	-13577
▁Jefferson	-13578
▁graduates	-13579
▁narrative	-13580
▁Statistics	-13581
▁connecting	-13582
▁physicians	-13583
▁refreshing	-13584
▁conversations	-13585
91	-13586
WA	-13587
pa	-13588
ACT	-13589
END	-13590
nBu	-13591
nOb	-13592
pal	-13593
sis	-13594
▁9.	-13595
▁Ju	-13596
▁Ka	-13597
▁RS	-13598
▁fa	-13599
cBut	-13600
ctic	-13601
girl	-13602
rend	-13603
▁900	-13604
▁BBQ	-13605
▁CAN	-13606
▁Sri	-13607
▁Suz	-13608
▁cel	-13609
▁cig	-13610
acted	-13611
hesis	-13612
isons	-13613
large	-13614
nFull	-13615
▁9:30	-13616
▁Bald	-13617
▁Chad	-13618
▁Dust	-13619
▁Gonz	-13620
▁Prim	-13621
▁Rank	-13622
▁flaw	-13623
▁grip	-13624
▁hack	-13625
▁inev	-13626
▁span	-13627
▁stur	-13628
castle	-13629
esters	-13630
olding	-13631
opedia	-13632
orship	-13633
oulder	-13634
▁Katie	-13635
▁Laura	-13636
▁Linda	-13637
▁Minor	-13638
▁Occup	-13639
▁Subsc	-13640
▁antib	-13641
▁burst	-13642
▁fleet	-13643
▁heels	-13644
▁hoped	-13645
▁inval	-13646
▁shake	-13647
▁steep	-13648
▁tutor	-13649
▁wrist	-13650
▁Advert	-13651
▁Nissan	-13652
▁ballot	-13653
▁burden	-13654
▁copper	-13655
▁fought	-13656
▁heated	-13657
▁lining	-13658
▁ounces	-13659
▁purple	-13660
▁rushed	-13661
▁tempor	-13662
▁traded	-13663
▁Wallace	-13664
▁cartoon	-13665
▁lawyers	-13666
▁longest	-13667
▁matched	-13668
▁proport	-13669
▁rushing	-13670
▁settled	-13671
▁Campbell	-13672
▁Princess	-13673
▁Township	-13674
▁decrease	-13675
▁peaceful	-13676
▁pitching	-13677
nFollowing	-13678
▁Boulevard	-13679
▁Certified	-13680
▁Hopefully	-13681
▁Southeast	-13682
▁municipal	-13683
▁realistic	-13684
▁durability	-13685
▁promotions	-13686
▁selections	-13687
▁composition	-13688
▁underground	-13689
%\	-13690
CU	-13691
NE	-13692
cb	-13693
sk	-13694
016	-13695
20\	-13696
FOR	-13697
OUT	-13698
dig	-13699
iag	-13700
mia	-13701
rac	-13702
▁DM	-13703
▁MY	-13704
High	-13705
Part	-13706
Will	-13707
erms	-13708
ixon	-13709
tees	-13710
▁$4.	-13711
▁15-	-13712
▁Fri	-13713
▁Hem	-13714
▁Kel	-13715
▁Lar	-13716
▁Len	-13717
▁SMS	-13718
▁Som	-13719
▁gad	-13720
▁jun	-13721
▁lun	-13722
▁shy	-13723
March	-13724
encer	-13725
shine	-13726
▁Bike	-13727
▁Drew	-13728
▁Pros	-13729
▁REAL	-13730
▁Scar	-13731
▁Sens	-13732
▁Terr	-13733
▁True	-13734
▁bump	-13735
▁keen	-13736
▁soda	-13737
▁wool	-13738
arsity	-13739
degree	-13740
istory	-13741
izable	-13742
nUsing	-13743
osures	-13744
rowing	-13745
usalem	-13746
▁Jacob	-13747
▁Parks	-13748
▁Randy	-13749
▁Tower	-13750
▁glory	-13751
▁lefto	-13752
▁tract	-13753
ilation	-13754
olesale	-13755
▁Dennis	-13756
▁Poland	-13757
▁Retail	-13758
▁filing	-13759
▁hiding	-13760
▁modify	-13761
▁notify	-13762
▁opener	-13763
▁refuge	-13764
▁Conserv	-13765
▁Weekend	-13766
▁damages	-13767
▁neutral	-13768
▁outlets	-13769
▁shorter	-13770
▁sponsor	-13771
available	-13772
▁recycled	-13773
▁searches	-13774
▁Coalition	-13775
▁Currently	-13776
▁comprised	-13777
▁investing	-13778
▁memorable	-13779
▁permitted	-13780
▁seemingly	-13781
▁suspected	-13782
nOriginally	-13783
▁advantages	-13784
▁elementary	-13785
▁explaining	-13786
▁laboratory	-13787
▁remembered	-13788
▁subsequent	-13789
▁agriculture	-13790
▁devastating	-13791
▁threatening	-13792
▁competitions	-13793
▁intersection	-13794
53	-13795
FI	-13796
IE	-13797
QU	-13798
SB	-13799
ho	-13800
3.\	-13801
pin	-13802
arre	-13803
edar	-13804
mile	-13805
nMin	-13806
nNEW	-13807
wire	-13808
▁130	-13809
▁Esc	-13810
▁Fel	-13811
▁Lam	-13812
▁Rut	-13813
▁Sud	-13814
▁Wag	-13815
▁awa	-13816
▁cum	-13817
▁nit	-13818
chant	-13819
nForm	-13820
nthis	-13821
omics	-13822
ounty	-13823
▁Curt	-13824
▁Glen	-13825
▁Gran	-13826
▁Reyn	-13827
▁Stra	-13828
▁Viol	-13829
▁arom	-13830
▁dece	-13831
▁sink	-13832
ellers	-13833
merica	-13834
owship	-13835
source	-13836
upport	-13837
▁Dress	-13838
▁Steph	-13839
▁Treas	-13840
▁arbit	-13841
▁lying	-13842
▁puppy	-13843
▁slice	-13844
▁tears	-13845
▁unpre	-13846
claimer	-13847
nReturn	-13848
▁Bieber	-13849
▁Budget	-13850
▁Expert	-13851
▁accred	-13852
▁apples	-13853
▁lifted	-13854
▁mixing	-13855
▁retrie	-13856
▁trains	-13857
▁tweets	-13858
▁Centers	-13859
▁Gardens	-13860
▁Heights	-13861
▁Housing	-13862
▁Orlando	-13863
▁Virtual	-13864
▁failing	-13865
▁fucking	-13866
▁imaging	-13867
▁mounted	-13868
▁pharmac	-13869
▁prayers	-13870
▁pursuit	-13871
▁retreat	-13872
▁shelves	-13873
▁skilled	-13874
▁strikes	-13875
▁tornado	-13876
▁Pictures	-13877
▁facebook	-13878
▁lingerie	-13879
▁sandwich	-13880
▁sexually	-13881
▁template	-13882
▁vertical	-13883
▁Corporate	-13884
▁addiction	-13885
▁decorated	-13886
▁discusses	-13887
▁healthier	-13888
▁Christians	-13889
▁facilitate	-13890
▁repeatedly	-13891
▁suggestion	-13892
▁tablespoon	-13893
▁underneath	-13894
▁Interactive	-13895
▁Philippines	-13896
▁continually	-13897
▁journalists	-13898
▁specialists	-13899
▁specializes	-13900
▁unfortunately	-13901
RP	-13902
],	-13903
ao	-13904
iw	-13905
50\	-13906
:11	-13907
GBT	-13908
INT	-13909
edo	-13910
▁GP	-13911
arts	-13912
comb	-13913
elli	-13914
esis	-13915
inel	-13916
oded	-13917
ulus	-13918
user	-13919
▁Abb	-13920
▁DIY	-13921
▁Fro	-13922
▁GPS	-13923
▁Lay	-13924
▁RAM	-13925
▁Say	-13926
aways	-13927
color	-13928
ierra	-13929
nStay	-13930
owski	-13931
riors	-13932
senal	-13933
▁Bent	-13934
▁Cass	-13935
▁Cher	-13936
▁EVER	-13937
▁Furn	-13938
▁Grey	-13939
▁None	-13940
▁Prep	-13941
▁Wade	-13942
▁fare	-13943
▁mart	-13944
▁sake	-13945
nState	-13946
necess	-13947
roller	-13948
▁Bulls	-13949
▁Grace	-13950
▁Keith	-13951
▁Wings	-13952
▁Woman	-13953
▁coinc	-13954
▁peers	-13955
▁Altern	-13956
▁Foster	-13957
▁Inside	-13958
▁Videos	-13959
▁argued	-13960
▁ginger	-13961
▁immune	-13962
▁tomato	-13963
▁whilst	-13964
breaking	-13965
▁CONTENT	-13966
▁Comcast	-13967
▁battles	-13968
▁eastern	-13969
▁pitches	-13970
▁planted	-13971
▁reduces	-13972
▁refresh	-13973
▁signals	-13974
▁Athletic	-13975
▁Delaware	-13976
▁Discover	-13977
▁Question	-13978
▁apparent	-13979
▁bacteria	-13980
▁catching	-13981
▁stirring	-13982
nCurrently	-13983
▁Armstrong	-13984
▁Directory	-13985
▁Published	-13986
▁accepting	-13987
▁commented	-13988
▁rewarding	-13989
▁scientist	-13990
▁Publishing	-13991
▁Television	-13992
▁automotive	-13993
▁provisions	-13994
▁acknowledge	-13995
▁influential	-13996
▁intelligent	-13997
▁limitations	-13998
▁dramatically	-13999
▁productivity	-14000
▁surprisingly	-14001
61	-14002
fi	-14003
km	-14004
900	-14005
ATH	-14006
LAN	-14007
alg	-14008
dam	-14009
dor	-14010
iev	-14011
isd	-14012
nNe	-14013
umm	-14014
▁km	-14015
Over	-14016
fits	-14017
nInt	-14018
▁1-2	-14019
▁FBI	-14020
▁IBM	-14021
▁MLS	-14022
▁Rou	-14023
▁SER	-14024
▁Vit	-14025
▁pub	-14026
erick	-14027
iates	-14028
izers	-14029
izont	-14030
jects	-14031
nBook	-14032
oodle	-14033
oshop	-14034
▁1920	-14035
▁Belt	-14036
▁Expo	-14037
▁Joel	-14038
▁Lang	-14039
▁Mort	-14040
▁Task	-14041
▁Zone	-14042
▁kits	-14043
▁lane	-14044
▁mush	-14045
▁pert	-14046
▁toug	-14047
berger	-14048
istant	-14049
orient	-14050
outube	-14051
ridges	-14052
ustral	-14053
▁Based	-14054
▁Exhib	-14055
▁Pizza	-14056
▁decre	-14057
▁draws	-14058
▁packs	-14059
▁shore	-14060
▁squee	-14061
▁sunny	-14062
▁whisk	-14063
nSunday	-14064
powered	-14065
working	-14066
▁Chapel	-14067
▁Choice	-14068
▁Herald	-14069
▁Palace	-14070
▁Ticket	-14071
▁creamy	-14072
▁divers	-14073
▁ethics	-14074
▁harass	-14075
▁iconic	-14076
▁refuse	-14077
▁revers	-14078
▁thirty	-14079
▁viewer	-14080
▁Against	-14081
▁Firefox	-14082
▁consent	-14083
▁educate	-14084
▁emerged	-14085
▁regards	-14086
▁tourist	-14087
▁Location	-14088
▁Property	-14089
▁algorith	-14090
▁enrolled	-14091
▁homemade	-14092
▁rankings	-14093
▁seasonal	-14094
▁wondered	-14095
Originally	-14096
▁Interview	-14097
▁attracted	-14098
▁countless	-14099
▁renewable	-14100
▁unlimited	-14101
▁accounting	-14102
▁attraction	-14103
▁contractor	-14104
▁encourages	-14105
▁journalism	-14106
▁recommends	-14107
▁reflection	-14108
▁fundraising	-14109
▁spokeswoman	-14110
▁subscribers	-14111
▁internationally	-14112
FW	-14113
/19	-14114
ACE	-14115
AST	-14116
OWN	-14117
aky	-14118
imm	-14119
say	-14120
uns	-14121
▁58	-14122
▁DS	-14123
Life	-14124
agne	-14125
amas	-14126
andy	-14127
apor	-14128
conf	-14129
hell	-14130
nApr	-14131
ools	-14132
pert	-14133
pool	-14134
ylan	-14135
▁180	-14136
▁2-3	-14137
▁Boo	-14138
▁Due	-14139
▁Egg	-14140
▁Fit	-14141
▁Fle	-14142
▁Hob	-14143
▁Hyd	-14144
Thank	-14145
borne	-14146
chair	-14147
ebook	-14148
quare	-14149
rolet	-14150
urers	-14151
▁7:00	-14152
▁Clar	-14153
▁Happ	-14154
▁Myst	-14155
▁Troy	-14156
▁Wake	-14157
▁caps	-14158
▁cher	-14159
▁fled	-14160
▁flip	-14161
▁heal	-14162
▁pars	-14163
▁quad	-14164
bourne	-14165
gments	-14166
ranked	-14167
▁Basic	-14168
▁Berry	-14169
▁Items	-14170
▁Range	-14171
▁Tommy	-14172
▁Venez	-14173
▁diver	-14174
▁gross	-14175
▁inbox	-14176
▁macro	-14177
▁pools	-14178
▁scary	-14179
▁stats	-14180
▁woods	-14181
install	-14182
▁Coffee	-14183
▁Garcia	-14184
▁Opport	-14185
▁Others	-14186
▁Rather	-14187
▁Stream	-14188
▁advise	-14189
▁beaten	-14190
▁guided	-14191
▁infant	-14192
▁tastes	-14193
▁yogurt	-14194
▁Edwards	-14195
▁Players	-14196
▁Stanley	-14197
▁bicycle	-14198
▁deliber	-14199
▁deposit	-14200
▁embrace	-14201
istically	-14202
▁backyard	-14203
▁midnight	-14204
▁province	-14205
▁searched	-14206
▁unveiled	-14207
▁Jerusalem	-14208
▁affiliate	-14209
▁attendees	-14210
▁incorrect	-14211
▁medicines	-14212
▁promising	-14213
▁qualities	-14214
▁controller	-14215
▁friendship	-14216
▁journalist	-14217
▁mechanical	-14218
▁submission	-14219
▁attractions	-14220
▁individually	-14221
▁notification	-14222
▁refrigerator	-14223
▁grandchildren	-14224
▁Representatives	-14225
OH	-14226
▁!	-14227
:17	-14228
???	-14229
OCK	-14230
cci	-14231
erd	-14232
lar	-14233
mid	-14234
nCo	-14235
ovo	-14236
▁BT	-14237
▁Ru	-14238
▁UT	-14239
▁ov	-14240
\\\\	-14241
arma	-14242
auge	-14243
eway	-14244
icts	-14245
iden	-14246
onia	-14247
opes	-14248
rors	-14249
▁NPR	-14250
▁arc	-14251
▁dub	-14252
▁nic	-14253
▁rif	-14254
aniel	-14255
cWhen	-14256
ested	-14257
opard	-14258
▁1975	-14259
▁Apps	-14260
▁Blvd	-14261
▁Guid	-14262
▁Leaf	-14263
▁Spec	-14264
▁Walt	-14265
▁brew	-14266
▁damp	-14267
▁shar	-14268
▁zoom	-14269
eneath	-14270
lected	-14271
nAmong	-14272
nNorth	-14273
oustic	-14274
string	-14275
vision	-14276
▁Medal	-14277
▁Worth	-14278
▁congr	-14279
▁kicks	-14280
▁lover	-14281
▁minim	-14282
▁ports	-14283
claimed	-14284
entials	-14285
iscover	-14286
nthetic	-14287
▁Letter	-14288
▁Termin	-14289
▁deputy	-14290
▁header	-14291
▁ignore	-14292
▁poison	-14293
▁unlock	-14294
November	-14295
▁Bristol	-14296
▁Holland	-14297
▁Memphis	-14298
▁Outlook	-14299
▁Swedish	-14300
▁airline	-14301
▁crafted	-14302
▁repairs	-14303
▁secured	-14304
▁sheriff	-14305
▁trainer	-14306
▁trigger	-14307
▁visitor	-14308
nComments	-14309
▁Reynolds	-14310
▁Schedule	-14311
▁Scottish	-14312
▁annoying	-14313
▁arriving	-14314
▁intimate	-14315
▁missions	-14316
▁outreach	-14317
▁overlook	-14318
▁Agreement	-14319
▁Something	-14320
▁customize	-14321
▁dominated	-14322
▁generator	-14323
▁reviewing	-14324
▁acceptance	-14325
▁inspection	-14326
▁occasional	-14327
▁responding	-14328
▁variations	-14329
▁widespread	-14330
▁magnificent	-14331
▁transformed	-14332
▁neighborhoods	-14333
Gr	-14334
vi	-14335
:29	-14336
Are	-14337
Red	-14338
Two	-14339
azi	-14340
jan	-14341
tha	-14342
Sign	-14343
ibli	-14344
nHot	-14345
olit	-14346
rien	-14347
uffy	-14348
▁Had	-14349
▁Hit	-14350
▁OFF	-14351
▁Ott	-14352
▁lat	-14353
▁wax	-14354
afood	-14355
ernel	-14356
irate	-14357
isode	-14358
istle	-14359
▁6:00	-14360
▁8:30	-14361
▁Dest	-14362
▁Hait	-14363
▁Item	-14364
▁Mans	-14365
▁Path	-14366
▁Sect	-14367
▁Shaw	-14368
▁foam	-14369
▁glam	-14370
▁masc	-14371
▁tray	-14372
2026"}	-14373
income	-14374
locked	-14375
nTrans	-14376
osited	-14377
search	-14378
vement	-14379
▁Begin	-14380
▁Lodge	-14381
▁Notre	-14382
▁Upper	-14383
▁Wells	-14384
▁bonds	-14385
▁chill	-14386
▁fears	-14387
▁grams	-14388
▁naked	-14389
▁retro	-14390
aration	-14391
itivity	-14392
portant	-14393
▁2010.\	-14394
▁Arthur	-14395
▁Auburn	-14396
▁Census	-14397
▁Hockey	-14398
▁Nether	-14399
▁almond	-14400
▁banned	-14401
▁builds	-14402
▁cables	-14403
▁condem	-14404
▁floral	-14405
▁hooked	-14406
▁parish	-14407
▁partly	-14408
▁pencil	-14409
▁propri	-14410
▁relate	-14411
▁robust	-14412
▁shades	-14413
▁silent	-14414
▁subsid	-14415
▁Falcons	-14416
▁Getting	-14417
▁Vermont	-14418
▁closure	-14419
▁decides	-14420
▁drought	-14421
ASHINGTON	-14422
nFebruary	-14423
▁Chargers	-14424
▁Intellig	-14425
▁Motorola	-14426
▁Richmond	-14427
▁Together	-14428
▁complain	-14429
▁composed	-14430
▁enabling	-14431
▁flooding	-14432
▁handmade	-14433
▁innocent	-14434
▁overtime	-14435
▁variable	-14436
▁Indonesia	-14437
▁databases	-14438
▁execution	-14439
▁universal	-14440
▁warehouse	-14441
▁Associates	-14442
▁Federation	-14443
▁Historical	-14444
▁complexity	-14445
▁ingredient	-14446
▁instructor	-14447
▁parliament	-14448
▁preventing	-14449
▁programmes	-14450
▁submitting	-14451
nInformation	-14452
▁grandmother	-14453
▁prosecutors	-14454
▁transparent	-14455
▁independence	-14456
▁surveillance	-14457
nUnfortunately	-14458
▁illustrations	-14459
Gl	-14460
cN	-14461
-30	-14462
:18	-14463
:27	-14464
IDE	-14465
Men	-14466
Out	-14467
Who	-14468
ali	-14469
ulu	-14470
whe	-14471
||2	-14472
▁74	-14473
▁88	-14474
City	-14475
abul	-14476
adio	-14477
ethe	-14478
laim	-14479
type	-14480
urbs	-14481
▁18-	-14482
▁Ald	-14483
▁Ian	-14484
▁Kid	-14485
▁Mun	-14486
▁Obs	-14487
▁Pil	-14488
▁Seb	-14489
▁Tar	-14490
▁Tun	-14491
▁spy	-14492
▁tel	-14493
,000.	-14494
First	-14495
House	-14496
ellar	-14497
kward	-14498
leton	-14499
oping	-14500
reath	-14501
roved	-14502
▁Benn	-14503
▁Carn	-14504
▁Surv	-14505
▁Zach	-14506
▁cogn	-14507
▁pays	-14508
,000.\	-14509
Christ	-14510
People	-14511
alling	-14512
ighbor	-14513
linary	-14514
nThree	-14515
rupted	-14516
▁2009.	-14517
▁Analy	-14518
▁Bulld	-14519
▁Chron	-14520
▁Logan	-14521
▁Mario	-14522
▁Tiger	-14523
▁dying	-14524
▁elite	-14525
January	-14526
nCreate	-14527
nHaving	-14528
▁Walter	-14529
▁asthma	-14530
▁intake	-14531
▁intrig	-14532
▁perpet	-14533
▁scared	-14534
▁spices	-14535
▁strand	-14536
ritional	-14537
▁Muslims	-14538
▁betting	-14539
▁dispute	-14540
▁forcing	-14541
▁generic	-14542
▁modules	-14543
▁nearest	-14544
▁portray	-14545
▁warming	-14546
intendent	-14547
itutional	-14548
unglasses	-14549
▁Martinez	-14550
▁globally	-14551
▁inviting	-14552
▁literary	-14553
▁pleasant	-14554
▁treasure	-14555
▁Cambridge	-14556
▁Guarantee	-14557
▁dependent	-14558
▁specially	-14559
▁struggled	-14560
▁Birmingham	-14561
▁decorative	-14562
▁legitimate	-14563
▁playground	-14564
▁touchdowns	-14565
▁incorporate	-14566
▁prospective	-14567
▁reliability	-14568
▁restoration	-14569
▁Organization	-14570
▁corporations	-14571
▁organisation	-14572
▁organisations	-14573
▁accommodations	-14574
52	-14575
69	-14576
71	-14577
72	-14578
FP	-14579
IME	-14580
ked	-14581
▁Gy	-14582
2032	-14583
alia	-14584
arer	-14585
auer	-14586
iasm	-14587
iour	-14588
nDec	-14589
nDep	-14590
ogan	-14591
omes	-14592
once	-14593
umph	-14594
▁16-	-14595
▁Kle	-14596
▁NFC	-14597
▁Syn	-14598
▁UFC	-14599
▁USD	-14600
▁bay	-14601
▁fax	-14602
▁vig	-14603
State	-14604
adder	-14605
glass	-14606
grand	-14607
isten	-14608
nHelp	-14609
never	-14610
ocity	-14611
raine	-14612
visor	-14613
▁Maps	-14614
▁Mead	-14615
▁chic	-14616
▁cush	-14617
▁mint	-14618
▁muff	-14619
▁pads	-14620
▁tang	-14621
▁trio	-14622
ancies	-14623
▁2000,	-14624
▁Agent	-14625
▁Horse	-14626
▁Pengu	-14627
▁Seven	-14628
▁Swiss	-14629
▁awful	-14630
▁icons	-14631
▁queen	-14632
▁stack	-14633
▁wound	-14634
forward	-14635
▁2012"}	-14636
▁Alumni	-14637
▁Former	-14638
▁Motion	-14639
▁Offers	-14640
▁Parker	-14641
▁Rivers	-14642
▁Shield	-14643
▁Triple	-14644
▁bachel	-14645
▁noting	-14646
▁outlet	-14647
▁pillow	-14648
▁poetry	-14649
▁poorly	-14650
▁speeds	-14651
▁vendor	-14652
commerce	-14653
fortable	-14654
nEarlier	-14655
ventions	-14656
▁Bernard	-14657
▁Opening	-14658
▁Walmart	-14659
▁acquire	-14660
▁enemies	-14661
▁grabbed	-14662
▁notable	-14663
▁secrets	-14664
▁shocked	-14665
▁stomach	-14666
▁vessels	-14667
▁Historic	-14668
▁Ultimate	-14669
▁chapters	-14670
▁cocktail	-14671
▁concerts	-14672
▁founding	-14673
▁interpre	-14674
▁meantime	-14675
▁mounting	-14676
▁supplied	-14677
▁consensus	-14678
▁democracy	-14679
▁respected	-14680
▁struggles	-14681
▁travelers	-14682
▁varieties	-14683
ratulations	-14684
▁preference	-14685
▁restricted	-14686
▁approaching	-14687
▁differently	-14688
▁measurement	-14689
▁achievements	-14690
▁entrepreneur	-14691
▁experimental	-14692
▁effectiveness	-14693
</	-14694
AK	-14695
DI	-14696
***	-14697
:43	-14698
:53	-14699
COM	-14700
IRE	-14701
OND	-14702
aco	-14703
eta	-14704
fin	-14705
htm	-14706
roe	-14707
▁Ze	-14708
Blog	-14709
Note	-14710
bone	-14711
econ	-14712
ergy	-14713
hart	-14714
lean	-14715
nOut	-14716
nTHE	-14717
nTom	-14718
oooo	-14719
opic	-14720
pher	-14721
poin	-14722
umbs	-14723
▁(1)	-14724
▁(14	-14725
▁Bor	-14726
▁Dow	-14727
▁Ful	-14728
▁NOW	-14729
▁Pod	-14730
▁Pos	-14731
▁Rol	-14732
▁USC	-14733
▁gre	-14734
▁mud	-14735
▁nap	-14736
▁pel	-14737
Class	-14738
idity	-14739
ilver	-14740
impse	-14741
ocate	-14742
racts	-14743
▁Answ	-14744
▁Bean	-14745
▁Face	-14746
▁Gard	-14747
▁Nike	-14748
▁Soon	-14749
▁dumb	-14750
▁glue	-14751
▁pier	-14752
▁tent	-14753
ancell	-14754
aneous	-14755
arency	-14756
etween	-14757
nMaybe	-14758
outing	-14759
payers	-14760
▁2002,	-14761
▁Faith	-14762
▁Floor	-14763
▁Grade	-14764
▁Poker	-14765
▁clips	-14766
▁coord	-14767
▁liver	-14768
▁modes	-14769
▁probe	-14770
▁remod	-14771
▁sheer	-14772
▁trash	-14773
▁wheat	-14774
itarian	-14775
nAuthor	-14776
pensive	-14777
▁Casino	-14778
▁Degree	-14779
▁finale	-14780
▁heroes	-14781
▁parked	-14782
▁ranges	-14783
▁topped	-14784
▁worthy	-14785
cedented	-14786
nOctober	-14787
▁Besides	-14788
▁Cowboys	-14789
▁Fitness	-14790
▁Pirates	-14791
▁Storage	-14792
▁clarity	-14793
▁crossed	-14794
▁leisure	-14795
▁posters	-14796
▁sectors	-14797
▁startup	-14798
▁tension	-14799
▁Benjamin	-14800
▁Phillips	-14801
▁Practice	-14802
▁Reporter	-14803
▁abstract	-14804
▁attacked	-14805
▁consolid	-14806
▁defender	-14807
▁diameter	-14808
▁dividend	-14809
▁invested	-14810
▁protests	-14811
▁relation	-14812
▁Chevrolet	-14813
▁Newcastle	-14814
▁automated	-14815
▁identical	-14816
▁intensive	-14817
▁releasing	-14818
▁Investment	-14819
▁boundaries	-14820
▁immigrants	-14821
▁Photography	-14822
▁consistency	-14823
▁constructed	-14824
▁copyrighted	-14825
▁uncertainty	-14826
▁Construction	-14827
▁partnerships	-14828
communications	-14829
▁demonstration	-14830
51	-14831
NG	-14832
hu	-14833
zo	-14834
8.\	-14835
:16	-14836
Off	-14837
aru	-14838
bag	-14839
eli	-14840
fan	-14841
ika	-14842
nif	-14843
two	-14844
upt	-14845
▁DR	-14846
▁KB	-14847
▁MI	-14848
▁Ot	-14849
▁PH	-14850
▁SS	-14851
▁ox	-14852
West	-14853
blem	-14854
cOur	-14855
emic	-14856
eton	-14857
inis	-14858
irez	-14859
ivia	-14860
nBuy	-14861
park	-14862
ulin	-14863
zech	-14864
▁(11	-14865
▁Ble	-14866
▁Coc	-14867
▁Dod	-14868
▁Fig	-14869
▁Maj	-14870
▁Tai	-14871
▁hed	-14872
▁nod	-14873
-2012	-14874
2019.	-14875
adows	-14876
allic	-14877
avier	-14878
illet	-14879
nRich	-14880
named	-14881
ostic	-14882
plore	-14883
swire	-14884
there	-14885
trans	-14886
vance	-14887
▁Chat	-14888
▁Dell	-14889
▁LGBT	-14890
▁Nice	-14891
▁Pric	-14892
▁bugs	-14893
▁deny	-14894
▁fles	-14895
▁gard	-14896
▁gown	-14897
▁oils	-14898
▁peer	-14899
▁sore	-14900
▁spat	-14901
▁tabs	-14902
asures	-14903
leased	-14904
nEmail	-14905
nEnjoy	-14906
nSouth	-14907
nTotal	-14908
rolled	-14909
umbled	-14910
▁Bever	-14911
▁Chile	-14912
▁Craft	-14913
▁Crime	-14914
▁Pages	-14915
▁Parts	-14916
▁Route	-14917
▁drunk	-14918
▁incon	-14919
RELATED	-14920
country	-14921
instein	-14922
ullivan	-14923
writing	-14924
▁Flickr	-14925
▁Kindle	-14926
▁boasts	-14927
▁collar	-14928
▁export	-14929
▁google	-14930
▁holder	-14931
▁interf	-14932
▁raises	-14933
▁volunt	-14934
▁warmth	-14935
February	-14936
iropract	-14937
nSeveral	-14938
▁100,000	-14939
▁Hunting	-14940
▁Quarter	-14941
▁Someone	-14942
▁Speaker	-14943
▁caution	-14944
▁earthqu	-14945
▁holders	-14946
▁pretend	-14947
▁reforms	-14948
▁sleeves	-14949
▁strings	-14950
▁Cultural	-14951
▁Mitchell	-14952
▁accessed	-14953
▁adjusted	-14954
▁costumes	-14955
▁floating	-14956
▁manually	-14957
▁parallel	-14958
▁pursuing	-14959
▁reminder	-14960
▁restored	-14961
▁situated	-14962
nQuestions	-14963
▁Bloomberg	-14964
▁Rodriguez	-14965
▁creatures	-14966
▁Electronic	-14967
▁acceptable	-14968
▁attributes	-14969
▁multimedia	-14970
▁priorities	-14971
▁Independent	-14972
▁contractors	-14973
▁identifying	-14974
▁progressive	-14975
▁submissions	-14976
▁considerable	-14977
▁scholarships	-14978
▁complimentary	-14979
.8	-14980
.'\	-14981
ONG	-14982
Sun	-14983
bin	-14984
bye	-14985
▁''	-14986
▁53	-14987
▁67	-14988
Cent	-14989
ardi	-14990
aria	-14991
feed	-14992
feld	-14993
nDef	-14994
nDet	-14995
nSan	-14996
qual	-14997
ucus	-14998
▁ACT	-14999
▁Gig	-15000
▁MTV	-15001
▁McL	-15002
▁Raj	-15003
▁Thu	-15004
▁Vik	-15005
▁bik	-15006
▁mos	-15007
▁nan	-15008
cThat	-15009
dered	-15010
ncont	-15011
▁Cake	-15012
▁Conn	-15013
▁Diet	-15014
▁Fant	-15015
▁Hour	-15016
▁Jazz	-15017
▁Mosc	-15018
▁Thor	-15019
▁Used	-15020
▁Wiki	-15021
▁gest	-15022
▁hint	-15023
▁lace	-15024
▁lend	-15025
▁nail	-15026
▁tens	-15027
nUsers	-15028
nWould	-15029
▁2007.	-15030
▁Bened	-15031
▁Lanka	-15032
▁Miles	-15033
▁Mills	-15034
▁Monte	-15035
▁Multi	-15036
▁Rocky	-15037
▁Strip	-15038
▁Ultra	-15039
▁badly	-15040
▁bored	-15041
▁genes	-15042
▁groom	-15043
▁https	-15044
▁hypot	-15045
▁logic	-15046
▁metab	-15047
▁toxic	-15048
arranty	-15049
initely	-15050
▁Carlos	-15051
▁Compan	-15052
▁Dayton	-15053
▁Sprint	-15054
▁Window	-15055
▁ancest	-15056
▁commod	-15057
▁cooler	-15058
▁cultiv	-15059
▁diesel	-15060
▁fitted	-15061
▁fright	-15062
▁rocket	-15063
▁tricks	-15064
▁twelve	-15065
essional	-15066
▁Belgium	-15067
▁Contest	-15068
▁Crystal	-15069
▁Organic	-15070
▁Popular	-15071
▁Studios	-15072
▁Teacher	-15073
▁Welcome	-15074
▁acclaim	-15075
▁anxiety	-15076
▁deleted	-15077
▁derived	-15078
▁doubled	-15079
▁glimpse	-15080
▁habitat	-15081
▁inspect	-15082
▁logging	-15083
nNational	-15084
nNovember	-15085
▁Calendar	-15086
▁Graduate	-15087
▁Response	-15088
▁Venezuel	-15089
▁teenager	-15090
▁treating	-15091
▁troubles	-15092
▁upgrades	-15093
▁villages	-15094
▁Beautiful	-15095
▁Directors	-15096
▁Following	-15097
▁Subscribe	-15098
▁advocates	-15099
▁apologize	-15100
▁economics	-15101
▁gradually	-15102
▁inquiries	-15103
▁relatives	-15104
▁Assistance	-15105
▁compassion	-15106
▁obligation	-15107
▁qualifying	-15108
▁distinctive	-15109
▁enthusiasts	-15110
▁interviewed	-15111
▁smartphones	-15112
▁commissioner	-15113
▁difficulties	-15114
▁pharmaceutical	-15115
9)	-15116
:1	-15117
EB	-15118
FO	-15119
tv	-15120
!).	-15121
,''	-15122
-3,	-15123
:01	-15124
:08	-15125
:52	-15126
Tra	-15127
cro	-15128
jet	-15129
pop	-15130
uki	-15131
▁96	-15132
▁EM	-15133
▁HS	-15134
▁lb	-15135
0000	-15136
ANCE	-15137
emor	-15138
hole	-15139
insp	-15140
nbut	-15141
orie	-15142
▁192	-15143
▁3-4	-15144
▁Hug	-15145
▁ISS	-15146
▁Mob	-15147
▁Nig	-15148
▁Vel	-15149
▁biz	-15150
▁jam	-15151
▁tin	-15152
▁vin	-15153
bling	-15154
ducts	-15155
erals	-15156
gebra	-15157
ijing	-15158
nTime	-15159
nyour	-15160
▁Hell	-15161
▁Palm	-15162
▁WITH	-15163
▁bisc	-15164
▁digs	-15165
▁grat	-15166
▁peek	-15167
▁stap	-15168
▁urge	-15169
Sports	-15170
forced	-15171
icient	-15172
ometer	-15173
ovable	-15174
terson	-15175
▁Chick	-15176
▁Chuck	-15177
▁Foods	-15178
▁Kerry	-15179
▁Later	-15180
▁airpl	-15181
▁brass	-15182
▁crews	-15183
▁intim	-15184
▁locks	-15185
▁polar	-15186
▁revel	-15187
connect	-15188
nAnyway	-15189
nLatest	-15190
▁Bailey	-15191
▁Beyond	-15192
▁Rapids	-15193
▁Really	-15194
▁Soccer	-15195
▁Writer	-15196
▁burned	-15197
▁candle	-15198
▁deemed	-15199
▁mature	-15200
▁nicely	-15201
▁novels	-15202
▁parade	-15203
▁shadow	-15204
▁straps	-15205
▁valued	-15206
▁varied	-15207
▁vocals	-15208
▁Respons	-15209
▁avoided	-15210
▁creator	-15211
▁cuisine	-15212
▁impacts	-15213
▁knocked	-15214
▁legally	-15215
struction	-15216
velopment	-15217
▁Margaret	-15218
▁Purchase	-15219
▁Recovery	-15220
▁advocacy	-15221
▁assisted	-15222
▁equality	-15223
▁formerly	-15224
▁suspects	-15225
nPresident	-15226
▁Knowledge	-15227
▁Methodist	-15228
▁Recommend	-15229
▁nutrients	-15230
▁ordinance	-15231
▁separated	-15232
▁sustained	-15233
▁appliances	-15234
▁conducting	-15235
▁describing	-15236
▁influenced	-15237
▁soundtrack	-15238
▁underlying	-15239
▁contributor	-15240
▁controlling	-15241
▁firefighters	-15242
▁concentration	-15243
▁administrators	-15244
ui	-15245
:09	-15246
:13	-15247
:23	-15248
:33	-15249
:44	-15250
ERY	-15251
ISC	-15252
asa	-15253
big	-15254
[...]
