<pad>	0
<s>	0
</s>	0
<unk>	0
▁t	-0
▁a	-1
in	-2
he	-3
re	-4
on	-5
er	-6
▁the	-7
▁s	-8
▁w	-9
or	-10
at	-11
nd	-12
ou	-13
▁c	-14
it	-15
es	-16
▁f	-17
is	-18
en	-19
▁b	-20
ing	-21
▁p	-22
▁o	-23
ed	-24
an	-25
ar	-26
al	-27
▁to	-28
▁m	-29
▁and	-30
▁in	-31
▁of	-32
ic	-33
le	-34
▁d	-35
as	-36
om	-37
▁h	-38
ion	-39
▁th	-40
.\	-41
il	-42
20	-43
ent	-44
▁l	-45
st	-46
ve	-47
ro	-48
▁re	-49
▁n	-50
▁y	-51
201	-52
▁e	-53
▁S	-54
▁g	-55
et	-56
▁I	-57
ac	-58
▁T	-59
▁C	-60
ay	-61
id	-62
▁on	-63
ly	-64
▁for	-65
ot	-66
▁A	-67
▁you	-68
▁be	-69
ow	-70
▁is	-71
am	-72
ol	-73
ad	-74
ig	-75
el	-76
ct	-77
▁M	-78
us	-79
ver	-80
ut	-81
im	-82
ith	-83
▁st	-84
ation	-85
ur	-86
▁P	-87
▁that	-88
▁with	-89
ir	-90
▁B	-91
te	-92
ch	-93
▁he	-94
▁it	-95
ter	-96
ce	-97
ill	-98
un	-99
ers	-100
▁an	-101
▁al	-102
out	-103
▁W	-104
ul	-105
▁D	-106
ke	-107
▁F	-108
ag	-109
▁H	-110
se	-111
▁wh	-112
▁as	-113
▁R	-114
▁we	-115
▁1	-116
oo	-117
▁at	-118
▁are	-119
2019	-120
▁ha	-121
▁pro	-122
our	-123
if	-124
▁\	-125
ate	-126
pp	-127
ri	-128
her	-129
ore	-130
▁or	-131
xt	-132
ew	-133
igh	-134
est	-135
▁com	-136
▁con	-137
ra	-138
▁se	-139
▁L	-140
ment	-141
rom	-142
▁N	-143
ld	-144
ess	-145
ts	-146
ab	-147
▁(	-148
th	-149
▁The	-150
▁G	-151
op	-152
▁was	-153
▁r	-154
▁E	-155
res	-156
ity	-157
nT	-158
▁v	-159
▁de	-160
ive	-161
▁from	-162
▁this	-163
▁your	-164
▁have	-165
qu	-166
um	-167
ist	-168
ust	-169
▁sh	-170
oc	-171
pe	-172
▁O	-173
and	-174
▁by	-175
text	-176
up	-177
em	-178
":	-179
"}	-180
{"	-181
▁{"	-182
▁"	-183
ies	-184
all	-185
os	-186
art	-187
ain	-188
00	-189
ear	-190
▁will	-191
▁ch	-192
ard	-193
▁ex	-194
ort	-195
▁J	-196
ud	-197
nt	-198
▁not	-199
ight	-200
ost	-201
ome	-202
ant	-203
▁us	-204
▁su	-205
▁can	-206
▁le	-207
\"	-208
ack	-209
red	-210
▁pl	-211
ast	-212
▁ab	-213
ould	-214
ge	-215
gh	-216
rou	-217
iv	-218
▁j	-219
ell	-220
ide	-221
▁wor	-222
ine	-223
ak	-224
▁all	-225
ice	-226
age	-227
▁has	-228
ial	-229
od	-230
▁U	-231
og	-232
ff	-233
▁k	-234
▁ad	-235
ook	-236
nThe	-237
▁sa	-238
▁but	-239
ure	-240
▁up	-241
ip	-242
▁do	-243
▁2	-244
▁out	-245
▁ne	-246
ail	-247
ry	-248
..	-249
ap	-250
are	-251
ions	-252
ite	-253
one	-254
ally	-255
▁more	-256
ake	-257
▁comp	-258
▁whe	-259
ame	-260
ind	-261
ther	-262
▁me	-263
ber	-264
act	-265
nA	-266
cc	-267
▁-	-268
nI	-269
able	-270
orm	-271
ick	-272
ep	-273
ie	-274
▁\"	-275
ect	-276
ood	-277
ated	-278
ong	-279
▁so	-280
ich	-281
▁St	-282
▁cl	-283
ase	-284
."}	-285
▁K	-286
ime	-287
▁one	-288
▁their	-289
▁off	-290
▁about	-291
ike	-292
very	-293
▁In	-294
iz	-295
▁they	-296
▁his	-297
▁our	-298
ans	-299
ub	-300
▁my	-301
ll	-302
▁en	-303
ace	-304
cl	-305
▁te	-306
ous	-307
ree	-308
▁Th	-309
ia	-310
▁cont	-311
▁new	-312
so	-313
▁who	-314
▁V	-315
ire	-316
ks	-317
ary	-318
▁year	-319
pl	-320
per	-321
▁go	-322
▁Ch	-323
ue	-324
▁un	-325
ign	-326
du	-327
day	-328
▁Y	-329
▁3	-330
▁201	-331
ass	-332
▁said	-333
ance	-334
ach	-335
erv	-336
▁res	-337
▁man	-338
▁im	-339
▁per	-340
und	-341
nS	-342
ays	-343
ib	-344
form	-345
▁tr	-346
reat	-347
own	-348
▁app	-349
ile	-350
ord	-351
pt	-352
▁qu	-353
ations	-354
ven	-355
to	-356
▁other	-357
▁sp	-358
▁like	-359
▁get	-360
ount	-361
▁any	-362
ove	-363
ark	-364
ress	-365
▁ag	-366
nW	-367
av	-368
▁20	-369
com	-370
ction	-371
▁over	-372
▁some	-373
▁also	-374
▁which	-375
ings	-376
▁been	-377
ond	-378
ors	-379
▁time	-380
ents	-381
▁kn	-382
▁dis	-383
▁sc	-384
irst	-385
ound	-386
mer	-387
▁ar	-388
vel	-389
ck	-390
▁work	-391
ical	-392
ition	-393
▁just	-394
▁when	-395
ult	-396
ob	-397
wn	-398
low	-399
ose	-400
ere	-401
ild	-402
ens	-403
▁would	-404
▁than	-405
ough	-406
ru	-407
ink	-408
▁them	-409
▁had	-410
▁her	-411
▁tw	-412
vers	-413
ence	-414
▁pe	-415
▁were	-416
▁fe	-417
▁acc	-418
▁spe	-419
▁pre	-420
ory	-421
▁part	-422
fter	-423
▁rec	-424
ish	-425
▁ro	-426
ov	-427
▁It	-428
oy	-429
▁what	-430
▁if	-431
oin	-432
end	-433
clud	-434
▁its	-435
▁pr	-436
▁there	-437
▁first	-438
lic	-439
ade	-440
ool	-441
ning	-442
nC	-443
itt	-444
amp	-445
ang	-446
ater	-447
▁We	-448
▁add	-449
old	-450
use	-451
ne	-452
▁4	-453
ons	-454
hed	-455
▁into	-456
anc	-457
rough	-458
▁am	-459
iew	-460
▁bl	-461
port	-462
▁need	-463
▁Re	-464
▁5	-465
▁includ	-466
nP	-467
ople	-468
ft	-469
▁des	-470
▁two	-471
lp	-472
▁He	-473
gr	-474
▁play	-475
ian	-476
nM	-477
▁col	-478
▁200	-479
ates	-480
!\	-481
▁look	-482
tern	-483
▁no	-484
▁comm	-485
les	-486
ments	-487
▁only	-488
▁how	-489
▁help	-490
▁$	-491
▁19	-492
nF	-493
▁make	-494
iss	-495
▁know	-496
▁she	-497
▁may	-498
▁back	-499
ict	-500
▁bec	-501
▁people	-502
nB	-503
▁prov	-504
als	-505
▁after	-506
:\	-507
ph	-508
round	-509
ful	-510
ious	-511
we	-512
▁em	-513
▁most	-514
▁ph	-515
ont	-516
▁produ	-517
▁through	-518
▁see	-519
ock	-520
ng	-521
▁serv	-522
formation	-523
▁every	-524
hing	-525
aw	-526
lect	-527
row	-528
▁use	-529
?\	-530
ause	-531
urn	-532
▁wee	-533
2013	-534
)\	-535
▁bet	-536
nH	-537
ting	-538
ities	-539
▁bu	-540
ise	-541
ating	-542
▁Un	-543
▁Com	-544
fere	-545
ational	-546
ual	-547
▁act	-548
▁years	-549
ices	-550
bs	-551
▁now	-552
▁well	-553
▁fl	-554
▁This	-555
ject	-556
▁New	-557
▁&	-558
ics	-559
ily	-560
ss	-561
lease	-562
▁want	-563
ec	-564
▁und	-565
ife	-566
vent	-567
▁gu	-568
▁co	-569
▁6	-570
nO	-571
▁ind	-572
▁stud	-573
pport	-574
,\	-575
oun	-576
cial	-577
.\"	-578
▁fin	-579
▁good	-580
▁here	-581
▁these	-582
▁ke	-583
ason	-584
ange	-585
enc	-586
ork	-587
The	-588
▁sec	-589
chool	-590
▁show	-591
ull	-592
▁information	-593
ward	-594
arch	-595
▁don	-596
▁reg	-597
ident	-598
▁could	-599
fore	-600
hen	-601
pect	-602
▁ent	-603
man	-604
ures	-605
oth	-606
iness	-607
nD	-608
aking	-609
▁great	-610
▁sm	-611
uch	-612
rib	-613
▁under	-614
▁own	-615
get	-616
ty	-617
rit	-618
▁cons	-619
▁many	-620
ited	-621
ased	-622
▁very	-623
hip	-624
▁last	-625
▁way	-626
||	-627
oss	-628
yst	-629
erson	-630
hes	-631
ren	-632
▁down	-633
nTh	-634
▁Pro	-635
ert	-636
▁day	-637
gram	-638
pr	-639
▁tra	-640
▁find	-641
▁even	-642
ific	-643
▁loc	-644
▁too	-645
▁You	-646
io	-647
ath	-648
▁mon	-649
▁7	-650
▁car	-651
alth	-652
any	-653
uring	-654
▁av	-655
its	-656
▁10	-657
▁read	-658
▁rem	-659
ied	-660
ues	-661
▁did	-662
,\"	-663
▁inv	-664
ets	-665
▁high	-666
ner	-667
olog	-668
ble	-669
ible	-670
▁min	-671
▁8	-672
▁then	-673
usiness	-674
...	-675
▁where	-676
▁rel	-677
▁Wh	-678
ex	-679
▁should	-680
land	-681
nR	-682
▁again	-683
ular	-684
▁imp	-685
▁And	-686
▁think	-687
air	-688
▁call	-689
▁team	-690
ix	-691
other	-692
▁ass	-693
▁Sh	-694
▁start	-695
▁made	-696
▁mem	-697
▁fam	-698
ank	-699
velop	-700
ility	-701
▁inc	-702
ublic	-703
▁home	-704
▁dif	-705
line	-706
ys	-707
▁much	-708
ivers	-709
▁De	-710
ollow	-711
▁pol	-712
atch	-713
▁che	-714
ax	-715
elf	-716
ton	-717
▁ac	-718
▁br	-719
rest	-720
▁exper	-721
▁Cl	-722
2014	-723
ative	-724
▁him	-725
▁long	-726
▁because	-727
nN	-728
▁set	-729
nL	-730
gan	-731
ience	-732
ms	-733
ug	-734
▁post	-735
ystem	-736
▁take	-737
▁9	-738
ters	-739
▁inst	-740
▁Al	-741
▁pres	-742
),	-743
▁dec	-744
ah	-745
▁best	-746
▁before	-747
pen	-748
ince	-749
view	-750
irect	-751
202	-752
omet	-753
▁art	-754
ower	-755
▁does	-756
▁ear	-757
az	-758
cess	-759
▁ra	-760
▁right	-761
▁Ar	-762
ave	-763
▁end	-764
orts	-765
▁product	-766
▁rep	-767
unity	-768
way	-769
▁If	-770
ener	-771
▁inte	-772
▁design	-773
▁sur	-774
riend	-775
▁world	-776
ash	-777
ailable	-778
read	-779
iel	-780
▁program	-781
ages	-782
uc	-783
alk	-784
▁vis	-785
▁ins	-786
ames	-787
▁ed	-788
|\	-789
▁those	-790
ier	-791
meric	-792
ins	-793
ouse	-794
▁run	-795
ars	-796
der	-797
roup	-798
▁three	-799
ient	-800
▁ser	-801
▁2012	-802
▁0	-803
▁ret	-804
▁lead	-805
▁while	-806
ather	-807
▁eff	-808
▁requ	-809
▁Le	-810
ale	-811
▁game	-812
▁char	-813
ric	-814
▁cre	-815
oot	-816
▁being	-817
▁disc	-818
ives	-819
akes	-820
▁med	-821
▁such	-822
▁free	-823
▁An	-824
nIn	-825
▁week	-826
▁business	-827
ving	-828
oint	-829
ces	-830
-1	-831
▁cur	-832
▁Ad	-833
▁hand	-834
ced	-835
▁person	-836
chn	-837
▁follow	-838
000	-839
▁count	-840
ines	-841
▁child	-842
ually	-843
imes	-844
ple	-845
▁def	-846
▁gr	-847
▁Fr	-848
▁around	-849
▁provid	-850
▁each	-851
▁top	-852
oh	-853
ox	-854
▁att	-855
▁still	-856
▁available	-857
▁develop	-858
▁For	-859
▁going	-860
.\"\	-861
▁month	-862
▁used	-863
▁really	-864
ittle	-865
▁All	-866
▁det	-867
▁mod	-868
▁state	-869
ional	-870
au	-871
ute	-872
▁i	-873
▁2013	-874
oad	-875
▁say	-876
▁cour	-877
▁found	-878
▁Americ	-879
▁sim	-880
▁Bl	-881
▁differe	-882
ights	-883
▁num	-884
▁book	-885
▁life	-886
ee	-887
▁sign	-888
▁But	-889
▁inter	-890
▁care	-891
ize	-892
led	-893
▁comple	-894
ants	-895
orn	-896
nE	-897
▁list	-898
▁eas	-899
▁mark	-900
bers	-901
els	-902
▁|	-903
▁win	-904
ustom	-905
rent	-906
▁fr	-907
▁Col	-908
▁sub	-909
▁system	-910
▁sk	-911
arm	-912
atur	-913
▁fun	-914
▁somet	-915
mber	-916
▁though	-917
▁aut	-918
illion	-919
▁school	-920
▁rece	-921
▁including	-922
▁place	-923
▁fil	-924
▁support	-925
▁few	-926
ene	-927
ved	-928
iversity	-929
▁both	-930
iet	-931
cent	-932
▁open	-933
▁trans	-934
▁lar	-935
▁str	-936
▁same	-937
▁love	-938
ists	-939
ital	-940
ield	-941
▁feat	-942
▁keep	-943
▁Be	-944
▁site	-945
).	-946
ished	-947
▁little	-948
▁pur	-949
ott	-950
▁Sc	-951
rand	-952
▁gl	-953
▁second	-954
▁happ	-955
▁As	-956
ww	-957
▁ev	-958
oard	-959
nce	-960
ired	-961
▁real	-962
nG	-963
▁12	-964
ized	-965
▁friend	-966
min	-967
ness	-968
cer	-969
▁next	-970
att	-971
▁prof	-972
ever	-973
nThis	-974
,000	-975
reen	-976
son	-977
▁ann	-978
ways	-979
ween	-980
ger	-981
▁del	-982
uss	-983
▁adv	-984
▁health	-985
▁lot	-986
ik	-987
enter	-988
▁Pl	-989
ered	-990
ok	-991
▁family	-992
▁season	-993
▁cr	-994
ology	-995
eb	-996
▁since	-997
▁exp	-998
▁ext	-999
arn	-1000
▁dri	-1001
istr	-1002
▁pass	-1003
ipp	-1004
▁big	-1005
▁four	-1006
▁during	-1007
▁try	-1008
▁head	-1009
▁Te	-1010
thing	-1011
tt	-1012
▁using	-1013
▁put	-1014
outh	-1015
vern	-1016
▁May	-1017
ross	-1018
▁Ex	-1019
▁quest	-1020
▁interest	-1021
▁cle	-1022
ution	-1023
▁between	-1024
▁contin	-1025
▁form	-1026
▁Sp	-1027
▁tri	-1028
▁direct	-1029
▁'	-1030
▁They	-1031
▁come	-1032
ley	-1033
ware	-1034
▁plan	-1035
▁iss	-1036
ves	-1037
▁Ph	-1038
▁different	-1039
▁bro	-1040
cept	-1041
▁public	-1042
▁custom	-1043
gg	-1044
▁got	-1045
▁small	-1046
▁group	-1047
▁project	-1048
▁phot	-1049
▁int	-1050
▁report	-1051
uck	-1052
▁mov	-1053
▁class	-1054
iving	-1055
ER	-1056
ering	-1057
con	-1058
nY	-1059
10	-1060
▁Comm	-1061
▁rest	-1062
▁better	-1063
▁met	-1064
▁full	-1065
▁allow	-1066
lection	-1067
be	-1068
50	-1069
▁service	-1070
▁old	-1071
less	-1072
▁another	-1073
int	-1074
ird	-1075
ision	-1076
rist	-1077
ality	-1078
aj	-1079
ody	-1080
30	-1081
▁gener	-1082
▁feel	-1083
▁18	-1084
▁company	-1085
ats	-1086
▁pri	-1087
▁Con	-1088
▁techn	-1089
▁today	-1090
▁Q	-1091
▁news	-1092
enn	-1093
▁sure	-1094
aint	-1095
ata	-1096
usic	-1097
▁water	-1098
▁something	-1099
ense	-1100
...\	-1101
▁Res	-1102
▁organ	-1103
▁hard	-1104
▁--	-1105
▁special	-1106
▁ve	-1107
▁partic	-1108
▁appro	-1109
▁perform	-1110
▁things	-1111
▁sl	-1112
oney	-1113
▁stand	-1114
iqu	-1115
ior	-1116
ission	-1117
orth	-1118
▁11	-1119
self	-1120
▁ref	-1121
▁bel	-1122
▁email	-1123
▁access	-1124
ems	-1125
iday	-1126
▁visit	-1127
▁days	-1128
▁Z	-1129
ling	-1130
raph	-1131
ope	-1132
▁conf	-1133
▁against	-1134
▁resp	-1135
br	-1136
let	-1137
ories	-1138
ote	-1139
▁must	-1140
▁Or	-1141
▁current	-1142
▁Mar	-1143
▁She	-1144
2026	-1145
▁webs	-1146
▁University	-1147
▁sol	-1148
ours	-1149
▁cap	-1150
nWh	-1151
▁let	-1152
▁says	-1153
▁vide	-1154
ared	-1155
urs	-1156
▁build	-1157
nJ	-1158
▁fac	-1159
ining	-1160
▁always	-1161
▁online	-1162
▁inf	-1163
tend	-1164
▁poss	-1165
▁without	-1166
ample	-1167
▁page	-1168
▁Is	-1169
▁proble	-1170
▁import	-1171
▁US	-1172
ards	-1173
▁view	-1174
ohn	-1175
▁ty	-1176
▁number	-1177
▁Ind	-1178
nIf	-1179
▁process	-1180
ina	-1181
ately	-1182
ccess	-1183
▁meet	-1184
▁pat	-1185
▁ter	-1186
▁Mon	-1187
ann	-1188
nWe	-1189
▁cor	-1190
▁ask	-1191
▁var	-1192
▁offic	-1193
▁So	-1194
▁Tr	-1195
gy	-1196
ral	-1197
til	-1198
work	-1199
▁give	-1200
me	-1201
ically	-1202
▁Car	-1203
▁wom	-1204
gin	-1205
▁2011	-1206
▁ide	-1207
▁opt	-1208
app	-1209
ids	-1210
▁bre	-1211
oor	-1212
ording	-1213
▁test	-1214
ium	-1215
▁Fl	-1216
▁students	-1217
ball	-1218
ract	-1219
▁wr	-1220
ploy	-1221
▁looking	-1222
▁never	-1223
▁area	-1224
▁event	-1225
▁recent	-1226
co	-1227
aut	-1228
aff	-1229
▁children	-1230
▁spec	-1231
ron	-1232
▁provide	-1233
iver	-1234
▁night	-1235
▁level	-1236
▁local	-1237
here	-1238
ured	-1239
▁order	-1240
▁pay	-1241
▁cost	-1242
▁supp	-1243
▁stre	-1244
▁Se	-1245
▁val	-1246
ged	-1247
▁market	-1248
▁par	-1249
▁15	-1250
▁until	-1251
▁sal	-1252
▁ob	-1253
ead	-1254
inal	-1255
rol	-1256
by	-1257
icle	-1258
ps	-1259
avor	-1260
▁On	-1261
▁power	-1262
▁past	-1263
utes	-1264
joy	-1265
ator	-1266
▁experience	-1267
ury	-1268
▁community	-1269
12	-1270
▁No	-1271
▁million	-1272
▁law	-1273
We	-1274
▁products	-1275
ains	-1276
.,	-1277
▁might	-1278
▁prom	-1279
sh	-1280
▁pos	-1281
▁Count	-1282
ubl	-1283
▁expl	-1284
ency	-1285
▁invest	-1286
▁please	-1287
une	-1288
oci	-1289
▁pop	-1290
▁exc	-1291
▁30	-1292
▁Man	-1293
▁el	-1294
nect	-1295
▁job	-1296
▁Rep	-1297
ges	-1298
ney	-1299
▁percent	-1300
▁There	-1301
▁check	-1302
fect	-1303
▁near	-1304
▁addition	-1305
▁John	-1306
uff	-1307
ane	-1308
ery	-1309
▁bas	-1310
▁name	-1311
ertain	-1312
▁website	-1313
▁incre	-1314
ama	-1315
alf	-1316
▁How	-1317
▁turn	-1318
IN	-1319
▁oper	-1320
).\	-1321
▁grow	-1322
ature	-1323
▁members	-1324
yr	-1325
iron	-1326
▁rese	-1327
▁left	-1328
ites	-1329
ified	-1330
med	-1331
vernment	-1332
ored	-1333
ON	-1334
opp	-1335
pend	-1336
org	-1337
irl	-1338
▁offer	-1339
▁soc	-1340
stand	-1341
▁able	-1342
ills	-1343
▁camp	-1344
▁less	-1345
ode	-1346
Th	-1347
▁Intern	-1348
load	-1349
▁dr	-1350
▁expect	-1351
▁include	-1352
▁fact	-1353
artment	-1354
ries	-1355
ised	-1356
augh	-1357
nIt	-1358
ister	-1359
▁Co	-1360
▁services	-1361
ready	-1362
▁working	-1363
▁room	-1364
hor	-1365
▁important	-1366
▁Br	-1367
ases	-1368
▁sing	-1369
ruct	-1370
▁Med	-1371
ults	-1372
ined	-1373
▁away	-1374
▁music	-1375
▁contact	-1376
af	-1377
uper	-1378
ted	-1379
▁belie	-1380
RE	-1381
▁App	-1382
aster	-1383
▁making	-1384
▁profess	-1385
▁Christ	-1386
the	-1387
▁line	-1388
iam	-1389
▁mar	-1390
▁food	-1391
ajor	-1392
▁detail	-1393
ived	-1394
ush	-1395
▁hot	-1396
iting	-1397
ym	-1398
▁To	-1399
▁chang	-1400
▁leg	-1401
sc	-1402
osed	-1403
yle	-1404
▁story	-1405
▁blog	-1406
▁City	-1407
nU	-1408
▁record	-1409
▁air	-1410
▁effect	-1411
por	-1412
▁hist	-1413
ials	-1414
▁thing	-1415
▁dist	-1416
▁money	-1417
▁within	-1418
▁Ste	-1419
lege	-1420
▁educ	-1421
nes	-1422
▁enjoy	-1423
osp	-1424
ably	-1425
▁games	-1426
▁times	-1427
cI	-1428
▁intern	-1429
▁beh	-1430
▁State	-1431
gether	-1432
▁together	-1433
▁large	-1434
aring	-1435
▁sw	-1436
▁change	-1437
▁impro	-1438
▁dep	-1439
AT	-1440
▁won	-1441
1.	-1442
▁cent	-1443
▁That	-1444
▁five	-1445
▁[	-1446
ober	-1447
▁Wor	-1448
▁data	-1449
▁return	-1450
▁following	-1451
▁below	-1452
▁complete	-1453
▁course	-1454
book	-1455
nFor	-1456
▁aff	-1457
▁eng	-1458
conom	-1459
oints	-1460
▁along	-1461
▁video	-1462
iety	-1463
ille	-1464
▁already	-1465
ern	-1466
▁14	-1467
▁point	-1468
▁country	-1469
▁2010	-1470
▁easy	-1471
ising	-1472
agement	-1473
▁applic	-1474
▁proper	-1475
2018	-1476
▁sever	-1477
▁light	-1478
▁review	-1479
▁American	-1480
▁ago	-1481
ients	-1482
ows	-1483
▁present	-1484
vious	-1485
▁Cal	-1486
mon	-1487
pecial	-1488
of	-1489
▁est	-1490
ider	-1491
▁live	-1492
▁At	-1493
ism	-1494
▁search	-1495
▁several	-1496
▁why	-1497
▁city	-1498
▁County	-1499
▁Center	-1500
ones	-1501
▁activ	-1502
--	-1503
▁mil	-1504
itions	-1505
-2	-1506
side	-1507
▁success	-1508
▁Ass	-1509
ify	-1510
oon	-1511
▁side	-1512
viron	-1513
▁vers	-1514
ivid	-1515
▁ever	-1516
ique	-1517
▁minutes	-1518
ST	-1519
▁cut	-1520
▁didn	-1521
ched	-1522
▁Can	-1523
▁equ	-1524
arr	-1525
▁soft	-1526
▁buy	-1527
▁mat	-1528
▁/	-1529
▁deal	-1530
▁fund	-1531
▁School	-1532
▁getting	-1533
▁Serv	-1534
▁dra	-1535
▁16	-1536
aper	-1537
ference	-1538
▁makes	-1539
▁creat	-1540
▁Bro	-1541
oll	-1542
▁prote	-1543
▁.	-1544
▁word	-1545
▁Eng	-1546
▁friends	-1547
▁tell	-1548
▁told	-1549
for	-1550
▁199	-1551
▁perfect	-1552
duct	-1553
▁indust	-1554
ret	-1555
▁short	-1556
aturday	-1557
ny	-1558
▁Pr	-1559
▁Off	-1560
▁13	-1561
▁opport	-1562
▁Jan	-1563
▁quality	-1564
▁trad	-1565
▁With	-1566
▁address	-1567
ele	-1568
idd	-1569
▁tax	-1570
ump	-1571
▁personal	-1572
year	-1573
ourn	-1574
ource	-1575
▁favor	-1576
▁purch	-1577
nYou	-1578
ograph	-1579
▁pract	-1580
▁called	-1581
eral	-1582
▁learn	-1583
▁having	-1584
uly	-1585
▁case	-1586
!!	-1587
rop	-1588
▁hum	-1589
▁men	-1590
AR	-1591
ides	-1592
verage	-1593
▁announ	-1594
▁cond	-1595
ream	-1596
ential	-1597
ips	-1598
▁sn	-1599
▁hours	-1600
▁const	-1601
▁Gu	-1602
▁cou	-1603
ches	-1604
▁Che	-1605
▁government	-1606
▁writ	-1607
▁early	-1608
▁En	-1609
▁kind	-1610
▁took	-1611
etwork	-1612
ability	-1613
ization	-1614
▁mater	-1615
anks	-1616
ocus	-1617
▁talk	-1618
AN	-1619
▁Tw	-1620
▁orig	-1621
▁young	-1622
▁York	-1623
▁non	-1624
ances	-1625
▁low	-1626
ots	-1627
▁enough	-1628
ift	-1629
▁major	-1630
▁compet	-1631
▁months	-1632
my	-1633
uro	-1634
▁hold	-1635
ention	-1636
▁become	-1637
ae	-1638
▁saf	-1639
▁went	-1640
allen	-1641
vironment	-1642
▁X	-1643
comm	-1644
▁bit	-1645
▁came	-1646
19	-1647
▁works	-1648
▁points	-1649
▁far	-1650
▁17	-1651
▁least	-1652
▁tre	-1653
▁needs	-1654
2022	-1655
▁appear	-1656
▁done	-1657
▁pack	-1658
▁upd	-1659
▁dev	-1660
▁series	-1661
▁Mc	-1662
▁la	-1663
unch	-1664
enef	-1665
▁quick	-1666
yn	-1667
▁Cont	-1668
▁others	-1669
▁My	-1670
▁employ	-1671
pro	-1672
▁Gr	-1673
▁yet	-1674
oice	-1675
▁North	-1676
▁doesn	-1677
▁24	-1678
▁elect	-1679
▁comb	-1680
▁red	-1681
▁rele	-1682
iven	-1683
▁wa	-1684
▁house	-1685
//	-1686
oes	-1687
▁women	-1688
▁United	-1689
rew	-1690
ensive	-1691
St	-1692
ten	-1693
over	-1694
ript	-1695
aged	-1696
itive	-1697
▁share	-1698
▁research	-1699
▁offers	-1700
▁move	-1701
2.	-1702
▁South	-1703
▁half	-1704
▁Comp	-1705
play	-1706
ither	-1707
most	-1708
yl	-1709
▁Friday	-1710
▁What	-1711
▁possible	-1712
aim	-1713
▁pie	-1714
uture	-1715
▁started	-1716
itor	-1717
▁discuss	-1718
isc	-1719
▁treat	-1720
▁create	-1721
▁Ed	-1722
▁100	-1723
lement	-1724
▁beaut	-1725
▁pick	-1726
fort	-1727
acy	-1728
▁25	-1729
illed	-1730
▁account	-1731
ibr	-1732
▁added	-1733
▁es	-1734
▁pot	-1735
▁sum	-1736
▁connect	-1737
ey	-1738
room	-1739
sw	-1740
ners	-1741
▁based	-1742
▁click	-1743
▁link	-1744
▁lat	-1745
▁across	-1746
▁store	-1747
oose	-1748
://	-1749
aps	-1750
wards	-1751
▁World	-1752
ai	-1753
ination	-1754
▁doing	-1755
▁econom	-1756
▁Dep	-1757
▁join	-1758
ape	-1759
gest	-1760
OR	-1761
▁National	-1762
▁Ne	-1763
tem	-1764
▁fore	-1765
▁lim	-1766
nV	-1767
ging	-1768
▁often	-1769
ained	-1770
▁host	-1771
▁third	-1772
▁field	-1773
▁focus	-1774
▁invol	-1775
▁thought	-1776
▁features	-1777
▁Saturday	-1778
aur	-1779
ians	-1780
resent	-1781
11	-1782
▁PM	-1783
.5	-1784
▁hope	-1785
▁Sm	-1786
▁once	-1787
▁bring	-1788
▁land	-1789
▁control	-1790
!"}	-1791
back	-1792
▁mess	-1793
ateg	-1794
ilt	-1795
ns	-1796
hers	-1797
▁mult	-1798
ster	-1799
ources	-1800
▁staff	-1801
ttp	-1802
isk	-1803
aken	-1804
▁problem	-1805
▁development	-1806
icy	-1807
rap	-1808
ators	-1809
ided	-1810
urch	-1811
resh	-1812
▁later	-1813
▁Am	-1814
aren	-1815
-0	-1816
▁News	-1817
▁When	-1818
ursday	-1819
▁cred	-1820
▁comes	-1821
▁mean	-1822
uesday	-1823
▁benef	-1824
▁tool	-1825
pril	-1826
▁Our	-1827
▁happen	-1828
come	-1829
▁Feb	-1830
umb	-1831
▁mom	-1832
▁hit	-1833
▁close	-1834
aces	-1835
▁Bar	-1836
▁mor	-1837
▁Oct	-1838
time	-1839
▁Monday	-1840
▁questions	-1841
not	-1842
▁content	-1843
ednes	-1844
▁body	-1845
ednesday	-1846
▁occ	-1847
▁member	-1848
err	-1849
▁log	-1850
▁hom	-1851
200	-1852
irt	-1853
▁individ	-1854
▁cook	-1855
▁Min	-1856
▁publ	-1857
▁actually	-1858
▁Pol	-1859
▁Dr	-1860
1,	-1861
▁Des	-1862
▁tem	-1863
▁price	-1864
fact	-1865
▁Inst	-1866
▁press	-1867
▁understand	-1868
▁web	-1869
urity	-1870
▁miss	-1871
▁track	-1872
cle	-1873
eds	-1874
atic	-1875
▁key	-1876
elebr	-1877
▁foot	-1878
▁future	-1879
▁2009	-1880
▁stay	-1881
▁Sep	-1882
ienc	-1883
EN	-1884
▁cop	-1885
ember	-1886
▁Ge	-1887
reet	-1888
▁:	-1889
▁Your	-1890
▁pict	-1891
▁priv	-1892
▁begin	-1893
▁vol	-1894
▁study	-1895
gle	-1896
inks	-1897
roll	-1898
▁color	-1899
AS	-1900
ounds	-1901
unic	-1902
▁card	-1903
off	-1904
wh	-1905
▁break	-1906
25	-1907
▁Park	-1908
▁Pres	-1909
▁front	-1910
▁strong	-1911
go	-1912
ned	-1913
▁star	-1914
▁watch	-1915
ef	-1916
:00	-1917
▁wond	-1918
ED	-1919
▁tot	-1920
itted	-1921
unday	-1922
uary	-1923
▁specific	-1924
ocu	-1925
earch	-1926
▁z	-1927
▁players	-1928
ests	-1929
▁One	-1930
▁hig	-1931
commend	-1932
▁social	-1933
ague	-1934
▁wind	-1935
ison	-1936
▁particip	-1937
▁industry	-1938
crib	-1939
▁install	-1940
▁six	-1941
▁fire	-1942
60	-1943
ler	-1944
nAs	-1945
▁Not	-1946
▁sent	-1947
par	-1948
ask	-1949
anies	-1950
ancial	-1951
oe	-1952
inc	-1953
iful	-1954
▁film	-1955
▁pret	-1956
ilities	-1957
ES	-1958
▁mag	-1959
▁Ob	-1960
▁sell	-1961
▁charac	-1962
ued	-1963
▁walk	-1964
▁select	-1965
▁iP	-1966
ager	-1967
▁items	-1968
nK	-1969
▁comput	-1970
▁High	-1971
▁ey	-1972
▁events	-1973
▁Day	-1974
▁known	-1975
-3	-1976
fer	-1977
▁enc	-1978
▁space	-1979
▁according	-1980
▁question	-1981
▁latest	-1982
aining	-1983
▁author	-1984
▁issues	-1985
▁Me	-1986
▁prob	-1987
aus	-1988
utions	-1989
▁result	-1990
▁2008	-1991
unities	-1992
▁Em	-1993
▁seen	-1994
▁50	-1995
ilar	-1996
▁everything	-1997
▁Gl	-1998
▁board	-1999
▁taking	-2000
vert	-2001
che	-2002
▁anal	-2003
▁step	-2004
▁comment	-2005
▁Per	-2006
ville	-2007
sel	-2008
▁final	-2009
nWhat	-2010
obile	-2011
▁mind	-2012
▁range	-2013
▁anything	-2014
15	-2015
ops	-2016
▁typ	-2017
▁clear	-2018
▁office	-2019
▁March	-2020
▁favorite	-2021
atural	-2022
itch	-2023
fully	-2024
▁Will	-2025
▁pretty	-2026
IT	-2027
▁redu	-2028
▁environment	-2029
irm	-2030
▁among	-2031
▁June	-2032
▁heart	-2033
tee	-2034
▁sit	-2035
▁results	-2036
ief	-2037
▁provides	-2038
▁West	-2039
▁girl	-2040
▁text	-2041
▁face	-2042
3.	-2043
▁held	-2044
▁someone	-2045
▁performance	-2046
rain	-2047
▁dou	-2048
▁box	-2049
▁send	-2050
▁Sec	-2051
▁means	-2052
▁rights	-2053
▁history	-2054
▁includes	-2055
▁Euro	-2056
▁#	-2057
erved	-2058
▁ident	-2059
iod	-2060
▁Qu	-2061
ctor	-2062
▁More	-2063
lex	-2064
nSt	-2065
▁age	-2066
▁kids	-2067
▁House	-2068
▁above	-2069
nTo	-2070
▁black	-2071
ams	-2072
eng	-2073
ands	-2074
name	-2075
▁single	-2076
▁technology	-2077
arter	-2078
▁travel	-2079
kend	-2080
▁Dav	-2081
▁weeks	-2082
ony	-2083
▁America	-2084
cript	-2085
▁whole	-2086
▁challen	-2087
▁currently	-2088
▁spend	-2089
AL	-2090
▁deb	-2091
▁believe	-2092
▁Health	-2093
▁Stud	-2094
▁Tuesday	-2095
itter	-2096
▁respons	-2097
▁Thursday	-2098
▁everyone	-2099
▁Mr	-2100
na	-2101
ural	-2102
▁media	-2103
▁trying	-2104
▁Im	-2105
abor	-2106
▁Cor	-2107
▁States	-2108
▁details	-2109
▁companies	-2110
__	-2111
aul	-2112
▁Mich	-2113
▁port	-2114
▁programs	-2115
bor	-2116
▁Sunday	-2117
▁recommend	-2118
amer	-2119
▁Just	-2120
▁brand	-2121
▁improve	-2122
▁bar	-2123
bb	-2124
yright	-2125
▁almost	-2126
▁certain	-2127
▁continue	-2128
▁main	-2129
▁soon	-2130
urther	-2131
▁tou	-2132
▁receive	-2133
4.	-2134
▁TV	-2135
ole	-2136
▁tit	-2137
iff	-2138
▁fre	-2139
▁sex	-2140
▁repl	-2141
▁Wednesday	-2142
aid	-2143
lish	-2144
tered	-2145
▁http	-2146
▁entire	-2147
▁April	-2148
▁x	-2149
▁given	-2150
ester	-2151
ables	-2152
▁fall	-2153
▁concer	-2154
▁phone	-2155
ze	-2156
ogn	-2157
coming	-2158
▁dem	-2159
▁hon	-2160
▁et	-2161
itten	-2162
▁Mark	-2163
▁require	-2164
-4	-2165
pos	-2166
aily	-2167
imate	-2168
▁polit	-2169
▁building	-2170
nHe	-2171
▁bad	-2172
▁Please	-2173
▁Aust	-2174
▁stri	-2175
raft	-2176
▁Pe	-2177
ires	-2178
idence	-2179
ibility	-2180
▁Associ	-2181
ival	-2182
aby	-2183
aging	-2184
▁users	-2185
▁version	-2186
▁mot	-2187
▁celebr	-2188
▁either	-2189
▁Inc	-2190
▁Val	-2191
▁police	-2192
head	-2193
▁Now	-2194
▁wanted	-2195
ounc	-2196
▁These	-2197
asing	-2198
ried	-2199
icles	-2200
▁sugg	-2201
ashing	-2202
ring	-2203
ipping	-2204
▁taken	-2205
▁assist	-2206
▁San	-2207
itting	-2208
▁clean	-2209
▁coming	-2210
▁former	-2211
▁reason	-2212
▁popular	-2213
2,	-2214
▁running	-2215
icro	-2216
▁Aug	-2217
eth	-2218
ung	-2219
▁docu	-2220
acebook	-2221
pecially	-2222
ana	-2223
ply	-2224
nBut	-2225
▁meas	-2226
▁President	-2227
▁recently	-2228
▁provided	-2229
This	-2230
▁dog	-2231
80	-2232
rug	-2233
nAnd	-2234
▁Pre	-2235
icult	-2236
▁base	-2237
It	-2238
▁cool	-2239
nThere	-2240
▁ste	-2241
▁article	-2242
▁morning	-2243
▁whether	-2244
▁Department	-2245
▁cal	-2246
▁inj	-2247
▁phys	-2248
arents	-2249
ministr	-2250
▁behind	-2251
▁beautiful	-2252
▁Su	-2253
obal	-2254
▁Har	-2255
ospital	-2256
▁goal	-2257
▁wide	-2258
▁Reg	-2259
though	-2260
▁simple	-2261
elt	-2262
amed	-2263
▁AM	-2264
▁Ang	-2265
ulation	-2266
oom	-2267
▁aud	-2268
ruary	-2269
▁size	-2270
mit	-2271
aced	-2272
▁late	-2273
▁El	-2274
irth	-2275
rodu	-2276
IC	-2277
ris	-2278
val	-2279
▁crit	-2280
cThe	-2281
▁probably	-2282
▁Cent	-2283
▁veh	-2284
ek	-2285
▁ant	-2286
ino	-2287
aching	-2288
▁education	-2289
gress	-2290
▁seem	-2291
▁issue	-2292
itional	-2293
▁forward	-2294
▁president	-2295
▁particular	-2296
▁vict	-2297
ederal	-2298
▁di	-2299
▁ener	-2300
▁super	-2301
▁Go	-2302
▁Post	-2303
ovember	-2304
▁collect	-2305
ada	-2306
iber	-2307
▁>	-2308
▁unique	-2309
▁received	-2310
▁areas	-2311
▁software	-2312
▁Calif	-2313
▁training	-2314
arl	-2315
▁maint	-2316
▁attend	-2317
▁Sen	-2318
▁cup	-2319
▁period	-2320
▁answ	-2321
▁Street	-2322
adu	-2323
oved	-2324
▁comments	-2325
▁represent	-2326
▁collection	-2327
tember	-2328
eter	-2329
ental	-2330
ufact	-2331
▁song	-2332
▁town	-2333
▁weekend	-2334
.0	-2335
▁Don	-2336
nOn	-2337
ishing	-2338
▁professional	-2339
▁$1	-2340
reg	-2341
adem	-2342
▁asked	-2343
▁claim	-2344
▁couple	-2345
▁cult	-2346
▁road	-2347
hern	-2348
▁type	-2349
oke	-2350
▁likely	-2351
40	-2352
▁After	-2353
▁fit	-2354
▁anim	-2355
▁shows	-2356
▁Europe	-2357
▁designed	-2358
ety	-2359
lev	-2360
▁style	-2361
▁40	-2362
wood	-2363
▁isn	-2364
▁College	-2365
OU	-2366
▁swe	-2367
▁previous	-2368
ume	-2369
▁Us	-2370
▁oil	-2371
▁famil	-2372
▁regular	-2373
iol	-2374
7,	-2375
▁release	-2376
▁original	-2377
▁due	-2378
AC	-2379
ouncil	-2380
:30	-2381
▁ens	-2382
ux	-2383
nder	-2384
▁nice	-2385
arning	-2386
▁fresh	-2387
▁match	-2388
example	-2389
▁anyone	-2390
▁financial	-2391
▁hol	-2392
▁via	-2393
▁Art	-2394
ruction	-2395
▁meeting	-2396
▁network	-2397
▁credit	-2398
▁customers	-2399
\"\	-2400
angu	-2401
▁Red	-2402
▁January	-2403
▁Facebook	-2404
▁else	-2405
cember	-2406
▁ap	-2407
In	-2408
▁ball	-2409
istrict	-2410
ades	-2411
cast	-2412
▁example	-2413
▁relations	-2414
▁Add	-2415
▁dig	-2416
▁squ	-2417
▁stra	-2418
▁human	-2419
iate	-2420
▁Obama	-2421
▁God	-2422
anced	-2423
arent	-2424
attle	-2425
▁idea	-2426
mail	-2427
reme	-2428
▁www	-2429
▁party	-2430
hib	-2431
▁management	-2432
IS	-2433
astic	-2434
oogle	-2435
urance	-2436
▁required	-2437
ming	-2438
ently	-2439
▁reading	-2440
board	-2441
▁date	-2442
▁white	-2443
▁position	-2444
▁stop	-2445
▁prep	-2446
▁needed	-2447
▁contrib	-2448
▁problems	-2449
▁July	-2450
▁reported	-2451
idge	-2452
▁opportunity	-2453
▁International	-2454
/2	-2455
▁Tra	-2456
ession	-2457
eg	-2458
▁Pat	-2459
▁extra	-2460
▁player	-2461
▁created	-2462
apt	-2463
ese	-2464
ornia	-2465
▁subs	-2466
▁photos	-2467
▁playing	-2468
www	-2469
▁Her	-2470
▁happy	-2471
▁paper	-2472
▁...	-2473
▁energy	-2474
▁outside	-2475
3,	-2476
key	-2477
▁Ser	-2478
elcome	-2479
▁career	-2480
ael	-2481
▁looks	-2482
▁protect	-2483
▁By	-2484
▁ord	-2485
▁seems	-2486
▁bott	-2487
▁action	-2488
▁Sw	-2489
clus	-2490
▁Web	-2491
▁cover	-2492
▁ready	-2493
▁total	-2494
▁wonder	-2495
aving	-2496
iddle	-2497
▁general	-2498
ledge	-2499
nWhen	-2500
▁accom	-2501
▁fig	-2502
▁books	-2503
▁death	-2504
▁value	-2505
▁pain	-2506
▁Af	-2507
▁TH	-2508
▁fail	-2509
nHow	-2510
▁Soc	-2511
▁diff	-2512
opping	-2513
overed	-2514
cy	-2515
aker	-2516
adio	-2517
▁loss	-2518
▁deter	-2519
aign	-2520
▁inn	-2521
▁further	-2522
chie	-2523
▁chance	-2524
▁especially	-2525
99	-2526
ibrary	-2527
▁included	-2528
OT	-2529
▁Do	-2530
olution	-2531
6,	-2532
ecut	-2533
▁Jack	-2534
▁agree	-2535
▁summer	-2536
03	-2537
Wh	-2538
▁init	-2539
▁risk	-2540
dd	-2541
▁common	-2542
▁consum	-2543
▁Cour	-2544
▁download	-2545
▁announced	-2546
AM	-2547
▁enter	-2548
▁Direct	-2549
▁Up	-2550
▁leaders	-2551
ees	-2552
▁etc	-2553
▁sales	-2554
▁played	-2555
▁purchase	-2556
rote	-2557
▁Black	-2558
hips	-2559
selves	-2560
ules	-2561
▁tal	-2562
▁Group	-2563
▁takes	-2564
▁deg	-2565
▁Part	-2566
▁rate	-2567
▁drive	-2568
-8	-2569
▁quite	-2570
▁Ac	-2571
ffic	-2572
ively	-2573
▁ways	-2574
nSo	-2575
▁pan	-2576
▁mix	-2577
▁fast	-2578
zz	-2579
▁Bu	-2580
▁tick	-2581
▁lives	-2582
▁October	-2583
ashington	-2584
rows	-2585
▁center	-2586
▁located	-2587
▁options	-2588
ida	-2589
pper	-2590
icated	-2591
▁court	-2592
▁February	-2593
▁national	-2594
▁boy	-2595
▁attack	-2596
▁flow	-2597
▁student	-2598
▁tour	-2599
ham	-2600
▁Act	-2601
▁recogn	-2602
▁21	-2603
▁ground	-2604
▁dam	-2605
▁accept	-2606
▁leave	-2607
ago	-2608
▁stat	-2609
ournal	-2610
▁suggest	-2611
now	-2612
▁2012\	-2613
▁choose	-2614
nAl	-2615
pped	-2616
▁sus	-2617
▁sle	-2618
▁table	-2619
▁California	-2620
▁Par	-2621
ought	-2622
▁longer	-2623
▁screen	-2624
▁print	-2625
▁inside	-2626
oring	-2627
▁consider	-2628
▁1,	-2629
▁living	-2630
▁September	-2631
▁coll	-2632
▁hear	-2633
bur	-2634
▁Ag	-2635
▁Read	-2636
▁request	-2637
▁subject	-2638
▁computer	-2639
▁additional	-2640
str	-2641
▁bud	-2642
based	-2643
▁November	-2644
▁Ab	-2645
▁Sch	-2646
▁engine	-2647
▁(1	-2648
▁similar	-2649
aches	-2650
▁sound	-2651
▁changes	-2652
nAll	-2653
ification	-2654
eal	-2655
urt	-2656
▁28	-2657
▁plans	-2658
▁However	-2659
hod	-2660
▁park	-2661
▁Service	-2662
70	-2663
▁caus	-2664
▁published	-2665
2\	-2666
uge	-2667
word	-2668
▁vot	-2669
▁round	-2670
▁official	-2671
ises	-2672
ett	-2673
▁worth	-2674
ags	-2675
▁cir	-2676
▁nothing	-2677
▁parents	-2678
ING	-2679
oid	-2680
ray	-2681
▁Ke	-2682
▁op	-2683
▁true	-2684
▁expected	-2685
▁released	-2686
▁property	-2687
erry	-2688
▁fans	-2689
▁throughout	-2690
▁ri	-2691
uation	-2692
▁natural	-2693
▁December	-2694
ky	-2695
ford	-2696
ached	-2697
light	-2698
▁Internet	-2699
▁lost	-2700
▁medical	-2701
▁manufact	-2702
gar	-2703
ipe	-2704
oly	-2705
▁La	-2706
▁potential	-2707
▁bo	-2708
▁His	-2709
▁bed	-2710
▁words	-2711
iter	-2712
osted	-2713
▁compl	-2714
▁difficult	-2715
band	-2716
▁user	-2717
▁image	-2718
▁parts	-2719
▁touch	-2720
▁security	-2721
▁private	-2722
▁increase	-2723
▁Wind	-2724
▁+	-2725
hel	-2726
aste	-2727
▁Hol	-2728
bl	-2729
uel	-2730
▁Fin	-2731
▁Sal	-2732
duc	-2733
oph	-2734
▁Here	-2735
▁variety	-2736
▁Tex	-2737
▁Some	-2738
▁file	-2739
▁display	-2740
▁,	-2741
▁function	-2742
▁material	-2743
▁arri	-2744
▁cand	-2745
▁model	-2746
▁commit	-2747
▁respect	-2748
▁ple	-2749
▁deep	-2750
▁reports	-2751
▁dom	-2752
▁simply	-2753
ara	-2754
▁bus	-2755
azing	-2756
▁club	-2757
▁rather	-2758
▁saw	-2759
mission	-2760
▁projects	-2761
▁signific	-2762
ID	-2763
pm	-2764
▁Spr	-2765
▁movie	-2766
hood	-2767
▁draw	-2768
▁insp	-2769
-5	-2770
leg	-2771
▁leading	-2772
like	-2773
▁War	-2774
▁feature	-2775
ounts	-2776
▁skin	-2777
▁shoot	-2778
▁investig	-2779
▁various	-2780
▁clos	-2781
idents	-2782
▁wrote	-2783
mercial	-2784
▁yourself	-2785
oud	-2786
▁role	-2787
▁David	-2788
▁activities	-2789
orge	-2790
itute	-2791
▁August	-2792
mas	-2793
....	-2794
▁pull	-2795
ma	-2796
lin	-2797
▁achie	-2798
▁systems	-2799
▁necess	-2800
▁campaign	-2801
▁abs	-2802
▁shot	-2803
▁birth	-2804
▁Washington	-2805
oday	-2806
▁autom	-2807
▁method	-2808
nAn	-2809
▁fight	-2810
▁decided	-2811
▁broad	-2812
▁led	-2813
ground	-2814
▁exist	-2815
▁gets	-2816
▁2013\	-2817
▁however	-2818
face	-2819
ayer	-2820
▁viol	-2821
▁quarter	-2822
rown	-2823
ipment	-2824
OM	-2825
▁Brit	-2826
▁writing	-2827
▁interested	-2828
rig	-2829
rect	-2830
▁Hot	-2831
▁From	-2832
▁self	-2833
6.	-2834
▁experienc	-2835
▁aw	-2836
▁baby	-2837
▁exam	-2838
▁Air	-2839
ondon	-2840
▁photo	-2841
▁serious	-2842
▁Austral	-2843
▁Aut	-2844
▁goes	-2845
▁comfort	-2846
sp	-2847
▁lab	-2848
▁sil	-2849
▁Hall	-2850
illing	-2851
▁built	-2852
7.	-2853
epend	-2854
▁Flor	-2855
▁dress	-2856
opyright	-2857
▁restaur	-2858
▁Republic	-2859
ude	-2860
izing	-2861
▁stuff	-2862
nPlease	-2863
5.	-2864
▁Home	-2865
▁encour	-2866
▁director	-2867
▁international	-2868
▁drug	-2869
▁Office	-2870
▁application	-2871
▁amount	-2872
▁cannot	-2873
▁involved	-2874
ET	-2875
ocr	-2876
lier	-2877
▁opp	-2878
▁hair	-2879
▁prevent	-2880
itc	-2881
▁character	-2882
▁son	-2883
asons	-2884
▁average	-2885
▁practice	-2886
ares	-2887
▁sen	-2888
where	-2889
▁band	-2890
▁norm	-2891
▁images	-2892
▁Dis	-2893
acing	-2894
▁related	-2895
ding	-2896
arget	-2897
.)	-2898
ellow	-2899
▁cell	-2900
rec	-2901
▁hy	-2902
▁Google	-2903
▁message	-2904
▁interview	-2905
▁decision	-2906
▁ideas	-2907
▁worked	-2908
:4	-2909
▁wall	-2910
▁Techn	-2911
▁award	-2912
▁score	-2913
nCh	-2914
akers	-2915
▁associ	-2916
▁matter	-2917
wide	-2918
▁sat	-2919
atter	-2920
▁Paul	-2921
rought	-2922
▁stock	-2923
▁save	-2924
▁ill	-2925
olf	-2926
▁Cr	-2927
▁standard	-2928
▁significant	-2929
▁Angel	-2930
▁quickly	-2931
33	-2932
cing	-2933
▁code	-2934
▁nation	-2935
▁individual	-2936
hone	-2937
▁sold	-2938
▁surpr	-2939
▁prices	-2940
▁section	-2941
▁customer	-2942
aves	-2943
erve	-2944
▁groups	-2945
▁langu	-2946
▁mid	-2947
▁piece	-2948
▁growth	-2949
▁stories	-2950
iple	-2951
just	-2952
▁Sim	-2953
▁teams	-2954
▁treatment	-2955
▁Dem	-2956
▁hop	-2957
nWith	-2958
▁seven	-2959
owl	-2960
▁dro	-2961
▁item	-2962
▁Texas	-2963
16	-2964
▁22	-2965
▁Law	-2966
▁Out	-2967
▁exact	-2968
put	-2969
▁Association	-2970
anch	-2971
useum	-2972
▁cause	-2973
▁Twitter	-2974
▁ep	-2975
▁sense	-2976
▁mother	-2977
▁source	-2978
▁Acc	-2979
ament	-2980
▁arch	-2981
▁began	-2982
▁immed	-2983
AP	-2984
▁affect	-2985
▁starting	-2986
amb	-2987
▁moment	-2988
cription	-2989
nthe	-2990
ashion	-2991
▁easily	-2992
75	-2993
LL	-2994
ault	-2995
down	-2996
imum	-2997
▁dest	-2998
ampions	-2999
▁policy	-3000
bum	-3001
▁gen	-3002
▁dise	-3003
▁Business	-3004
▁infl	-3005
▁saying	-3006
▁describ	-3007
▁contract	-3008
▁Rec	-3009
▁choice	-3010
erc	-3011
▁emer	-3012
▁pers	-3013
▁prior	-3014
avy	-3015
omen	-3016
▁apply	-3017
▁higher	-3018
den	-3019
istic	-3020
▁wasn	-3021
▁promot	-3022
urb	-3023
▁blood	-3024
▁Program	-3025
▁gra	-3026
9,	-3027
uk	-3028
aran	-3029
▁Mag	-3030
▁Book	-3031
▁Cons	-3032
▁Green	-3033
▁usually	-3034
▁written	-3035
gu	-3036
▁Fe	-3037
▁Free	-3038
▁sett	-3039
atives	-3040
▁defin	-3041
▁location	-3042
▁mass	-3043
4,	-3044
▁cat	-3045
▁London	-3046
ening	-3047
▁prim	-3048
▁title	-3049
▁wrong	-3050
▁levels	-3051
▁remember	-3052
izes	-3053
▁sun	-3054
▁White	-3055
Ch	-3056
US	-3057
▁mach	-3058
▁mobile	-3059
13	-3060
▁bal	-3061
itary	-3062
icago	-3063
▁tools	-3064
▁East	-3065
▁sche	-3066
mitted	-3067
▁billion	-3068
▁instead	-3069
field	-3070
iction	-3071
▁lower	-3072
▁jud	-3073
▁dead	-3074
▁allows	-3075
▁straight	-3076
ancy	-3077
▁countries	-3078
▁fab	-3079
▁capt	-3080
▁feed	-3081
BC	-3082
▁rev	-3083
▁attem	-3084
▁college	-3085
▁administr	-3086
You	-3087
onse	-3088
▁rent	-3089
▁depend	-3090
▁learning	-3091
ocks	-3092
▁ensure	-3093
▁war	-3094
ipped	-3095
king	-3096
▁Wal	-3097
▁safe	-3098
urning	-3099
▁woman	-3100
▁knowledge	-3101
▁Je	-3102
de	-3103
▁Del	-3104
▁Michael	-3105
uted	-3106
▁coach	-3107
▁posted	-3108
▁schools	-3109
nOur	-3110
ocol	-3111
▁198	-3112
▁Educ	-3113
ension	-3114
▁Club	-3115
▁block	-3116
▁budget	-3117
**	-3118
iding	-3119
▁note	-3120
▁Apple	-3121
▁regard	-3122
▁organization	-3123
iation	-3124
▁daily	-3125
▁homes	-3126
▁annual	-3127
▁interesting	-3128
AA	-3129
▁@	-3130
▁teac	-3131
▁production	-3132
▁UK	-3133
▁slow	-3134
▁camer	-3135
ecutive	-3136
▁selection	-3137
▁Then	-3138
▁skills	-3139
▁reb	-3140
▁race	-3141
▁serve	-3142
▁global	-3143
rel	-3144
▁lic	-3145
▁lif	-3146
aries	-3147
azine	-3148
▁King	-3149
▁gave	-3150
▁ones	-3151
▁estab	-3152
aughter	-3153
▁System	-3154
nCl	-3155
iles	-3156
▁Port	-3157
▁guys	-3158
▁warm	-3159
▁object	-3160
▁officials	-3161
▁hands	-3162
▁weight	-3163
unte	-3164
▁fine	-3165
▁While	-3166
▁providing	-3167
▁statement	-3168
ples	-3169
▁ful	-3170
▁heard	-3171
▁hotel	-3172
▁sites	-3173
▁giving	-3174
inner	-3175
▁huge	-3176
▁dark	-3177
▁excell	-3178
▁amazing	-3179
▁Services	-3180
▁60	-3181
▁Are	-3182
▁floor	-3183
▁safety	-3184
▁organiz	-3185
▁1.	-3186
▁upon	-3187
▁communic	-3188
▁Sun	-3189
atory	-3190
▁Florida	-3191
9.	-3192
ico	-3193
▁feet	-3194
▁green	-3195
▁Mem	-3196
ength	-3197
▁express	-3198
▁sym	-3199
▁Ger	-3200
▁gradu	-3201
▁impact	-3202
]\	-3203
airs	-3204
erous	-3205
▁bank	-3206
▁hous	-3207
▁prem	-3208
▁Design	-3209
▁Public	-3210
▁neg	-3211
▁door	-3212
▁carry	-3213
▁charge	-3214
su	-3215
enty	-3216
:5	-3217
▁Phil	-3218
▁cases	-3219
▁cancer	-3220
ography	-3221
▁modern	-3222
▁Dan	-3223
▁Rom	-3224
▁Super	-3225
▁eight	-3226
▁ded	-3227
▁First	-3228
▁answer	-3229
▁weather	-3230
PS	-3231
oul	-3232
urer	-3233
▁Mary	-3234
▁sens	-3235
▁categ	-3236
▁document	-3237
▁Christmas	-3238
isl	-3239
apan	-3240
rench	-3241
▁heat	-3242
▁wish	-3243
▁grand	-3244
14	-3245
▁PC	-3246
▁gas	-3247
▁2007	-3248
▁families	-3249
▁resources	-3250
cWe	-3251
vin	-3252
hest	-3253
▁Mor	-3254
▁hour	-3255
▁Afric	-3256
▁helps	-3257
▁directly	-3258
▁II	-3259
▁wood	-3260
sec	-3261
ears	-3262
▁costs	-3263
▁tried	-3264
▁Council	-3265
▁commercial	-3266
▁pow	-3267
sy	-3268
▁AN	-3269
▁trip	-3270
▁China	-3271
▁pages	-3272
▁ability	-3273
▁materials	-3274
raz	-3275
▁Road	-3276
▁integr	-3277
▁wait	-3278
▁nearly	-3279
ado	-3280
nBy	-3281
pri	-3282
venue	-3283
▁gift	-3284
action	-3285
ctions	-3286
▁neigh	-3287
▁limited	-3288
▁rock	-3289
▁Gener	-3290
▁files	-3291
▁forum	-3292
▁terms	-3293
EC	-3294
vey	-3295
▁roll	-3296
AD	-3297
▁ess	-3298
iring	-3299
▁gives	-3300
▁trail	-3301
ica	-3302
▁except	-3303
▁distrib	-3304
▁Church	-3305
▁largest	-3306
▁vehicle	-3307
▁partners	-3308
used	-3309
ivery	-3310
arc	-3311
uals	-3312
▁div	-3313
▁federal	-3314
net	-3315
▁obs	-3316
▁doll	-3317
estern	-3318
▁introdu	-3319
▁Inter	-3320
▁myself	-3321
▁Court	-3322
▁Found	-3323
▁target	-3324
OS	-3325
unt	-3326
▁Cle	-3327
▁dry	-3328
▁Prof	-3329
▁bill	-3330
▁English	-3331
▁Dec	-3332
▁Ital	-3333
▁fair	-3334
▁Community	-3335
18	-3336
▁stru	-3337
▁William	-3338
5,	-3339
mm	-3340
ota	-3341
ened	-3342
mark	-3343
▁spent	-3344
▁themselves	-3345
bit	-3346
umn	-3347
roid	-3348
▁Mac	-3349
▁sports	-3350
▁conditions	-3351
▁opportunities	-3352
pite	-3353
▁applications	-3354
-6	-3355
ald	-3356
nRe	-3357
ona	-3358
▁cy	-3359
▁separ	-3360
:2	-3361
ha	-3362
aming	-3363
atform	-3364
▁owners	-3365
▁finished	-3366
▁political	-3367
▁album	-3368
▁medic	-3369
▁turned	-3370
iced	-3371
vest	-3372
▁Great	-3373
▁links	-3374
▁effort	-3375
▁Cong	-3376
▁picture	-3377
▁hospital	-3378
iant	-3379
▁Pet	-3380
za	-3381
▁hor	-3382
▁pet	-3383
▁vac	-3384
▁Also	-3385
▁Mart	-3386
nAfter	-3387
ountain	-3388
▁Class	-3389
estival	-3390
▁Island	-3391
▁brought	-3392
soft	-3393
▁snow	-3394
uth	-3395
imin	-3396
▁plant	-3397
▁Research	-3398
anta	-3399
aught	-3400
▁write	-3401
▁became	-3402
▁states	-3403
:||	-3404
▁Oh	-3405
haps	-3406
rian	-3407
▁River	-3408
▁reach	-3409
▁Chicago	-3410
1\	-3411
rey	-3412
▁Of	-3413
omb	-3414
wor	-3415
nand	-3416
▁sale	-3417
▁Canada	-3418
▁earlier	-3419
▁insurance	-3420
▁businesses	-3421
-7	-3422
ocal	-3423
▁Big	-3424
▁Get	-3425
▁wants	-3426
ysis	-3427
▁attention	-3428
▁equipment	-3429
▁lo	-3430
▁tom	-3431
▁Click	-3432
▁cross	-3433
itation	-3434
▁Indian	-3435
asc	-3436
atab	-3437
ston	-3438
ivity	-3439
ecause	-3440
▁Rober	-3441
ructure	-3442
▁benefits	-3443
EL	-3444
ixt	-3445
▁qual	-3446
▁suff	-3447
▁legal	-3448
▁growing	-3449
▁positive	-3450
iment	-3451
ordin	-3452
vis	-3453
▁economic	-3454
▁successful	-3455
nc	-3456
▁guy	-3457
▁wife	-3458
inally	-3459
:0	-3460
inn	-3461
ule	-3462
▁23	-3463
olic	-3464
▁Bel	-3465
▁firm	-3466
▁served	-3467
▁Develop	-3468
▁condition	-3469
▁Mod	-3470
▁respond	-3471
▁entertain	-3472
IV	-3473
add	-3474
▁Press	-3475
OL	-3476
▁Char	-3477
▁Rich	-3478
oma	-3479
▁Ev	-3480
ooth	-3481
▁fan	-3482
▁ren	-3483
▁James	-3484
▁Trans	-3485
▁extreme	-3486
▁err	-3487
▁goals	-3488
sem	-3489
yond	-3490
▁ten	-3491
▁Miss	-3492
▁maybe	-3493
▁sweet	-3494
▁efforts	-3495
▁shipping	-3496
nSh	-3497
▁effic	-3498
▁shop	-3499
▁Board	-3500
▁temper	-3501
▁pattern	-3502
▁Commission	-3503
alt	-3504
well	-3505
imately	-3506
▁attract	-3507
nMy	-3508
nds	-3509
▁dream	-3510
▁named	-3511
ims	-3512
nAt	-3513
icks	-3514
ube	-3515
uled	-3516
▁Well	-3517
▁runs	-3518
▁brows	-3519
▁conduct	-3520
▁ut	-3521
pose	-3522
▁Spe	-3523
▁itself	-3524
8.	-3525
▁fix	-3526
▁hus	-3527
▁disease	-3528
▁finally	-3529
▁conference	-3530
SP	-3531
last	-3532
wise	-3533
▁Lou	-3534
▁gar	-3535
▁speed	-3536
17	-3537
orrow	-3538
▁circ	-3539
▁Japan	-3540
istered	-3541
▁father	-3542
5\	-3543
EO	-3544
arden	-3545
▁threat	-3546
▁response	-3547
▁completely	-3548
bon	-3549
ivil	-3550
▁Gold	-3551
▁imag	-3552
▁iPhone	-3553
roud	-3554
▁lay	-3555
▁nut	-3556
iller	-3557
▁Thom	-3558
▁coun	-3559
▁gold	-3560
▁Ir	-3561
▁mail	-3562
▁double	-3563
▁Company	-3564
▁necessary	-3565
IP	-3566
▁=	-3567
rip	-3568
▁Bre	-3569
▁spot	-3570
▁Windows	-3571
▁pictures	-3572
mp	-3573
▁gun	-3574
▁moving	-3575
▁wonderful	-3576
▁extend	-3577
unk	-3578
▁Sub	-3579
▁mention	-3580
▁reserved	-3581
▁stage	-3582
▁himself	-3583
▁thinking	-3584
▁Sl	-3585
acts	-3586
house	-3587
▁2006	-3588
▁Good	-3589
esterday	-3590
▁overall	-3591
ady	-3592
hold	-3593
▁Tom	-3594
▁ult	-3595
▁Rock	-3596
friend	-3597
▁Micro	-3598
:3	-3599
pre	-3600
▁lik	-3601
▁appl	-3602
▁correct	-3603
▁manager	-3604
▁Education	-3605
opped	-3606
▁Brown	-3607
▁easier	-3608
▁offered	-3609
90	-3610
▁ton	-3611
nMore	-3612
▁League	-3613
▁numbers	-3614
;\	-3615
▁paint	-3616
▁creating	-3617
▁Information	-3618
▁Most	-3619
▁Child	-3620
SS	-3621
▁Ann	-3622
comes	-3623
iance	-3624
▁bottom	-3625
▁language	-3626
212	-3627
iable	-3628
nHere	-3629
▁reve	-3630
▁surv	-3631
▁histor	-3632
▁option	-3633
▁approach	-3634
▁patients	-3635
hens	-3636
itely	-3637
▁jobs	-3638
▁opin	-3639
iers	-3640
▁ble	-3641
▁Smith	-3642
▁rates	-3643
▁advert	-3644
see	-3645
▁26	-3646
change	-3647
▁Every	-3648
▁healthy	-3649
▁impress	-3650
itz	-3651
▁Down	-3652
▁Phot	-3653
▁Russ	-3654
▁vote	-3655
▁whose	-3656
DA	-3657
500	-3658
▁bi	-3659
rael	-3660
▁Time	-3661
▁doub	-3662
▁wear	-3663
▁clients	-3664
▁platform	-3665
ibly	-3666
nCom	-3667
ancing	-3668
▁listed	-3669
▁cert	-3670
▁Review	-3671
▁streng	-3672
▁shopping	-3673
▁Institute	-3674
set	-3675
▁thous	-3676
24	-3677
▁wat	-3678
ration	-3679
▁football	-3680
apter	-3681
isions	-3682
▁planning	-3683
He	-3684
inger	-3685
▁term	-3686
▁Director	-3687
▁Pri	-3688
▁Lake	-3689
▁aware	-3690
osh	-3691
▁Los	-3692
porate	-3693
▁innov	-3694
▁region	-3695
▁senior	-3696
▁excellent	-3697
?"}	-3698
▁Camp	-3699
▁progress	-3700
▁developed	-3701
▁exhib	-3702
outhern	-3703
rial	-3704
▁THE	-3705
irgin	-3706
▁beat	-3707
undred	-3708
▁miles	-3709
▁middle	-3710
▁changed	-3711
▁husband	-3712
▁beginning	-3713
men	-3714
asts	-3715
▁Ant	-3716
▁Jim	-3717
▁doctor	-3718
▁finish	-3719
▁highly	-3720
▁multiple	-3721
▁sometimes	-3722
.)\	-3723
ews	-3724
more	-3725
▁USA	-3726
▁ver	-3727
▁cart	-3728
▁decl	-3729
idered	-3730
▁complex	-3731
▁traditional	-3732
atever	-3733
▁Angeles	-3734
lor	-3735
raw	-3736
▁wine	-3737
▁altern	-3738
▁holiday	-3739
▁Av	-3740
▁Pal	-3741
▁types	-3742
ption	-3743
▁copy	-3744
▁uses	-3745
arrant	-3746
▁digital	-3747
▁activity	-3748
mod	-3749
▁Top	-3750
▁rain	-3751
▁wild	-3752
▁button	-3753
▁opening	-3754
OW	-3755
▁*	-3756
▁Times	-3757
▁retail	-3758
body	-3759
noon	-3760
inter	-3761
▁owner	-3762
▁larger	-3763
▁Check	-3764
▁glass	-3765
▁smart	-3766
▁attempt	-3767
bed	-3768
reed	-3769
rees	-3770
amily	-3771
▁Life	-3772
▁conc	-3773
iately	-3774
▁advice	-3775
▁arrest	-3776
▁fashion	-3777
▁implement	-3778
iar	-3779
tion	-3780
▁eye	-3781
phone	-3782
▁moved	-3783
▁pieces	-3784
▁volunte	-3785
▁military	-3786
▁Sk	-3787
irit	-3788
▁Any	-3789
▁scient	-3790
▁videos	-3791
▁pressure	-3792
▁employees	-3793
▁marketing	-3794
ads	-3795
itiz	-3796
▁See	-3797
▁sleep	-3798
cA	-3799
yan	-3800
▁cards	-3801
▁apprec	-3802
▁expand	-3803
▁spring	-3804
ological	-3805
nOne	-3806
▁active	-3807
BA	-3808
)"}	-3809
nNo	-3810
▁Kn	-3811
oston	-3812
press	-3813
▁allowed	-3814
rup	-3815
dule	-3816
range	-3817
▁Open	-3818
▁haven	-3819
vention	-3820
IM	-3821
RA	-3822
TV	-3823
ION	-3824
box	-3825
▁announce	-3826
okes	-3827
▁Bay	-3828
ander	-3829
▁died	-3830
▁couldn	-3831
ores	-3832
▁exactly	-3833
OP	-3834
▁2.	-3835
rief	-3836
▁Vis	-3837
▁sched	-3838
▁signed	-3839
▁science	-3840
▁Congress	-3841
▁independ	-3842
fl	-3843
fit	-3844
ios	-3845
▁imm	-3846
gency	-3847
▁aren	-3848
nPosted	-3849
▁update	-3850
▁DV	-3851
▁fly	-3852
▁mer	-3853
▁net	-3854
▁Fire	-3855
▁achieve	-3856
ceed	-3857
ovel	-3858
2026\	-3859
▁Year	-3860
▁French	-3861
▁advant	-3862
▁highest	-3863
▁relationship	-3864
esome	-3865
ronic	-3866
▁Star	-3867
ademic	-3868
▁residents	-3869
itchen	-3870
▁ahead	-3871
▁construction	-3872
LE	-3873
▁blue	-3874
▁proud	-3875
▁solution	-3876
gn	-3877
▁Int	-3878
▁trade	-3879
ror	-3880
orry	-3881
▁bur	-3882
elling	-3883
▁guaran	-3884
ervation	-3885
▁benefit	-3886
▁responsible	-3887
ruit	-3888
▁Mex	-3889
anging	-3890
▁looked	-3891
/4	-3892
▁Mot	-3893
▁beg	-3894
icken	-3895
osing	-3896
▁Best	-3897
▁District	-3898
▁offering	-3899
po	-3900
order	-3901
▁Bill	-3902
▁Beach	-3903
▁lines	-3904
▁German	-3905
agn	-3906
isco	-3907
sych	-3908
▁bul	-3909
▁eyes	-3910
▁avoid	-3911
▁loved	-3912
levision	-3913
▁daughter	-3914
26	-3915
▁exclus	-3916
▁deliver	-3917
eed	-3918
▁Met	-3919
▁Show	-3920
▁cold	-3921
ooking	-3922
▁rules	-3923
▁Sur	-3924
apers	-3925
orage	-3926
orial	-3927
▁Care	-3928
▁Plan	-3929
nWhile	-3930
▁sugar	-3931
▁beyond	-3932
▁winter	-3933
▁consult	-3934
▁driving	-3935
ech	-3936
▁sort	-3937
▁Democr	-3938
▁length	-3939
▁organizations	-3940
▁Vol	-3941
▁mus	-3942
iling	-3943
▁accur	-3944
▁candid	-3945
▁normal	-3946
▁bag	-3947
▁eat	-3948
▁wed	-3949
state	-3950
▁Hist	-3951
▁load	-3952
▁pred	-3953
▁Media	-3954
atabase	-3955
ocolate	-3956
▁Thanks	-3957
▁biggest	-3958
▁European	-3959
▁trust	-3960
▁happened	-3961
edy	-3962
arks	-3963
▁Rel	-3964
▁plus	-3965
▁ship	-3966
▁Israel	-3967
▁helping	-3968
tr	-3969
▁Rem	-3970
▁minute	-3971
▁difference	-3972
▁IN	-3973
illa	-3974
▁cab	-3975
▁ing	-3976
▁Mike	-3977
▁Color	-3978
▁India	-3979
▁Music	-3980
▁economy	-3981
CC	-3982
nces	-3983
oves	-3984
▁subst	-3985
▁degree	-3986
▁nature	-3987
▁evening	-3988
▁competition	-3989
▁immediately	-3990
asy	-3991
▁90	-3992
gers	-3993
istry	-3994
▁nine	-3995
▁helped	-3996
▁letter	-3997
▁places	-3998
▁classic	-3999
▁package	-4000
▁delivery	-4001
aks	-4002
que	-4003
acks	-4004
arth	-4005
▁Mil	-4006
▁device	-4007
▁General	-4008
▁tickets	-4009
▁situation	-4010
3\	-4011
amm	-4012
outs	-4013
▁prop	-4014
▁shown	-4015
▁Police	-4016
▁contain	-4017
ses	-4018
rast	-4019
▁Sol	-4020
arily	-4021
▁Mont	-4022
▁lots	-4023
▁paid	-4024
▁sust	-4025
▁Franc	-4026
▁influ	-4027
▁taste	-4028
▁disapp	-4029
▁measure	-4030
▁reflect	-4031
▁department	-4032
▁profession	-4033
▁Hel	-4034
▁knew	-4035
▁entry	-4036
▁talking	-4037
▁appropri	-4038
▁Rob	-4039
▁Sam	-4040
▁Sand	-4041
▁acqu	-4042
▁demon	-4043
▁posts	-4044
ulations	-4045
▁Central	-4046
▁England	-4047
amic	-4048
ying	-4049
▁Sum	-4050
▁Play	-4051
▁farm	-4052
▁fully	-4053
▁scene	-4054
▁passed	-4055
▁physical	-4056
▁afternoon	-4057
▁enh	-4058
▁fem	-4059
nThat	-4060
▁felt	-4061
▁drink	-4062
▁consist	-4063
\",	-4064
omin	-4065
▁prec	-4066
▁Network	-4067
▁feeling	-4068
alls	-4069
with	-4070
▁Cap	-4071
olute	-4072
▁ban	-4073
force	-4074
▁clot	-4075
▁Market	-4076
▁followed	-4077
ki	-4078
ENT	-4079
▁27	-4080
____	-4081
▁Carol	-4082
▁guess	-4083
▁indic	-4084
▁names	-4085
▁winning	-4086
ka	-4087
▁Sy	-4088
ette	-4089
ucky	-4090
▁Nov	-4091
▁butter	-4092
▁camera	-4093
▁thanks	-4094
lastname	-4095
▁considered	-4096
ifts	-4097
itect	-4098
▁inform	-4099
▁brother	-4100
▁culture	-4101
4\	-4102
If	-4103
aled	-4104
annel	-4105
▁born	-4106
▁colors	-4107
▁expert	-4108
▁capital	-4109
▁completed	-4110
▁Blue	-4111
▁Power	-4112
▁force	-4113
▁adding	-4114
▁analysis	-4115
▁effective	-4116
BS	-4117
oms	-4118
▁Whe	-4119
▁Matt	-4120
▁legisl	-4121
▁Product	-4122
▁$2	-4123
▁Bank	-4124
▁thank	-4125
▁Valley	-4126
▁models	-4127
▁convers	-4128
▁hundred	-4129
▁spending	-4130
▁challenge	-4131
-9	-4132
itar	-4133
▁Team	-4134
▁Work	-4135
▁gall	-4136
▁gone	-4137
▁pool	-4138
▁den	-4139
▁exerc	-4140
▁scored	-4141
▁slight	-4142
▁Christian	-4143
free	-4144
▁Cup	-4145
▁prot	-4146
icious	-4147
▁communities	-4148
met	-4149
▁Ben	-4150
▁Water	-4151
Cl	-4152
no	-4153
ffee	-4154
iled	-4155
▁Louis	-4156
▁driver	-4157
▁replace	-4158
ini	-4159
ros	-4160
nFrom	-4161
▁trou	-4162
lements	-4163
▁devices	-4164
▁ST	-4165
▁pm	-4166
ideo	-4167
▁Hum	-4168
▁Use	-4169
eared	-4170
itors	-4171
▁Other	-4172
▁campus	-4173
▁fourth	-4174
▁launch	-4175
▁powerful	-4176
▁yesterday	-4177
ils	-4178
▁2,	-4179
▁NY	-4180
▁Sil	-4181
▁Food	-4182
▁Wood	-4183
▁onto	-4184
▁Foundation	-4185
▁Ber	-4186
▁Mad	-4187
▁pair	-4188
▁occas	-4189
▁surround	-4190
FL	-4191
nBe	-4192
▁Each	-4193
▁epis	-4194
▁fant	-4195
▁voice	-4196
▁conven	-4197
▁selected	-4198
ails	-4199
▁Over	-4200
istics	-4201
▁Virgin	-4202
▁pen	-4203
nLast	-4204
▁basis	-4205
▁relig	-4206
▁spons	-4207
▁killed	-4208
▁reduce	-4209
▁partner	-4210
▁welcome	-4211
▁articles	-4212
▁Australia	-4213
gen	-4214
pts	-4215
iest	-4216
▁adjust	-4217
▁closed	-4218
▁investment	-4219
▁requirements	-4220
What	-4221
mine	-4222
▁map	-4223
▁Medic	-4224
▁bought	-4225
▁demand	-4226
▁famous	-4227
▁standards	-4228
▁individuals	-4229
MS	-4230
igan	-4231
craft	-4232
▁Game	-4233
▁Week	-4234
▁alone	-4235
▁radio	-4236
▁stick	-4237
▁Commit	-4238
▁client	-4239
▁remain	-4240
▁covered	-4241
▁increasing	-4242
REE	-4243
▁fa	-4244
▁cash	-4245
▁calls	-4246
▁figure	-4247
▁British	-4248
▁appoint	-4249
ournament	-4250
▁restaurant	-4251
IG	-4252
Sh	-4253
▁CD	-4254
▁ice	-4255
pping	-4256
▁Alex	-4257
▁girls	-4258
▁Development	-4259
MA	-4260
▁fol	-4261
▁tips	-4262
▁effects	-4263
▁er	-4264
aven	-4265
▁197	-4266
▁Det	-4267
▁clin	-4268
▁outd	-4269
▁knows	-4270
▁talent	-4271
▁reviews	-4272
▁setting	-4273
▁Div	-4274
antly	-4275
▁Even	-4276
▁views	-4277
▁Special	-4278
▁updated	-4279
CH	-4280
ij	-4281
▁PR	-4282
▁ath	-4283
▁Wall	-4284
▁"|	-4285
▁29	-4286
▁3.	-4287
berg	-4288
nNow	-4289
▁Bur	-4290
▁decor	-4291
▁truly	-4292
▁spread	-4293
▁leaving	-4294
▁neighbor	-4295
▁Management	-4296
cIt	-4297
ken	-4298
▁UN	-4299
▁Arch	-4300
▁bask	-4301
▁wouldn	-4302
8,	-4303
CE	-4304
PA	-4305
▁max	-4306
▁poll	-4307
▁occur	-4308
▁charges	-4309
▁definitely	-4310
▁Wil	-4311
▁Town	-4312
▁kept	-4313
active	-4314
▁Chris	-4315
▁frequ	-4316
▁suppl	-4317
▁yards	-4318
▁notice	-4319
▁Johnson	-4320
▁watching	-4321
▁80	-4322
rowd	-4323
ences	-4324
▁poor	-4325
illage	-4326
▁basic	-4327
▁George	-4328
▁secret	-4329
▁instruct	-4330
SA	-4331
gl	-4332
rd	-4333
agon	-4334
care	-4335
▁jump	-4336
▁kick	-4337
▁demonstr	-4338
▁presented	-4339
igned	-4340
▁older	-4341
▁Online	-4342
▁although	-4343
▁transport	-4344
IA	-4345
▁u	-4346
▁guide	-4347
Qu	-4348
nPro	-4349
▁Let	-4350
▁Project	-4351
encies	-4352
▁opened	-4353
▁toward	-4354
▁characters	-4355
▁Love	-4356
▁View	-4357
▁cast	-4358
▁path	-4359
▁Scott	-4360
▁graph	-4361
▁classes	-4362
▁session	-4363
▁solutions	-4364
oop	-4365
nAcc	-4366
▁bath	-4367
▁defense	-4368
imb	-4369
iny	-4370
▁mis	-4371
▁Card	-4372
atures	-4373
▁recip	-4374
▁Boston	-4375
▁Spring	-4376
standing	-4377
▁certainly	-4378
▁thousands	-4379
Re	-4380
iated	-4381
orter	-4382
▁suit	-4383
▁instit	-4384
▁strugg	-4385
▁victory	-4386
▁70	-4387
▁po	-4388
lymp	-4389
nded	-4390
▁chem	-4391
▁liter	-4392
nCopyright	-4393
▁Ver	-4394
incip	-4395
uries	-4396
▁rank	-4397
▁catch	-4398
▁damage	-4399
▁discussion	-4400
rie	-4401
▁Mal	-4402
▁Saf	-4403
▁fat	-4404
▁rad	-4405
pects	-4406
▁winner	-4407
▁mission	-4408
▁firstname	-4409
hot	-4410
▁$3	-4411
tain	-4412
▁Ari	-4413
unched	-4414
▁workers	-4415
▁contains	-4416
▁password	-4417
▁background	-4418
▁registered	-4419
2122	-4420
▁Grand	-4421
▁Rights	-4422
▁assess	-4423
▁batter	-4424
▁compon	-4425
atically	-4426
▁excited	-4427
▁continues	-4428
▁facilities	-4429
win	-4430
fast	-4431
▁egg	-4432
ulate	-4433
▁adop	-4434
▁drop	-4435
▁salt	-4436
▁Light	-4437
▁behav	-4438
istration	-4439
▁advantage	-4440
cher	-4441
▁Ter	-4442
▁solid	-4443
▁Robert	-4444
▁seeing	-4445
▁updates	-4446
▁technical	-4447
▁35	-4448
life	-4449
▁Hotel	-4450
▁heavy	-4451
▁train	-4452
▁recipe	-4453
▁initial	-4454
▁machine	-4455
▁traffic	-4456
▁warrant	-4457
▁vs	-4458
earn	-4459
nGet	-4460
▁Hill	-4461
▁lack	-4462
▁Enter	-4463
▁supply	-4464
ari	-4465
rab	-4466
▁Bob	-4467
inese	-4468
▁eval	-4469
ection	-4470
▁2011\	-4471
▁Library	-4472
▁schedule	-4473
▁increased	-4474
IL	-4475
xx	-4476
miss	-4477
▁Bet	-4478
▁sem	-4479
nYour	-4480
ocked	-4481
unately	-4482
▁league	-4483
▁finding	-4484
▁waiting	-4485
▁internet	-4486
▁Microsoft	-4487
▁dedicated	-4488
My	-4489
ulty	-4490
▁Atl	-4491
ously	-4492
▁dang	-4493
▁ingred	-4494
▁leader	-4495
▁placed	-4496
▁ID	-4497
alog	-4498
▁Many	-4499
ologies	-4500
▁Senate	-4501
▁dinner	-4502
▁prefer	-4503
▁coverage	-4504
▁Committee	-4505
ishes	-4506
nClick	-4507
▁(2	-4508
ustr	-4509
lands	-4510
▁earn	-4511
▁fell	-4512
▁Frank	-4513
▁cream	-4514
▁collabor	-4515
▁register	-4516
▁particularly	-4517
▁funds	-4518
▁Museum	-4519
▁caused	-4520
▁happens	-4521
▁creative	-4522
95	-4523
▁OF	-4524
place	-4525
works	-4526
▁battle	-4527
▁memory	-4528
▁animals	-4529
▁Technology	-4530
gal	-4531
edia	-4532
omew	-4533
vere	-4534
antic	-4535
▁tables	-4536
▁continu	-4537
▁library	-4538
▁connection	-4539
8\	-4540
hem	-4541
ties	-4542
▁Fil	-4543
▁Que	-4544
▁2000	-4545
▁Cath	-4546
▁forget	-4547
▁starts	-4548
▁awesome	-4549
▁meaning	-4550
▁Fore	-4551
urrent	-4552
▁agency	-4553
▁guests	-4554
▁television	-4555
▁IT	-4556
reek	-4557
▁church	-4558
dom	-4559
bout	-4560
▁cru	-4561
▁sand	-4562
▁Olymp	-4563
▁shall	-4564
orthern	-4565
▁Series	-4566
▁reasons	-4567
32	-4568
nEx	-4569
odes	-4570
▁196	-4571
▁Mass	-4572
▁pros	-4573
▁rare	-4574
▁notes	-4575
▁defend	-4576
▁monitor	-4577
▁existing	-4578
▁returned	-4579
cel	-4580
isher	-4581
istan	-4582
▁cars	-4583
▁unit	-4584
▁crowd	-4585
▁produce	-4586
▁towards	-4587
but	-4588
right	-4589
etball	-4590
▁peace	-4591
▁determin	-4592
▁exciting	-4593
▁environmental	-4594
▁Why	-4595
▁Sports	-4596
▁artist	-4597
▁fabric	-4598
▁orders	-4599
▁strateg	-4600
▁essential	-4601
\".	-4602
oyal	-4603
rive	-4604
orney	-4605
▁Like	-4606
porary	-4607
▁master	-4608
▁extremely	-4609
▁scheduled	-4610
oving	-4611
▁showed	-4612
LA	-4613
obe	-4614
▁Ill	-4615
▁Ins	-4616
▁kid	-4617
water	-4618
▁Call	-4619
▁fish	-4620
▁Today	-4621
▁shoes	-4622
▁purpose	-4623
▁testing	-4624
nf	-4625
▁CA	-4626
bert	-4627
imal	-4628
aling	-4629
▁...\	-4630
ulated	-4631
▁Offic	-4632
▁whatever	-4633
▁Conference	-4634
▁ur	-4635
kins	-4636
ords	-4637
▁Tor	-4638
▁shel	-4639
▁Science	-4640
▁learned	-4641
▁Americans	-4642
IR	-4643
LC	-4644
kl	-4645
-10	-4646
het	-4647
ola	-4648
cean	-4649
nShe	-4650
▁fill	-4651
▁songs	-4652
▁Custom	-4653
▁injury	-4654
▁secure	-4655
▁Medical	-4656
▁readers	-4657
▁showing	-4658
▁shooting	-4659
▁continued	-4660
▁manufacturer	-4661
▁HD	-4662
▁Ty	-4663
▁Att	-4664
riage	-4665
▁Back	-4666
▁Long	-4667
▁shut	-4668
▁Georg	-4669
▁Union	-4670
▁civil	-4671
pective	-4672
▁0.	-4673
▁fee	-4674
▁sty	-4675
▁weap	-4676
unning	-4677
▁Award	-4678
▁steps	-4679
▁throw	-4680
▁bright	-4681
▁incred	-4682
▁advance	-4683
▁keeping	-4684
▁obvious	-4685
▁absolute	-4686
▁transfer	-4687
▁educational	-4688
cS	-4689
roy	-4690
2012	-4691
nNot	-4692
vant	-4693
▁emb	-4694
▁appears	-4695
▁experts	-4696
▁records	-4697
▁database	-4698
▁comfortable	-4699
umber	-4700
▁plenty	-4701
▁street	-4702
▁Society	-4703
▁patient	-4704
abet	-4705
▁scr	-4706
ooper	-4707
iences	-4708
▁artists	-4709
▁kitchen	-4710
▁serving	-4711
▁operating	-4712
▁developing	-4713
kn	-4714
burg	-4715
west	-4716
▁movies	-4717
▁status	-4718
▁window	-4719
▁facility	-4720
▁requires	-4721
▁Def	-4722
▁ride	-4723
▁rout	-4724
ifying	-4725
▁novel	-4726
▁trial	-4727
▁primary	-4728
▁remains	-4729
▁evidence	-4730
▁documents	-4731
▁RE	-4732
▁500	-4733
▁Mer	-4734
▁fif	-4735
icing	-4736
unior	-4737
▁breat	-4738
▁sport	-4739
▁tough	-4740
▁county	-4741
▁Android	-4742
▁charged	-4743
▁journal	-4744
▁district	-4745
For	-4746
▁|\	-4747
ship	-4748
▁Tim	-4749
ograp	-4750
▁Find	-4751
▁Form	-4752
▁cris	-4753
▁brief	-4754
▁forms	-4755
irection	-4756
▁understanding	-4757
77	-4758
uty	-4759
▁ON	-4760
inet	-4761
▁DVD	-4762
oices	-4763
▁Kore	-4764
▁topic	-4765
▁corner	-4766
▁produced	-4767
▁appropriate	-4768
▁veter	-4769
▁Social	-4770
▁friendly	-4771
▁protection	-4772
nUn	-4773
osen	-4774
▁Jud	-4775
ading	-4776
olars	-4777
▁Jeff	-4778
▁citiz	-4779
▁Family	-4780
▁useful	-4781
▁Journal	-4782
▁Hospital	-4783
6\	-4784
oos	-4785
▁TO	-4786
▁sch	-4787
▁mill	-4788
▁rich	-4789
rehens	-4790
ampionship	-4791
EW	-4792
▁Haw	-4793
▁Ret	-4794
ansas	-4795
▁Ohio	-4796
▁brown	-4797
▁approx	-4798
▁perhaps	-4799
▁participate	-4800
65	-4801
ga	-4802
azz	-4803
uce	-4804
▁Ham	-4805
overy	-4806
▁2012,	-4807
▁Under	-4808
▁raise	-4809
▁satis	-4810
▁medium	-4811
▁remove	-4812
▁smaller	-4813
As	-4814
nh	-4815
ero	-4816
▁Ol	-4817
oles	-4818
ownt	-4819
▁Boy	-4820
▁bird	-4821
lished	-4822
▁estim	-4823
▁propos	-4824
▁reached	-4825
▁prepared	-4826
▁agreement	-4827
▁locations	-4828
ena	-4829
kin	-4830
term	-4831
▁Two	-4832
▁Fort	-4833
▁joined	-4834
▁contest	-4835
▁1/2	-4836
ersey	-4837
▁Blog	-4838
▁label	-4839
▁shape	-4840
▁Chinese	-4841
▁storage	-4842
▁academic	-4843
uzz	-4844
cell	-4845
▁Gal	-4846
▁prin	-4847
▁raised	-4848
▁square	-4849
▁category	-4850
▁featured	-4851
▁magazine	-4852
▁teaching	-4853
▁NC	-4854
aked	-4855
ania	-4856
gery	-4857
nNew	-4858
▁fav	-4859
asure	-4860
ategy	-4861
▁Main	-4862
▁chief	-4863
▁limit	-4864
▁Thomas	-4865
▁spirit	-4866
▁advanced	-4867
nAccording	-4868
▁chocolate	-4869
otten	-4870
▁Clin	-4871
▁gain	-4872
▁meant	-4873
▁smooth	-4874
▁compared	-4875
▁AP	-4876
▁Jo	-4877
arge	-4878
▁guid	-4879
▁remind	-4880
▁studies	-4881
▁strength	-4882
▁operations	-4883
zen	-4884
ennis	-4885
▁ended	-4886
▁speak	-4887
▁storm	-4888
▁govern	-4889
▁selling	-4890
▁sources	-4891
\\	-4892
nto	-4893
rick	-4894
.\""}	-4895
point	-4896
▁Women	-4897
▁grant	-4898
▁stars	-4899
▁Report	-4900
▁Virginia	-4901
▁combined	-4902
▁assistance	-4903
ipl	-4904
▁McC	-4905
icted	-4906
▁afford	-4907
▁earned	-4908
▁income	-4909
▁methods	-4910
▁electric	-4911
SU	-4912
:"}	-4913
ita	-4914
▁Hy	-4915
itude	-4916
▁scen	-4917
▁wire	-4918
▁north	-4919
amin	-4920
▁Old	-4921
▁upgr	-4922
▁leaves	-4923
▁manage	-4924
▁temperature	-4925
88	-4926
cks	-4927
▁Who	-4928
▁thr	-4929
while	-4930
▁mount	-4931
▁surface	-4932
cB	-4933
anda	-4934
▁Nor	-4935
ushed	-4936
▁FREE	-4937
osition	-4938
▁editor	-4939
▁Jackson	-4940
▁sustain	-4941
▁wedding	-4942
▁regarding	-4943
ev	-4944
asp	-4945
acity	-4946
nThese	-4947
▁Charl	-4948
▁Jones	-4949
▁seconds	-4950
▁becoming	-4951
▁vehicles	-4952
pan	-4953
ctors	-4954
▁busy	-4955
▁central	-4956
▁associated	-4957
44	-4958
dy	-4959
wo	-4960
chan	-4961
▁Log	-4962
▁ran	-4963
▁Only	-4964
▁cable	-4965
TM	-4966
ucle	-4967
night	-4968
▁Sign	-4969
▁virt	-4970
▁Since	-4971
▁Stand	-4972
▁coffee	-4973
▁funding	-4974
▁changing	-4975
▁critical	-4976
ula	-4977
▁Di	-4978
away	-4979
▁Dou	-4980
▁Mur	-4981
▁Mus	-4982
▁har	-4983
nJust	-4984
▁plays	-4985
▁relax	-4986
▁parking	-4987
22	-4988
UR	-4989
ht	-4990
▁ju	-4991
date	-4992
mond	-4993
▁cere	-4994
▁slightly	-4995
nMay	-4996
ocket	-4997
▁committed	-4998
▁otherwise	-4999
▁Republican	-5000
▁Joe	-5001
▁100%	-5002
▁bowl	-5003
▁lose	-5004
▁error	-5005
▁south	-5006
▁tight	-5007
▁Mexico	-5008
▁format	-5009
▁stores	-5010
▁putting	-5011
▁determine	-5012
▁experienced	-5013
nDo	-5014
inch	-5015
▁Pac	-5016
nCont	-5017
osure	-5018
▁rooms	-5019
▁Martin	-5020
▁previously	-5021
ano	-5022
ato	-5023
icip	-5024
▁Penn	-5025
▁diagn	-5026
▁missing	-5027
ius	-5028
ales	-5029
ademy	-5030
▁motor	-5031
▁entertainment	-5032
▁administration	-5033
top	-5034
▁Win	-5035
▁rap	-5036
▁polic	-5037
▁youth	-5038
▁designs	-5039
'\	-5040
??	-5041
NA	-5042
▁$5	-5043
▁3,	-5044
eless	-5045
nThey	-5046
▁Once	-5047
▁Sing	-5048
▁swim	-5049
iverse	-5050
▁Exper	-5051
▁somew	-5052
▁spokes	-5053
▁Profess	-5054
▁Richard	-5055
▁Make	-5056
▁fuel	-5057
▁opinion	-5058
▁sharing	-5059
▁resident	-5060
▁upcoming	-5061
hew	-5062
▁(3	-5063
▁sea	-5064
▁Jose	-5065
▁emot	-5066
▁micro	-5067
▁unless	-5068
▁Carolina	-5069
▁appeared	-5070
▁audience	-5071
▁visitors	-5072
Don	-5073
▁2005	-5074
▁ideal	-5075
▁multi	-5076
▁People	-5077
▁adults	-5078
▁brings	-5079
rehensive	-5080
▁Security	-5081
▁alternative	-5082
np	-5083
nChe	-5084
going	-5085
▁alle	-5086
▁menu	-5087
▁pregn	-5088
▁actual	-5089
▁server	-5090
▁balance	-5091
▁willing	-5092
▁launched	-5093
▁professionals	-5094
9\	-5095
semb	-5096
ellig	-5097
▁flex	-5098
▁repe	-5099
▁tele	-5100
▁adult	-5101
▁guest	-5102
▁stress	-5103
▁browser	-5104
▁profile	-5105
▁allowing	-5106
nin	-5107
▁Aud	-5108
▁Dig	-5109
▁sav	-5110
▁van	-5111
nSome	-5112
▁Head	-5113
▁Real	-5114
▁mist	-5115
lywood	-5116
▁population	-5117
UT	-5118
oup	-5119
ste	-5120
▁Jew	-5121
▁tim	-5122
▁boys	-5123
ilding	-5124
ivered	-5125
▁spect	-5126
▁advent	-5127
▁caught	-5128
▁licens	-5129
▁sounds	-5130
▁confidence	-5131
▁independent	-5132
ait	-5133
atre	-5134
zona	-5135
▁(19	-5136
▁Arts	-5137
▁dogs	-5138
airman	-5139
▁buying	-5140
▁Georgia	-5141
▁concept	-5142
45	-5143
▁"-	-5144
icon	-5145
▁rid	-5146
▁List	-5147
enance	-5148
iminal	-5149
▁deals	-5150
▁Because	-5151
▁century	-5152
▁concerns	-5153
▁detailed	-5154
▁leadership	-5155
▁ingredients	-5156
▁<	-5157
uke	-5158
When	-5159
▁colle	-5160
▁hearing	-5161
▁executive	-5162
fr	-5163
▁ir	-5164
▁CEO	-5165
▁arm	-5166
▁About	-5167
▁sister	-5168
▁enjoyed	-5169
▁managed	-5170
▁princip	-5171
▁birthday	-5172
▁corporate	-5173
▁efficient	-5174
▁challenges	-5175
otes	-5176
under	-5177
▁sets	-5178
▁maintain	-5179
pet	-5180
▁esc	-5181
▁Chief	-5182
▁brain	-5183
arently	-5184
▁asking	-5185
▁athlet	-5186
▁filled	-5187
FC	-5188
Com	-5189
fol	-5190
arsh	-5191
hand	-5192
eline	-5193
secut	-5194
▁calc	-5195
▁honor	-5196
▁Secret	-5197
▁reality	-5198
▁Catholic	-5199
▁websites	-5200
▁direction	-5201
▁established	-5202
.00	-5203
▁31	-5204
▁IP	-5205
sequ	-5206
▁Men	-5207
reens	-5208
▁decide	-5209
▁estate	-5210
▁shared	-5211
Pro	-5212
▁aim	-5213
▁Ryan	-5214
▁gear	-5215
▁harm	-5216
▁info	-5217
▁Radio	-5218
▁faith	-5219
▁psych	-5220
▁listen	-5221
▁proced	-5222
▁separate	-5223
▁photograph	-5224
/0	-5225
irts	-5226
▁AND	-5227
▁bac	-5228
inary	-5229
▁flat	-5230
▁hits	-5231
▁ring	-5232
ourney	-5233
▁dance	-5234
▁draft	-5235
▁initi	-5236
ocation	-5237
▁station	-5238
▁exercise	-5239
▁purchased	-5240
);	-5241
lets	-5242
▁twe	-5243
ahoma	-5244
oking	-5245
▁Full	-5246
▁wearing	-5247
▁Children	-5248
▁structure	-5249
upp	-5250
▁Prote	-5251
▁helpful	-5252
▁relative	-5253
▁architect	-5254
PR	-5255
obs	-5256
ighter	-5257
▁earth	-5258
▁Engine	-5259
▁animal	-5260
▁researc	-5261
▁Southern	-5262
▁controll	-5263
▁emergency	-5264
▁remaining	-5265
23	-5266
▁Sher	-5267
▁diet	-5268
▁sequ	-5269
▁Africa	-5270
▁passion	-5271
▁teacher	-5272
▁Festival	-5273
fortunately	-5274
▁boo	-5275
▁flu	-5276
ician	-5277
▁Vict	-5278
▁Forum	-5279
▁inches	-5280
▁dollars	-5281
▁greater	-5282
▁officer	-5283
▁discover	-5284
OD	-5285
rs	-5286
vy	-5287
list	-5288
part	-5289
▁tro	-5290
rowse	-5291
icians	-5292
▁panel	-5293
▁degrees	-5294
▁approved	-5295
▁numerous	-5296
TS	-5297
pat	-5298
▁Lat	-5299
▁Net	-5300
iture	-5301
nergy	-5302
▁Take	-5303
itness	-5304
▁twice	-5305
▁survey	-5306
▁despite	-5307
▁species	-5308
▁accident	-5309
▁subscrib	-5310
▁commission	-5311
100	-5312
▁Tre	-5313
▁bra	-5314
There	-5315
▁furn	-5316
▁apart	-5317
▁Manager	-5318
OV	-5319
lim	-5320
▁rat	-5321
rooms	-5322
▁Fair	-5323
▁Fund	-5324
▁Next	-5325
▁argu	-5326
▁milk	-5327
▁Search	-5328
▁beauty	-5329
▁markets	-5330
▁walking	-5331
▁rom	-5332
nding	-5333
▁Last	-5334
klahoma	-5335
▁Access	-5336
▁Columb	-5337
▁France	-5338
▁exclusive	-5339
IF	-5340
▁Die	-5341
▁Tur	-5342
▁rob	-5343
▁Girl	-5344
▁fold	-5345
▁claims	-5346
▁Federal	-5347
▁payment	-5348
▁tonight	-5349
abilities	-5350
▁movement	-5351
▁teachers	-5352
▁Bud	-5353
▁NOT	-5354
ublished	-5355
▁calling	-5356
▁consumers	-5357
▁investigation	-5358
iser	-5359
▁Den	-5360
▁Elect	-5361
▁Peter	-5362
▁accommod	-5363
▁policies	-5364
▁decisions	-5365
▁highlight	-5366
▁worldwide	-5367
ni	-5368
mont	-5369
▁Jul	-5370
▁Mat	-5371
usion	-5372
▁gifts	-5373
▁worry	-5374
▁Contact	-5375
▁exchange	-5376
▁copyright	-5377
▁4.	-5378
oute	-5379
▁Pan	-5380
▁shots	-5381
▁topics	-5382
▁Italian	-5383
▁accompl	-5384
▁episode	-5385
▁married	-5386
▁tomorrow	-5387
agr	-5388
▁Id	-5389
otic	-5390
▁spl	-5391
nRead	-5392
▁Have	-5393
▁Page	-5394
▁seat	-5395
▁Night	-5396
▁lunch	-5397
▁stret	-5398
▁veget	-5399
▁parent	-5400
ferences	-5401
▁Connect	-5402
▁explore	-5403
▁Download	-5404
▁combination	-5405
27	-5406
.|\	-5407
nel	-5408
▁4,	-5409
▁Way	-5410
estic	-5411
▁tree	-5412
▁Earth	-5413
▁intended	-5414
>>	-5415
razy	-5416
ribe	-5417
▁Fun	-5418
which	-5419
▁films	-5420
▁minor	-5421
▁tests	-5422
▁missed	-5423
▁speech	-5424
-200	-5425
▁Mel	-5426
atoes	-5427
▁Games	-5428
▁begins	-5429
▁eating	-5430
▁suspect	-5431
▁Francisco	-5432
No	-5433
TH	-5434
nth	-5435
▁IS	-5436
onym	-5437
▁cas	-5438
cient	-5439
known	-5440
▁tast	-5441
ushing	-5442
▁index	-5443
igation	-5444
▁promote	-5445
▁experiences	-5446
85	-5447
Al	-5448
een	-5449
hop	-5450
nAdd	-5451
▁units	-5452
▁submit	-5453
▁Arizona	-5454
▁visiting	-5455
):	-5456
gent	-5457
▁edge	-5458
▁audio	-5459
▁Western	-5460
▁chicken	-5461
▁society	-5462
ye	-5463
aded	-5464
cles	-5465
▁Jes	-5466
▁mur	-5467
iques	-5468
▁labor	-5469
▁owned	-5470
▁theme	-5471
owntown	-5472
▁courses	-5473
▁seeking	-5474
▁practices	-5475
▁neighborhood	-5476
iat	-5477
ello	-5478
iami	-5479
▁sup	-5480
ulous	-5481
▁2011,	-5482
▁waste	-5483
▁losing	-5484
▁Academy	-5485
▁counter	-5486
▁consumer	-5487
▁comprehensive	-5488
▁responsibility	-5489
▁MP	-5490
oors	-5491
ucks	-5492
▁sides	-5493
▁History	-5494
▁injuries	-5495
▁installed	-5496
▁accessories	-5497
EM	-5498
bre	-5499
lee	-5500
mes	-5501
\".\	-5502
▁gay	-5503
▁defe	-5504
▁sexual	-5505
▁arrange	-5506
▁majority	-5507
▁delivered	-5508
▁featuring	-5509
▁operation	-5510
35	-5511
Bl	-5512
nAd	-5513
oted	-5514
▁Tour	-5515
▁crew	-5516
▁iPad	-5517
season	-5518
▁cities	-5519
▁Michigan	-5520
▁familiar	-5521
DF	-5522
GB	-5523
ca	-5524
hy	-5525
cont	-5526
iner	-5527
▁Lee	-5528
▁Pay	-5529
uable	-5530
▁Gall	-5531
▁bike	-5532
astern	-5533
profit	-5534
▁Field	-5535
▁thick	-5536
essions	-5537
iration	-5538
▁houses	-5539
▁Administr	-5540
▁commitment	-5541
CA	-5542
izz	-5543
rid	-5544
ups	-5545
|"}	-5546
osis	-5547
▁Cam	-5548
▁Rest	-5549
▁anti	-5550
▁neck	-5551
▁2010\	-5552
▁valid	-5553
▁transl	-5554
▁Division	-5555
▁hundreds	-5556
▁marriage	-5557
▁measures	-5558
awn	-5559
▁45	-5560
resp	-5561
weet	-5562
▁Sup	-5563
▁YOU	-5564
▁der	-5565
▁incor	-5566
▁depart	-5567
▁styles	-5568
▁plastic	-5569
▁Government	-5570
66	-5571
hi	-5572
ache	-5573
▁Hand	-5574
▁laws	-5575
actions	-5576
▁Little	-5577
▁strategy	-5578
▁encourage	-5579
arp	-5580
▁cro	-5581
▁Test	-5582
▁rise	-5583
ritten	-5584
▁bread	-5585
▁Jersey	-5586
▁failed	-5587
▁handle	-5588
▁extensive	-5589
▁generally	-5590
▁appearance	-5591
igr	-5592
ancer	-5593
▁Land	-5594
▁Lead	-5595
▁conv	-5596
▁Daily	-5597
▁frame	-5598
▁consid	-5599
▁inspired	-5600
▁permission	-5601
▁university	-5602
nm	-5603
▁Gar	-5604
▁eth	-5605
▁Bell	-5606
▁Their	-5607
▁chosen	-5608
▁honest	-5609
▁issued	-5610
▁foreign	-5611
▁hardware	-5612
▁recorded	-5613
Con	-5614
▁GM	-5615
nAny	-5616
▁End	-5617
▁crime	-5618
▁female	-5619
▁parties	-5620
SE	-5621
nAr	-5622
uit	-5623
aped	-5624
aver	-5625
▁Fed	-5626
▁oven	-5627
▁teen	-5628
nAbout	-5629
▁Party	-5630
▁mostly	-5631
▁becomes	-5632
▁baseball	-5633
▁bringing	-5634
oz	-5635
coh	-5636
▁Aff	-5637
▁row	-5638
▁mental	-5639
▁ticket	-5640
▁monthly	-5641
▁Colorado	-5642
▁arrested	-5643
▁designer	-5644
▁fantastic	-5645
CT	-5646
▁Jon	-5647
▁Lin	-5648
▁Squ	-5649
agers	-5650
▁Soft	-5651
▁Econom	-5652
ployment	-5653
▁officers	-5654
▁performed	-5655
▁restaurants	-5656
EE	-5657
Ex	-5658
UN	-5659
ias	-5660
rim	-5661
▁Fox	-5662
▁uns	-5663
aylor	-5664
nFind	-5665
▁Site	-5666
▁Wild	-5667
▁desk	-5668
▁tend	-5669
cluding	-5670
▁elements	-5671
▁committee	-5672
▁approximately	-5673
rad	-5674
oria	-5675
▁195	-5676
alled	-5677
▁Cast	-5678
▁Live	-5679
▁push	-5680
▁seemed	-5681
▁thread	-5682
▁focused	-5683
▁establish	-5684
nw	-5685
ya	-5686
ifer	-5687
▁Sar	-5688
▁Str	-5689
nAlso	-5690
▁rule	-5691
▁signs	-5692
▁surgery	-5693
▁anywhere	-5694
▁election	-5695
1)	-5696
anna	-5697
gend	-5698
▁Adv	-5699
▁Max	-5700
▁Mic	-5701
▁tab	-5702
lying	-5703
▁debt	-5704
▁plate	-5705
▁awards	-5706
▁plants	-5707
poration	-5708
▁arrived	-5709
▁discount	-5710
▁Environment	-5711
7\	-5712
ATE	-5713
bar	-5714
inct	-5715
▁sad	-5716
onsin	-5717
▁Carl	-5718
▁Pass	-5719
▁plug	-5720
▁beach	-5721
▁drugs	-5722
▁Master	-5723
▁picked	-5724
▁prison	-5725
isconsin	-5726
▁confirm	-5727
▁outdoor	-5728
BI	-5729
-12	-5730
uts	-5731
yard	-5732
▁Rev	-5733
▁hun	-5734
adian	-5735
endar	-5736
▁Pack	-5737
▁freed	-5738
▁appeal	-5739
▁brands	-5740
▁fields	-5741
▁invent	-5742
▁faculty	-5743
▁holding	-5744
▁offensive	-5745
▁receiving	-5746
bu	-5747
ker	-5748
▁Er	-5749
apes	-5750
oman	-5751
▁Fre	-5752
▁Its	-5753
▁Jenn	-5754
lights	-5755
▁taxes	-5756
▁cheese	-5757
▁garden	-5758
▁writer	-5759
▁answers	-5760
▁Minister	-5761
▁Mountain	-5762
▁behavior	-5763
▁occasion	-5764
ean	-5765
▁Dev	-5766
▁Inf	-5767
udden	-5768
terest	-5769
▁truth	-5770
▁pulled	-5771
▁council	-5772
▁posting	-5773
▁automatically	-5774
hab	-5775
▁AT	-5776
▁Ext	-5777
▁Far	-5778
▁aid	-5779
▁kill	-5780
▁Brand	-5781
▁Video	-5782
▁noted	-5783
▁refer	-5784
▁Middle	-5785
▁cooking	-5786
▁removed	-5787
▁citizens	-5788
▁identify	-5789
▁(5	-5790
▁mo	-5791
▁ven	-5792
▁Date	-5793
▁Oper	-5794
▁elig	-5795
▁Steve	-5796
▁Author	-5797
▁African	-5798
▁flowers	-5799
▁millions	-5800
▁resource	-5801
▁described	-5802
hus	-5803
arry	-5804
elly	-5805
eries	-5806
▁Bowl	-5807
▁task	-5808
iamond	-5809
orters	-5810
▁fifth	-5811
▁metal	-5812
▁newsp	-5813
▁Energy	-5814
▁switch	-5815
▁expensive	-5816
▁innovative	-5817
43	-5818
An	-5819
▁Box	-5820
ports	-5821
▁burn	-5822
nOther	-5823
▁holds	-5824
ersonal	-5825
▁flight	-5826
▁guitar	-5827
▁lights	-5828
▁powder	-5829
▁visual	-5830
▁revenue	-5831
▁provider	-5832
On	-5833
cM	-5834
aser	-5835
road	-5836
▁Ray	-5837
erves	-5838
icial	-5839
elines	-5840
▁Place	-5841
▁analy	-5842
▁craft	-5843
▁restr	-5844
▁tells	-5845
▁Daniel	-5846
▁Mobile	-5847
▁broken	-5848
▁mechan	-5849
▁pounds	-5850
▁shares	-5851
▁therap	-5852
▁distance	-5853
▁absolutely	-5854
▁advertising	-5855
col	-5856
▁Bo	-5857
▁12,	-5858
▁Cat	-5859
▁Ell	-5860
urban	-5861
▁pump	-5862
▁doubt	-5863
▁talks	-5864
▁truck	-5865
ictions	-5866
▁housing	-5867
▁imagine	-5868
▁sitting	-5869
▁Communic	-5870
▁capacity	-5871
how	-5872
iki	-5873
▁6,	-5874
▁sy	-5875
eria	-5876
game	-5877
▁Lim	-5878
▁rot	-5879
ender	-5880
ffect	-5881
iency	-5882
▁Young	-5883
▁hopes	-5884
▁nucle	-5885
▁covers	-5886
▁forces	-5887
▁relevant	-5888
▁installation	-5889
▁5,	-5890
look	-5891
▁15,	-5892
adium	-5893
allas	-5894
▁core	-5895
▁hang	-5896
▁vary	-5897
▁mouth	-5898
▁agreed	-5899
▁debate	-5900
▁alleged	-5901
▁clearly	-5902
▁Reserved	-5903
▁graduate	-5904
▁thoughts	-5905
▁specifically	-5906
cs	-5907
nPl	-5908
illy	-5909
nWhy	-5910
quar	-5911
▁dur	-5912
▁jew	-5913
▁mel	-5914
idays	-5915
▁Cook	-5916
▁cake	-5917
▁soph	-5918
▁steel	-5919
▁teach	-5920
▁contem	-5921
▁detect	-5922
▁reform	-5923
▁values	-5924
▁Although	-5925
▁confident	-5926
28	-5927
iro	-5928
ria	-5929
ario	-5930
azon	-5931
nDes	-5932
▁10,	-5933
▁300	-5934
abled	-5935
▁boot	-5936
▁cuts	-5937
▁forg	-5938
abetes	-5939
istant	-5940
▁Contin	-5941
▁forced	-5942
▁agencies	-5943
▁eventually	-5944
ycl	-5945
▁MS	-5946
nSee	-5947
▁Mid	-5948
▁cry	-5949
▁tun	-5950
merce	-5951
▁whom	-5952
nThanks	-5953
▁Invest	-5954
▁stopped	-5955
▁accurate	-5956
OC	-5957
▁ge	-5958
appy	-5959
iors	-5960
▁Inn	-5961
▁Low	-5962
▁vent	-5963
letter	-5964
▁Maybe	-5965
▁cells	-5966
▁funny	-5967
TA	-5968
can	-5969
umin	-5970
▁$10	-5971
▁16,	-5972
▁Equ	-5973
▁Tri	-5974
▁Yes	-5975
▁sam	-5976
▁wid	-5977
prise	-5978
▁Keep	-5979
▁Broad	-5980
▁Thank	-5981
▁guard	-5982
▁judge	-5983
merican	-5984
▁fellow	-5985
▁museum	-5986
▁greatest	-5987
▁Hollywood	-5988
▁researchers	-5989
RL	-5990
izza	-5991
▁unc	-5992
anche	-5993
▁Disc	-5994
▁Step	-5995
▁Diego	-5996
▁Romney	-5997
▁favour	-5998
▁instru	-5999
▁dropped	-6000
▁tournament	-6001
lyn	-6002
nEn	-6003
yer	-6004
▁3-	-6005
elry	-6006
▁Leg	-6007
▁NFL	-6008
inois	-6009
▁Asia	-6010
▁Cost	-6011
▁ends	-6012
▁situ	-6013
▁flood	-6014
ensions	-6015
▁bigger	-6016
ometimes	-6017
▁applied	-6018
▁prepare	-6019
▁basketball	-6020
▁properties	-6021
RI	-6022
fe	-6023
och	-6024
ylv	-6025
lete	-6026
rier	-6027
▁Veg	-6028
▁wal	-6029
▁jack	-6030
▁male	-6031
▁none	-6032
uction	-6033
▁evalu	-6034
▁native	-6035
▁sector	-6036
▁serves	-6037
▁ceremon	-6038
▁edition	-6039
▁Williams	-6040
▁delicious	-6041
▁generation	-6042
▁$4	-6043
real	-6044
▁Sus	-6045
nView	-6046
poses	-6047
redit	-6048
▁Plus	-6049
▁fees	-6050
▁mine	-6051
▁tack	-6052
▁Global	-6053
▁journey	-6054
▁Executive	-6055
▁celebrate	-6056
▁recommended	-6057
ml	-6058
ua	-6059
icit	-6060
▁Tit	-6061
▁bat	-6062
reate	-6063
▁Kenn	-6064
▁Nick	-6065
▁Walk	-6066
nCheck	-6067
▁dates	-6068
ression	-6069
▁Avenue	-6070
▁hoping	-6071
▁Australian	-6072
21	-6073
▁NAS	-6074
..."}	-6075
regon	-6076
▁bond	-6077
▁feels	-6078
▁fruit	-6079
▁drivers	-6080
▁returns	-6081
▁guarantee	-6082
kay	-6083
ogs	-6084
spe	-6085
▁Gra	-6086
▁Hun	-6087
▁hasn	-6088
▁Coast	-6089
▁Const	-6090
▁Price	-6091
▁advoc	-6092
▁doors	-6093
▁sauce	-6094
▁climate	-6095
▁cultural	-6096
▁presence	-6097
▁recognized	-6098
▁conversation	-6099
29	-6100
da	-6101
ien	-6102
iano	-6103
▁Bra	-6104
▁spr	-6105
▁yes	-6106
irmed	-6107
▁Tool	-6108
nHowever	-6109
▁license	-6110
▁maximum	-6111
▁planned	-6112
▁trouble	-6113
▁concerned	-6114
boy	-6115
kes	-6116
▁Ut	-6117
arly	-6118
ikes	-6119
▁Bas	-6120
▁vice	-6121
▁sympt	-6122
▁flavor	-6123
▁Charles	-6124
▁cutting	-6125
▁explain	-6126
▁trading	-6127
▁maintenance	-6128
eah	-6129
sey	-6130
uses	-6131
▁11,	-6132
▁14,	-6133
berry	-6134
lines	-6135
▁Data	-6136
▁Word	-6137
▁config	-6138
▁Control	-6139
▁Support	-6140
▁Oklahoma	-6141
▁chemical	-6142
▁scholars	-6143
▁According	-6144
▁supported	-6145
How	-6146
pon	-6147
▁36	-6148
▁Lt	-6149
----	-6150
foot	-6151
nDon	-6152
▁17,	-6153
▁lux	-6154
▁tow	-6155
▁Ford	-6156
▁arts	-6157
▁Cross	-6158
▁Human	-6159
▁stated	-6160
▁minimum	-6161
forcement	-6162
▁possibly	-6163
▁purposes	-6164
▁resolution	-6165
la	-6166
Our	-6167
▁Sat	-6168
▁rub	-6169
verse	-6170
ixture	-6171
▁Miami	-6172
▁cloud	-6173
▁Awards	-6174
▁carbon	-6175
▁rating	-6176
▁cookies	-6177
▁seasons	-6178
▁internal	-6179
▁supposed	-6180
800	-6181
aska	-6182
▁Opt	-6183
▁Pop	-6184
▁Tem	-6185
▁ast	-6186
▁die	-6187
aters	-6188
▁Room	-6189
estyle	-6190
▁Guide	-6191
▁Organ	-6192
▁optim	-6193
▁worse	-6194
▁During	-6195
▁lovely	-6196
▁coordin	-6197
▁regional	-6198
▁violence	-6199
▁buildings	-6200
▁components	-6201
ba	-6202
tra	-6203
▁Ros	-6204
▁tea	-6205
▁chat	-6206
ership	-6207
▁Paris	-6208
▁folks	-6209
▁volume	-6210
▁attacks	-6211
▁ordered	-6212
2)	-6213
DS	-6214
ERE	-6215
ERS	-6216
bury	-6217
▁Set	-6218
▁pal	-6219
cohol	-6220
erate	-6221
▁beer	-6222
▁dram	-6223
▁fear	-6224
▁golf	-6225
▁coast	-6226
▁baking	-6227
▁command	-6228
▁competitive	-6229
86	-6230
!!\	-6231
nMr	-6232
hent	-6233
▁nor	-6234
▁tag	-6235
enses	-6236
▁Hard	-6237
▁tail	-6238
ampion	-6239
▁liber	-6240
▁pitch	-6241
▁sizes	-6242
▁faster	-6243
▁delight	-6244
▁totally	-6245
▁improved	-6246
▁mentioned	-6247
▁religious	-6248
▁instructions	-6249
▁33	-6250
nSub	-6251
umes	-6252
▁Cub	-6253
aints	-6254
hered	-6255
idden	-6256
▁apps	-6257
▁blow	-6258
▁mode	-6259
▁mort	-6260
▁tall	-6261
nSince	-6262
▁Vegas	-6263
▁cheap	-6264
▁conce	-6265
▁flour	-6266
▁quiet	-6267
▁Taylor	-6268
▁entered	-6269
▁meetings	-6270
▁proposed	-6271
▁vacation	-6272
▁broadcast	-6273
▁perfectly	-6274
AY	-6275
New	-6276
tle	-6277
▁Jr	-6278
That	-6279
adel	-6280
nSte	-6281
▁ped	-6282
▁2004	-6283
▁Brad	-6284
▁Lind	-6285
▁Tech	-6286
▁cups	-6287
▁grew	-6288
▁ille	-6289
▁lock	-6290
▁trees	-6291
related	-6292
▁Follow	-6293
▁village	-6294
▁criminal	-6295
▁introduced	-6296
▁communication	-6297
rum	-6298
otal	-6299
▁18,	-6300
▁Hen	-6301
▁gro	-6302
▁Kent	-6303
▁Vers	-6304
isters	-6305
▁Quest	-6306
▁lived	-6307
▁Centre	-6308
▁Kansas	-6309
▁domain	-6310
▁gather	-6311
▁Japanese	-6312
▁messages	-6313
▁settings	-6314
▁Wisconsin	-6315
bro	-6316
owa	-6317
▁20,	-6318
arian	-6319
▁Expl	-6320
▁Foot	-6321
▁auth	-6322
▁pink	-6323
▁rough	-6324
▁weekly	-6325
▁offices	-6326
▁surprise	-6327
▁ce	-6328
▁du	-6329
iana	-6330
▁Son	-6331
▁hurt	-6332
▁iron	-6333
ickets	-6334
nFirst	-6335
▁Santa	-6336
▁grown	-6337
▁landsc	-6338
▁breakfast	-6339
idi	-6340
▁7,	-6341
▁Bi	-6342
▁Kat	-6343
▁Ram	-6344
▁fro	-6345
▁nav	-6346
▁Base	-6347
ansion	-6348
▁Drive	-6349
▁Staff	-6350
▁keeps	-6351
▁pepper	-6352
▁repair	-6353
▁sudden	-6354
▁realize	-6355
▁feedback	-6356
▁properly	-6357
▁supports	-6358
▁functions	-6359
▁outstanding	-6360
▁relationships	-6361
ora	-6362
▁32	-6363
▁FA	-6364
2010	-6365
acle	-6366
lock	-6367
▁ang	-6368
abama	-6369
ockey	-6370
▁Farm	-6371
▁corn	-6372
▁Trust	-6373
▁Works	-6374
▁leads	-6375
▁Dallas	-6376
▁yellow	-6377
iversary	-6378
▁Whether	-6379
▁conflic	-6380
▁reporting	-6381
▁transform	-6382
▁appreciate	-6383
▁originally	-6384
▁perspective	-6385
▁presentation	-6386
va	-6387
EST	-6388
▁SP	-6389
mary	-6390
suit	-6391
▁Hon	-6392
▁Pot	-6393
▁util	-6394
weight	-6395
▁2013,	-6396
▁agent	-6397
▁elimin	-6398
▁enthus	-6399
▁tracks	-6400
▁vision	-6401
▁freedom	-6402
▁downtown	-6403
▁extended	-6404
▁interests	-6405
▁CH	-6406
▁Eag	-6407
▁Kim	-6408
▁pit	-6409
inder	-6410
shire	-6411
▁Army	-6412
▁Both	-6413
▁mini	-6414
orough	-6415
▁crazy	-6416
▁filed	-6417
▁foods	-6418
▁negot	-6419
oration	-6420
▁univers	-6421
▁accounts	-6422
▁clothing	-6423
▁considering	-6424
▁registration	-6425
▁AR	-6426
▁ign	-6427
arrow	-6428
plete	-6429
uting	-6430
▁rand	-6431
▁Start	-6432
▁advis	-6433
▁facing	-6434
▁constit	-6435
▁printed	-6436
▁Illinois	-6437
▁accepted	-6438
▁supplies	-6439
▁depending	-6440
▁determined	-6441
▁75	-6442
▁MD	-6443
▁OR	-6444
inem	-6445
nRec	-6446
phas	-6447
▁30,	-6448
▁Bul	-6449
ashed	-6450
etime	-6451
▁Lord	-6452
▁seed	-6453
asters	-6454
▁Davis	-6455
▁Jesus	-6456
▁grade	-6457
▁lists	-6458
▁upper	-6459
▁compar	-6460
▁decades	-6461
▁windows	-6462
lementary	-6463
▁Magazine	-6464
▁festival	-6465
ailability	-6466
▁investors	-6467
▁discovered	-6468
PM	-6469
gage	-6470
▁Hom	-6471
▁Sea	-6472
▁Bush	-6473
▁Rose	-6474
istance	-6475
▁Policy	-6476
▁awareness	-6477
▁convenient	-6478
odge	-6479
pass	-6480
pson	-6481
▁Tig	-6482
▁Lady	-6483
▁hero	-6484
nToday	-6485
▁Store	-6486
▁contr	-6487
▁Friend	-6488
▁critic	-6489
▁Systems	-6490
▁fighting	-6491
▁historic	-6492
▁defensive	-6493
▁positions	-6494
▁legislation	-6495
.'	-6496
05	-6497
hat	-6498
More	-6499
cons	-6500
▁mir	-6501
Story	-6502
apped	-6503
yrics	-6504
▁Area	-6505
▁Harr	-6506
▁bare	-6507
▁dish	-6508
▁chain	-6509
▁rapid	-6510
▁Indust	-6511
▁random	-6512
▁Copyright	-6513
▁reference	-6514
gs	-6515
▁ec	-6516
nApp	-6517
ogue	-6518
▁13,	-6519
▁dyn	-6520
▁tut	-6521
▁unf	-6522
essed	-6523
▁Four	-6524
▁Orig	-6525
▁ages	-6526
▁seek	-6527
▁thus	-6528
▁Brian	-6529
▁Italy	-6530
▁trend	-6531
▁enhance	-6532
▁intellig	-6533
▁importance	-6534
▁distribution	-6535
alo	-6536
born	-6537
high	-6538
mosp	-6539
▁Bow	-6540
▁amb	-6541
▁Help	-6542
▁meal	-6543
▁poly	-6544
ouston	-6545
▁domin	-6546
▁laugh	-6547
▁turns	-6548
▁Andrew	-6549
▁Second	-6550
▁silver	-6551
▁figures	-6552
▁letters	-6553
▁searching	-6554
▁technologies	-6555
mar	-6556
nDr	-6557
nUs	-6558
▁CN	-6559
onna	-6560
▁Van	-6561
bsite	-6562
inals	-6563
rence	-6564
urric	-6565
▁bear	-6566
▁surf	-6567
▁thin	-6568
▁sorry	-6569
▁affected	-6570
▁recovery	-6571
▁surrounding	-6572
84	-6573
All	-6574
ican	-6575
irty	-6576
wear	-6577
amber	-6578
icket	-6579
▁cute	-6580
manent	-6581
▁faces	-6582
▁island	-6583
▁tradem	-6584
▁Digital	-6585
▁concern	-6586
▁telling	-6587
▁turning	-6588
▁division	-6589
▁revealed	-6590
▁valuable	-6591
▁connected	-6592
▁therefore	-6593
▁processing	-6594
!)	-6595
CS	-6596
nof	-6597
ran	-6598
aron	-6599
erts	-6600
▁194	-6601
▁21,	-6602
▁cra	-6603
oster	-6604
print	-6605
ounded	-6606
▁closer	-6607
▁rental	-6608
▁upload	-6609
▁Northern	-6610
▁Secretary	-6611
▁professor	-6612
▁electronic	-6613
▁employment	-6614
Ar	-6615
ili	-6616
nFr	-6617
nor	-6618
▁5.	-6619
host	-6620
▁Isl	-6621
burgh	-6622
▁Code	-6623
▁meat	-6624
uality	-6625
▁Dream	-6626
▁Smart	-6627
▁resol	-6628
▁Oregon	-6629
▁dining	-6630
▁reward	-6631
▁severe	-6632
▁attended	-6633
▁ourselves	-6634
▁partnership	-6635
LY	-6636
UM	-6637
aud	-6638
oga	-6639
▁Ken	-6640
nMost	-6641
▁rail	-6642
▁wins	-6643
ington	-6644
▁2010,	-6645
▁stretch	-6646
▁employee	-6647
▁apparently	-6648
By	-6649
iti	-6650
nIs	-6651
ista	-6652
rics	-6653
▁Ira	-6654
rical	-6655
▁Tenn	-6656
apping	-6657
ternal	-6658
▁joint	-6659
▁centre	-6660
▁Airport	-6661
▁Justice	-6662
▁actions	-6663
▁noticed	-6664
▁pleased	-6665
▁symptoms	-6666
▁candidates	-6667
EG	-6668
ala	-6669
non	-6670
omy	-6671
nMon	-6672
▁FOR	-6673
▁Rod	-6674
▁Sky	-6675
▁adm	-6676
uters	-6677
▁Golf	-6678
▁Join	-6679
▁glad	-6680
▁inch	-6681
▁delay	-6682
▁simpl	-6683
unction	-6684
▁profit	-6685
▁tested	-6686
▁Atlanta	-6687
▁Student	-6688
▁Canadian	-6689
▁dangerous	-6690
▁identified	-6691
▁incredible	-6692
LS	-6693
bol	-6694
▁OS	-6695
▁Sn	-6696
nRes	-6697
▁Lab	-6698
▁2003	-6699
▁Span	-6700
▁dial	-6701
▁boost	-6702
ication	-6703
ographic	-6704
▁analyst	-6705
▁organic	-6706
▁painting	-6707
▁regularly	-6708
▁volunteers	-6709
II	-6710
Is	-6711
TC	-6712
To	-6713
ILL	-6714
olit	-6715
page	-6716
phia	-6717
▁23,	-6718
▁Ash	-6719
▁ben	-6720
▁odd	-6721
▁Hope	-6722
▁Prem	-6723
aduate	-6724
▁Space	-6725
▁Summer	-6726
▁conver	-6727
▁stands	-6728
▁voters	-6729
▁Seattle	-6730
▁concert	-6731
▁weapons	-6732
▁Training	-6733
▁supporting	-6734
HS	-6735
fts	-6736
pty	-6737
ulf	-6738
wart	-6739
▁wet	-6740
claim	-6741
▁impl	-6742
▁luck	-6743
▁west	-6744
▁cycle	-6745
▁motiv	-6746
nFollow	-6747
▁Applic	-6748
▁paying	-6749
▁satisf	-6750
adelphia	-6751
▁battery	-6752
▁illustr	-6753
▁nuclear	-6754
▁premium	-6755
▁recipes	-6756
▁reduced	-6757
▁standing	-6758
▁foundation	-6759
CO	-6760
xy	-6761
aly	-6762
▁(4	-6763
utch	-6764
▁Bon	-6765
anges	-6766
rible	-6767
▁Fred	-6768
▁adds	-6769
▁auto	-6770
▁pray	-6771
▁renew	-6772
respond	-6773
▁victim	-6774
▁Through	-6775
▁mixture	-6776
▁addresses	-6777
▁influence	-6778
▁Republicans	-6779
▁authorities	-6780
▁participants	-6781
CD	-6782
kee	-6783
▁09	-6784
ella	-6785
ilty	-6786
ingu	-6787
ouch	-6788
▁27,	-6789
▁Ron	-6790
▁nom	-6791
▁pure	-6792
orable	-6793
scribe	-6794
▁Learn	-6795
▁abuse	-6796
▁usual	-6797
▁column	-6798
▁trends	-6799
▁unable	-6800
▁musical	-6801
▁playoff	-6802
▁examples	-6803
bo	-6804
car	-6805
ded	-6806
ext	-6807
nOr	-6808
▁08	-6809
▁FL	-6810
long	-6811
▁LLC	-6812
▁bon	-6813
▁pun	-6814
agues	-6815
enced	-6816
▁Mult	-6817
acking	-6818
▁Liber	-6819
▁mixed	-6820
▁strip	-6821
▁Safety	-6822
▁breast	-6823
▁Germany	-6824
▁drawing	-6825
▁invited	-6826
▁eligible	-6827
▁incident	-6828
▁versions	-6829
ava	-6830
oir	-6831
sen	-6832
keep	-6833
rate	-6834
▁22,	-6835
anged	-6836
nOver	-6837
▁Rand	-6838
▁arms	-6839
▁loves	-6840
▁emphas	-6841
▁height	-6842
▁Alabama	-6843
▁streets	-6844
▁Maryland	-6845
▁guarante	-6846
▁happening	-6847
▁photograp	-6848
▁percentage	-6849
3)	-6850
VER	-6851
▁48	-6852
▁Wi	-6853
case	-6854
nCon	-6855
rupt	-6856
▁CON	-6857
▁tur	-6858
▁wel	-6859
cycle	-6860
eller	-6861
power	-6862
▁Know	-6863
nesota	-6864
▁2009\	-6865
▁broke	-6866
▁input	-6867
eration	-6868
onymous	-6869
▁factors	-6870
▁herself	-6871
▁confirmed	-6872
▁suggested	-6873
▁impressive	-6874
ati	-6875
nQu	-6876
phy	-6877
▁Gen	-6878
▁Jay	-6879
gment	-6880
iscal	-6881
▁Iraq	-6882
▁bars	-6883
▁debut	-6884
▁route	-6885
▁scale	-6886
▁atmosp	-6887
▁reader	-6888
▁sample	-6889
▁studio	-6890
iability	-6891
▁aspects	-6892
▁choices	-6893
▁gallery	-6894
▁injured	-6895
▁victims	-6896
▁categories	-6897
▁membership	-6898
pons	-6899
▁400	-6900
▁Oak	-6901
▁Sav	-6902
▁vir	-6903
ATION	-6904
▁$100	-6905
▁Film	-6906
▁Shop	-6907
▁sick	-6908
intend	-6909
▁Using	-6910
▁Travel	-6911
▁causes	-6912
▁phones	-6913
▁failure	-6914
▁warranty	-6915
▁candidate	-6916
▁tradition	-6917
Pl	-6918
ban	-6919
▁(\	-6920
▁ET	-6921
With	-6922
ahoo	-6923
stra	-6924
▁Las	-6925
▁Mrs	-6926
ensus	-6927
▁rear	-6928
▁bound	-6929
▁flash	-6930
▁forest	-6931
▁franch	-6932
▁output	-6933
▁strike	-6934
missions	-6935
▁matches	-6936
▁furniture	-6937
▁processes	-6938
oil	-6939
▁.\	-6940
▁9,	-6941
▁LA	-6942
dale	-6943
▁pil	-6944
▁ris	-6945
-2013	-6946
▁Iowa	-6947
▁disp	-6948
▁icon	-6949
▁resc	-6950
▁sole	-6951
▁wash	-6952
reland	-6953
▁Local	-6954
▁Three	-6955
▁fixed	-6956
▁likes	-6957
▁merch	-6958
▁Silver	-6959
▁hosted	-6960
▁linked	-6961
▁titles	-6962
▁Pacific	-6963
▁leather	-6964
▁techniques	-6965
64	-6966
GA	-6967
▁07	-6968
ghan	-6969
nPre	-6970
▁Bru	-6971
▁Ltd	-6972
▁Own	-6973
▁joy	-6974
▁sew	-6975
▁tie	-6976
heast	-6977
ingly	-6978
▁boat	-6979
rition	-6980
▁Kevin	-6981
▁Motor	-6982
▁Those	-6983
▁worst	-6984
▁Jewish	-6985
▁crisis	-6986
▁massive	-6987
▁ongoing	-6988
▁typically	-6989
▁volunteer	-6990
▁scientific	-6991
HL	-6992
-19	-6993
nPr	-6994
▁03	-6995
▁Ro	-6996
athan	-6997
▁Prov	-6998
▁Sept	-6999
▁east	-7000
cludes	-7001
▁Korea	-7002
▁Where	-7003
▁sheet	-7004
▁spoke	-7005
▁blocks	-7006
▁colour	-7007
▁retire	-7008
▁walked	-7009
▁hosting	-7010
▁involve	-7011
▁passing	-7012
▁interior	-7013
▁industrial	-7014
▁manufacturing	-7015
nb	-7016
alty	-7017
obby	-7018
osit	-7019
cknow	-7020
ework	-7021
osite	-7022
▁hook	-7023
▁soul	-7024
ulture	-7025
▁Hills	-7026
▁nearby	-7027
▁struct	-7028
▁superv	-7029
▁treated	-7030
▁Anderson	-7031
▁sessions	-7032
▁conducted	-7033
▁surprised	-7034
▁significantly	-7035
sm	-7036
afe	-7037
▁CO	-7038
▁Ul	-7039
iece	-7040
orse	-7041
▁Mov	-7042
▁USB	-7043
uling	-7044
▁Iran	-7045
▁Note	-7046
▁Stat	-7047
▁flav	-7048
▁hell	-7049
▁ment	-7050
▁tank	-7051
cluded	-7052
▁Order	-7053
▁quant	-7054
▁junior	-7055
▁airport	-7056
▁younger	-7057
▁attorney	-7058
▁ceremony	-7059
▁everyday	-7060
▁Corporation	-7061
==	-7062
ls	-7063
run	-7064
zer	-7065
▁8,	-7066
▁1-8	-7067
▁Gro	-7068
▁rum	-7069
cover	-7070
odies	-7071
▁Look	-7072
sembly	-7073
▁aside	-7074
▁wheel	-7075
utional	-7076
▁garlic	-7077
▁termin	-7078
inations	-7079
▁lighting	-7080
▁negative	-7081
▁packages	-7082
▁carefully	-7083
▁encouraged	-7084
PD	-7085
Tr	-7086
cC	-7087
nLet	-7088
▁150	-7089
▁24,	-7090
▁Cir	-7091
▁Run	-7092
▁dim	-7093
anger	-7094
ented	-7095
itals	-7096
owned	-7097
▁iPod	-7098
▁inqu	-7099
▁logo	-7100
▁nurs	-7101
nThank	-7102
utation	-7103
▁unlike	-7104
▁portion	-7105
▁apartment	-7106
rastructure	-7107
2011	-7108
oses	-7109
roit	-7110
▁Pow	-7111
eting	-7112
▁trips	-7113
uration	-7114
▁Miller	-7115
▁Season	-7116
▁Country	-7117
▁conserv	-7118
▁patterns	-7119
▁suffered	-7120
▁interface	-7121
▁returning	-7122
Ad	-7123
EA	-7124
GE	-7125
acr	-7126
▁55	-7127
▁MO	-7128
▁19,	-7129
▁Try	-7130
▁hyd	-7131
▁obt	-7132
....\	-7133
▁Creat	-7134
▁noise	-7135
▁pharm	-7136
▁refund	-7137
▁remote	-7138
▁Spanish	-7139
▁authors	-7140
▁organis	-7141
▁typical	-7142
▁approval	-7143
▁creation	-7144
ifications	-7145
▁scientists	-7146
▁improvement	-7147
,'	-7148
RS	-7149
▁37	-7150
▁Lo	-7151
▁Ma	-7152
They	-7153
inst	-7154
▁28,	-7155
2019\	-7156
ially	-7157
ilton	-7158
▁Utah	-7159
▁lapt	-7160
istrib	-7161
▁Watch	-7162
ologist	-7163
▁prepar	-7164
▁fitness	-7165
▁matters	-7166
▁watched	-7167
▁immediate	-7168
▁continuing	-7169
>\	-7170
nl	-7171
nSe	-7172
nTr	-7173
▁($	-7174
▁PA	-7175
flow	-7176
ixth	-7177
ouri	-7178
class	-7179
▁eleg	-7180
▁loan	-7181
▁spin	-7182
pected	-7183
▁Hawai	-7184
▁Major	-7185
▁depth	-7186
ylvania	-7187
▁Garden	-7188
▁arrive	-7189
▁filter	-7190
▁Instead	-7191
▁savings	-7192
▁politics	-7193
▁Minnesota	-7194
▁submitted	-7195
▁interactive	-7196
87	-7197
SD	-7198
vell	-7199
▁25,	-7200
▁26,	-7201
▁Ath	-7202
▁Lew	-7203
abeth	-7204
acked	-7205
otton	-7206
poons	-7207
▁Barb	-7208
▁Made	-7209
▁Scot	-7210
▁Turn	-7211
▁bags	-7212
▁hate	-7213
▁zone	-7214
ildren	-7215
orders	-7216
▁marks	-7217
▁occup	-7218
iations	-7219
iveness	-7220
▁Station	-7221
▁capture	-7222
▁announcement	-7223
▁institutions	-7224
36	-7225
bd	-7226
vas	-7227
nfor	-7228
rome	-7229
▁800	-7230
▁Toy	-7231
achel	-7232
dated	-7233
itage	-7234
▁susp	-7235
▁warn	-7236
▁Force	-7237
▁goods	-7238
▁horse	-7239
▁shirt	-7240
ossible	-7241
▁decade	-7242
▁Members	-7243
▁Studies	-7244
▁carried	-7245
▁doctors	-7246
▁organized	-7247
▁recording	-7248
▁constantly	-7249
▁developers	-7250
▁description	-7251
▁successfully	-7252
!!!	-7253
ani	-7254
eep	-7255
onto	-7256
oore	-7257
uten	-7258
▁pin	-7259
▁liqu	-7260
▁Sound	-7261
▁adapt	-7262
▁crash	-7263
▁liked	-7264
▁prove	-7265
▁Amazon	-7266
▁guilty	-7267
▁creates	-7268
▁follows	-7269
ibilities	-7270
▁cleaning	-7271
▁entirely	-7272
So	-7273
fs	-7274
des	-7275
uer	-7276
uls	-7277
▁HP	-7278
▁HIV	-7279
ether	-7280
folio	-7281
olice	-7282
stein	-7283
using	-7284
▁Requ	-7285
▁phil	-7286
▁rose	-7287
▁vend	-7288
makers	-7289
akistan	-7290
▁acknow	-7291
▁pocket	-7292
▁writes	-7293
▁concent	-7294
▁illegal	-7295
▁speaking	-7296
▁wireless	-7297
Be	-7298
ta	-7299
?\"	-7300
erg	-7301
law	-7302
▁MA	-7303
▁Ve	-7304
heim	-7305
▁san	-7306
level	-7307
▁stir	-7308
▁vast	-7309
▁Jason	-7310
▁Royal	-7311
▁climb	-7312
▁oppon	-7313
▁enable	-7314
▁lyrics	-7315
▁anticip	-7316
▁joining	-7317
▁offense	-7318
▁collected	-7319
▁estimated	-7320
▁Philadelphia	-7321
UC	-7322
nam	-7323
zes	-7324
▁Mo	-7325
nCan	-7326
umer	-7327
▁Ren	-7328
▁Rog	-7329
essee	-7330
▁Cert	-7331
▁Hart	-7332
▁Penns	-7333
▁Phone	-7334
▁heads	-7335
▁spark	-7336
▁Before	-7337
▁shipped	-7338
▁visited	-7339
▁Cab	-7340
enger	-7341
▁Bern	-7342
▁[...	-7343
▁mile	-7344
iously	-7345
▁Linux	-7346
▁Story	-7347
▁voted	-7348
orgeous	-7349
resents	-7350
▁desire	-7351
▁enroll	-7352
▁Express	-7353
▁Houston	-7354
▁authent	-7355
▁justice	-7356
▁spokesman	-7357
▁experiment	-7358
▁effectively	-7359
▁sustainable	-7360
nBl	-7361
▁$6	-7362
▁01	-7363
▁34	-7364
amel	-7365
oral	-7366
▁arg	-7367
▁wra	-7368
nJoin	-7369
▁Dark	-7370
intage	-7371
▁finds	-7372
▁murder	-7373
▁stream	-7374
▁aggress	-7375
▁alcohol	-7376
▁fishing	-7377
▁Memorial	-7378
▁describe	-7379
▁directed	-7380
▁machines	-7381
▁mountain	-7382
▁computers	-7383
▁providers	-7384
▁requested	-7385
▁Administration	-7386
!\"	-7387
One	-7388
▁Ly	-7389
iley	-7390
made	-7391
olis	-7392
▁Bal	-7393
▁kit	-7394
▁sky	-7395
▁tip	-7396
▁Supp	-7397
▁Flash	-7398
▁dough	-7399
▁walls	-7400
izabeth	-7401
▁script	-7402
▁forever	-7403
▁privacy	-7404
▁sending	-7405
▁believed	-7406
▁reliable	-7407
▁signature	-7408
▁affordable	-7409
▁contribute	-7410
▁frequently	-7411
▁statements	-7412
nAm	-7413
uis	-7414
hire	-7415
uter	-7416
nOnce	-7417
▁Ball	-7418
▁styl	-7419
▁banks	-7420
▁skill	-7421
▁spots	-7422
▁Cancer	-7423
▁Credit	-7424
▁Joseph	-7425
▁proven	-7426
▁ancient	-7427
▁knowing	-7428
▁protein	-7429
▁shouldn	-7430
▁trained	-7431
▁medicine	-7432
▁Financial	-7433
▁disappoint	-7434
▁suggestions	-7435
PI	-7436
Up	-7437
cD	-7438
you	-7439
star	-7440
elson	-7441
nHave	-7442
uster	-7443
venth	-7444
▁maps	-7445
▁rice	-7446
▁lucky	-7447
▁Afghan	-7448
▁motion	-7449
▁remark	-7450
▁singer	-7451
▁taught	-7452
▁theory	-7453
formance	-7454
▁winners	-7455
▁believes	-7456
▁discussed	-7457
▁strategies	-7458
▁programming	-7459
/3	-7460
-20	-7461
And	-7462
ura	-7463
▁(7	-7464
aine	-7465
amps	-7466
cers	-7467
ints	-7468
ione	-7469
▁obl	-7470
▁pod	-7471
▁enem	-7472
▁weak	-7473
▁Labor	-7474
▁amend	-7475
▁moves	-7476
▁excess	-7477
▁papers	-7478
friendly	-7479
▁Ireland	-7480
▁assault	-7481
▁chances	-7482
▁routine	-7483
▁contrast	-7484
▁networks	-7485
▁requests	-7486
▁listening	-7487
▁correspond	-7488
▁healthcare	-7489
▁performing	-7490
Un	-7491
cG	-7492
do	-7493
ums	-7494
▁44	-7495
▁SE	-7496
bles	-7497
lder	-7498
uine	-7499
▁Map	-7500
▁Pit	-7501
▁Rub	-7502
iform	-7503
inson	-7504
nNote	-7505
▁2001	-7506
▁Eric	-7507
▁trib	-7508
▁Disney	-7509
▁bottle	-7510
▁narrow	-7511
▁riding	-7512
▁Britain	-7513
▁Theatre	-7514
▁cabinet	-7515
▁catalog	-7516
▁chapter	-7517
▁objects	-7518
ervations	-7519
▁assistant	-7520
▁extension	-7521
▁historical	-7522
At	-7523
BO	-7524
▁Ban	-7525
nSign	-7526
▁Type	-7527
icking	-7528
▁2008,	-7529
▁2008\	-7530
▁2009,	-7531
▁Harry	-7532
▁Ocean	-7533
▁Queen	-7534
▁regul	-7535
ception	-7536
▁Agency	-7537
▁encoun	-7538
▁hotels	-7539
▁channel	-7540
▁clothes	-7541
▁complic	-7542
▁diverse	-7543
including	-7544
▁clinical	-7545
▁Resources	-7546
▁practical	-7547
▁availability	-7548
▁participating	-7549
34	-7550
HA	-7551
PC	-7552
Sc	-7553
li	-7554
oln	-7555
ras	-7556
▁DC	-7557
▁Ep	-7558
anes	-7559
ilit	-7560
nReg	-7561
▁Fac	-7562
▁Lut	-7563
▁Rad	-7564
icate	-7565
▁Fall	-7566
▁Writ	-7567
▁ease	-7568
▁Index	-7569
▁moist	-7570
ultural	-7571
▁Server	-7572
▁agents	-7573
▁planet	-7574
▁Another	-7575
▁Supreme	-7576
▁entries	-7577
▁hitting	-7578
▁scoring	-7579
▁viewing	-7580
▁atmosphere	-7581
▁surprising	-7582
▁celebration	-7583
▁Communications	-7584
.1	-7585
37	-7586
▁BB	-7587
▁SM	-7588
▁ol	-7589
olds	-7590
▁ham	-7591
▁Does	-7592
▁Rick	-7593
▁eggs	-7594
▁hole	-7595
rovers	-7596
▁juice	-7597
▁boards	-7598
▁border	-7599
▁anniversary	-7600
▁engineering	-7601
▁photographs	-7602
▁Pennsylvania	-7603
97	-7604
Ed	-7605
aug	-7606
esy	-7607
iac	-7608
▁Wat	-7609
▁fle	-7610
isted	-7611
▁Balt	-7612
▁lets	-7613
▁bench	-7614
▁equal	-7615
▁stuck	-7616
Welcome	-7617
▁fairly	-7618
▁string	-7619
American	-7620
▁Eastern	-7621
▁factory	-7622
▁Software	-7623
▁minister	-7624
cL	-7625
ih	-7626
zy	-7627
ept	-7628
bour	-7629
▁31,	-7630
▁Ave	-7631
▁PDF	-7632
▁rac	-7633
imore	-7634
▁(200	-7635
▁Jess	-7636
▁Josh	-7637
▁hall	-7638
▁magn	-7639
▁login	-7640
▁meets	-7641
▁prompt	-7642
▁jewelry	-7643
▁Insurance	-7644
▁adventure	-7645
▁Democratic	-7646
▁appointment	-7647
▁contemporary	-7648
▁communications	-7649
ART	-7650
teen	-7651
▁Buy	-7652
nMany	-7653
osoph	-7654
▁Anth	-7655
▁Kids	-7656
▁cock	-7657
itable	-7658
▁blend	-7659
▁blogs	-7660
▁trick	-7661
▁vital	-7662
▁behalf	-7663
▁execut	-7664
▁racing	-7665
________	-7666
▁Detroit	-7667
▁Olympic	-7668
▁claimed	-7669
▁finance	-7670
▁promise	-7671
▁witness	-7672
▁attached	-7673
▁calendar	-7674
▁diabetes	-7675
▁represents	-7676
▁transportation	-7677
96	-7678
cm	-7679
uan	-7680
Read	-7681
▁$1.	-7682
▁Cra	-7683
▁Cru	-7684
▁Ref	-7685
prene	-7686
riers	-7687
▁2002	-7688
▁fort	-7689
▁heav	-7690
▁trim	-7691
incoln	-7692
▁Creek	-7693
▁Point	-7694
▁forth	-7695
▁grass	-7696
▁nomin	-7697
▁solar	-7698
▁squad	-7699
▁Senior	-7700
▁cooper	-7701
▁factor	-7702
▁origin	-7703
▁context	-7704
▁therapy	-7705
▁upgrade	-7706
▁aircraft	-7707
▁bathroom	-7708
▁breaking	-7709
▁instance	-7710
▁opinions	-7711
▁certified	-7712
▁displayed	-7713
38	-7714
Fr	-7715
-15	-7716
300	-7717
equ	-7718
▁Kh	-7719
ells	-7720
irms	-7721
▁bow	-7722
▁raw	-7723
acher	-7724
front	-7725
ordan	-7726
▁Hamp	-7727
▁Tony	-7728
▁Email	-7729
▁dollar	-7730
▁manner	-7731
▁Indiana	-7732
▁Natural	-7733
▁Version	-7734
▁awarded	-7735
▁compete	-7736
▁founded	-7737
▁intense	-7738
▁killing	-7739
▁Columbia	-7740
▁certific	-7741
▁holidays	-7742
▁expertise	-7743
▁permanent	-7744
▁efficiency	-7745
▁Championship	-7746
RC	-7747
edu	-7748
nLe	-7749
nby	-7750
umni	-7751
▁Cas	-7752
▁Cur	-7753
eople	-7754
▁Cond	-7755
▁Mill	-7756
▁batt	-7757
▁entr	-7758
iments	-7759
▁Heart	-7760
▁alive	-7761
▁urban	-7762
▁decent	-7763
▁reject	-7764
▁scores	-7765
fficient	-7766
▁accused	-7767
▁enthusi	-7768
▁Building	-7769
▁construct	-7770
▁favourite	-7771
▁recognize	-7772
▁seriously	-7773
▁accessible	-7774
▁exhibition	-7775
▁officially	-7776
▁challenging	-7777
▁inspiration	-7778
▁Environmental	-7779
nic	-7780
▁02	-7781
▁Ms	-7782
From	-7783
nRep	-7784
uing	-7785
▁$20	-7786
▁Dog	-7787
▁Mir	-7788
▁syn	-7789
iants	-7790
razil	-7791
stone	-7792
▁Bull	-7793
▁Phys	-7794
▁tape	-7795
▁tied	-7796
inking	-7797
▁Bible	-7798
▁kinds	-7799
▁prize	-7800
▁quote	-7801
▁solve	-7802
reprene	-7803
▁Action	-7804
▁Annual	-7805
▁heading	-7806
▁illness	-7807
▁Missouri	-7808
▁graphics	-7809
▁realized	-7810
▁suggests	-7811
▁ultimate	-7812
▁Tennessee	-7813
▁expressed	-7814
▁household	-7815
▁newspaper	-7816
▁Associated	-7817
▁expectations	-7818
▁contributions	-7819
cH	-7820
lo	-7821
)|\	-7822
ITY	-7823
osc	-7824
▁AC	-7825
▁Op	-7826
▁oz	-7827
rich	-7828
inity	-7829
ounce	-7830
▁gang	-7831
▁Stock	-7832
▁boxes	-7833
▁brill	-7834
▁pizza	-7835
▁saved	-7836
▁stone	-7837
clusion	-7838
▁Austin	-7839
▁Square	-7840
▁belong	-7841
▁recycl	-7842
▁destroy	-7843
▁listing	-7844
▁moments	-7845
▁carrying	-7846
▁gorgeous	-7847
▁replaced	-7848
▁attending	-7849
▁touchdown	-7850
▁replacement	-7851
▁~	-7852
aha	-7853
cut	-7854
rem	-7855
▁AD	-7856
▁Tro	-7857
Press	-7858
esides	-7859
ocated	-7860
▁affil	-7861
▁chose	-7862
▁Govern	-7863
▁Resort	-7864
▁assets	-7865
▁circum	-7866
▁errors	-7867
▁luxury	-7868
▁Chapter	-7869
▁Gallery	-7870
▁champion	-7871
▁exposure	-7872
▁stunning	-7873
▁contained	-7874
▁obviously	-7875
▁Collection	-7876
▁accomplish	-7877
▁relatively	-7878
▁championship	-7879
2-	-7880
67	-7881
SC	-7882
cf	-7883
:15	-7884
nIm	-7885
amon	-7886
mart	-7887
nJan	-7888
unes	-7889
writ	-7890
▁Dar	-7891
▁Luc	-7892
▁McG	-7893
▁RSS	-7894
▁URL	-7895
▁Dave	-7896
▁Trib	-7897
▁puzz	-7898
▁Irish	-7899
ighters	-7900
▁Golden	-7901
▁edited	-7902
▁Matthew	-7903
▁assists	-7904
▁strange	-7905
▁improving	-7906
▁instrument	-7907
▁enforcement	-7908
▁publication	-7909
▁infrastructure	-7910
EX	-7911
OG	-7912
tic	-7913
▁1\	-7914
▁49	-7915
▁OK	-7916
fall	-7917
olph	-7918
rell	-7919
week	-7920
▁III	-7921
▁Jac	-7922
▁dad	-7923
▁lit	-7924
▁suc	-7925
orous	-7926
▁Greg	-7927
▁unem	-7928
▁comic	-7929
▁displ	-7930
▁giant	-7931
▁anyway	-7932
▁ending	-7933
▁indeed	-7934
▁relief	-7935
urrently	-7936
▁capable	-7937
▁admitted	-7938
▁identity	-7939
▁lifestyle	-7940
▁controvers	-7941
0.	-7942
cP	-7943
sea	-7944
▁65	-7945
adow	-7946
hops	-7947
nAre	-7948
▁Key	-7949
▁LED	-7950
▁coc	-7951
otted	-7952
▁1999	-7953
▁fest	-7954
▁Sales	-7955
▁Player	-7956
▁comedy	-7957
▁talked	-7958
▁innings	-7959
▁signing	-7960
▁Football	-7961
▁Democrats	-7962
▁explained	-7963
▁collaboration	-7964
isa	-7965
war	-7966
▁Tax	-7967
▁Buff	-7968
▁Swed	-7969
nWhere	-7970
▁Anton	-7971
▁Beaut	-7972
▁Brook	-7973
▁Guard	-7974
▁Right	-7975
▁smile	-7976
▁compat	-7977
▁infect	-7978
▁saving	-7979
▁soccer	-7980
igration	-7981
▁combine	-7982
▁elected	-7983
▁Students	-7984
▁basically	-7985
▁assessment	-7986
▁situations	-7987
▁transition	-7988
AND	-7989
mal	-7990
▁(6	-7991
▁Ha	-7992
nCol	-7993
pret	-7994
pton	-7995
rite	-7996
stal	-7997
▁pra	-7998
▁vul	-7999
anned	-8000
nThen	-8001
opher	-8002
ureau	-8003
worth	-8004
▁pace	-8005
▁slic	-8006
▁clubs	-8007
▁empty	-8008
▁habit	-8009
▁Steven	-8010
▁prohib	-8011
▁resort	-8012
▁thinks	-8013
▁Portland	-8014
▁domestic	-8015
▁informed	-8016
▁proposal	-8017
▁thorough	-8018
▁increases	-8019
▁recognition	-8020
NT	-8021
..\	-8022
imp	-8023
▁Ap	-8024
▁ED	-8025
)."}	-8026
Star	-8027
Tube	-8028
town	-8029
vate	-8030
▁Cop	-8031
eling	-8032
icide	-8033
inent	-8034
letin	-8035
style	-8036
▁HERE	-8037
▁Marc	-8038
▁acts	-8039
▁coin	-8040
phones	-8041
▁Study	-8042
▁Table	-8043
▁chair	-8044
▁scenes	-8045
▁struck	-8046
▁symbol	-8047
▁tennis	-8048
▁terror	-8049
▁cameras	-8050
▁default	-8051
▁operate	-8052
▁Shipping	-8053
▁clicking	-8054
▁matching	-8055
▁normally	-8056
▁franchise	-8057
▁involving	-8058
▁personally	-8059
gov	-8060
nis	-8061
via	-8062
▁FM	-8063
etts	-8064
▁Adam	-8065
▁NCAA	-8066
▁Publ	-8067
▁fasc	-8068
▁vibr	-8069
ronics	-8070
▁Mount	-8071
▁Photo	-8072
▁chips	-8073
winning	-8074
▁marked	-8075
▁bedroom	-8076
▁closing	-8077
▁explains	-8078
▁handling	-8079
▁pleasure	-8080
▁talented	-8081
Le	-8082
Book	-8083
http	-8084
▁DNA	-8085
▁Dur	-8086
attan	-8087
nWell	-8088
rated	-8089
▁Stan	-8090
▁Zeal	-8091
▁pill	-8092
bridge	-8093
iament	-8094
stream	-8095
▁2012.	-8096
▁Moore	-8097
▁assum	-8098
▁Select	-8099
▁attach	-8100
▁fiscal	-8101
▁Schools	-8102
▁Stephen	-8103
▁centers	-8104
▁dealing	-8105
▁Jennifer	-8106
▁Standard	-8107
▁enjoying	-8108
▁producer	-8109
▁somewhat	-8110
▁protected	-8111
▁newsletter	-8112
▁revolution	-8113
▁representative	-8114
ais	-8115
from	-8116
icut	-8117
lins	-8118
adies	-8119
etary	-8120
▁Prom	-8121
▁Ther	-8122
▁boss	-8123
▁clar	-8124
▁solo	-8125
ocking	-8126
▁Asian	-8127
▁Visit	-8128
▁legend	-8129
▁Products	-8130
▁criteria	-8131
▁distinct	-8132
▁rebounds	-8133
▁releases	-8134
▁Elizabeth	-8135
▁traveling	-8136
▁guidelines	-8137
▁highlights	-8138
▁destination	-8139
▁subscription	-8140
/\	-8141
igs	-8142
odd	-8143
oen	-8144
izer	-8145
mann	-8146
nHis	-8147
otte	-8148
▁Cro	-8149
▁bab	-8150
▁hat	-8151
▁lip	-8152
overs	-8153
wered	-8154
▁Arab	-8155
▁Moon	-8156
nEvery	-8157
▁Small	-8158
▁chart	-8159
▁newly	-8160
▁roads	-8161
▁Bridge	-8162
▁Nation	-8163
▁headed	-8164
▁Brother	-8165
▁Challen	-8166
▁coaches	-8167
▁raising	-8168
▁Medicine	-8169
▁Regional	-8170
▁Hampshire	-8171
▁programme	-8172
▁impossible	-8173
▁interviews	-8174
▁monitoring	-8175
▁collections	-8176
▁recommendations	-8177
UL	-8178
new	-8179
▁Ur	-8180
anny	-8181
gypt	-8182
umps	-8183
▁Tal	-8184
▁lin	-8185
▁Case	-8186
▁Mess	-8187
▁unus	-8188
▁Lewis	-8189
▁Sandy	-8190
▁Sarah	-8191
▁Yahoo	-8192
▁discl	-8193
▁opens	-8194
▁sight	-8195
▁spray	-8196
▁driven	-8197
▁intent	-8198
▁tablet	-8199
nContact	-8200
▁chopped	-8201
▁Pakistan	-8202
▁drinking	-8203
▁occurred	-8204
▁presents	-8205
▁emotional	-8206
*\	-8207
68	-8208
axy	-8209
bal	-8210
▁85	-8211
▁Du	-8212
Last	-8213
▁NBA	-8214
anted	-8215
onder	-8216
sized	-8217
▁Vice	-8218
▁Wine	-8219
▁stim	-8220
▁tiny	-8221
ingers	-8222
▁Spain	-8223
▁Wales	-8224
nPolice	-8225
ogether	-8226
▁acting	-8227
▁rising	-8228
▁Account	-8229
▁Patrick	-8230
▁Stadium	-8231
▁recover	-8232
▁guidance	-8233
▁memories	-8234
▁payments	-8235
▁printing	-8236
▁Available	-8237
▁attractive	-8238
▁initiative	-8239
▁reasonable	-8240
▁photography	-8241
▁increasingly	-8242
31	-8243
QL	-8244
/10	-8245
acc	-8246
aze	-8247
▁$7	-8248
▁64	-8249
hoto	-8250
▁29,	-8251
▁Oil	-8252
▁hur	-8253
atics	-8254
▁Baby	-8255
▁Mail	-8256
▁Ross	-8257
▁roof	-8258
▁2013.	-8259
▁facts	-8260
▁shops	-8261
earning	-8262
tsburgh	-8263
▁Living	-8264
▁Wilson	-8265
▁obtain	-8266
▁signal	-8267
nAnother	-8268
tainment	-8269
▁Officer	-8270
▁filling	-8271
▁conflict	-8272
▁generate	-8273
▁integrated	-8274
▁possibility	-8275
▁improvements	-8276
▁performances	-8277
▁04	-8278
athy	-8279
leep	-8280
lers	-8281
mers	-8282
oker	-8283
step	-8284
▁Arm	-8285
▁EST	-8286
▁Pen	-8287
▁ske	-8288
asted	-8289
▁butt	-8290
▁exec	-8291
▁fulf	-8292
angers	-8293
everal	-8294
▁Henry	-8295
▁chest	-8296
▁drawn	-8297
▁risks	-8298
▁Hawaii	-8299
▁Russia	-8300
▁flying	-8301
▁widely	-8302
▁counsel	-8303
▁extract	-8304
▁largely	-8305
▁warning	-8306
▁consists	-8307
▁sections	-8308
▁stations	-8309
▁superior	-8310
▁classroom	-8311
▁developer	-8312
▁telephone	-8313
▁guaranteed	-8314
Web	-8315
sex	-8316
▁Cy	-8317
▁Es	-8318
▁SH	-8319
ipes	-8320
▁Cow	-8321
▁Buck	-8322
▁Talk	-8323
▁fuck	-8324
▁king	-8325
▁pets	-8326
▁wake	-8327
ardens	-8328
▁Event	-8329
▁agric	-8330
▁layer	-8331
▁ocean	-8332
▁river	-8333
▁shell	-8334
▁Posted	-8335
▁invite	-8336
▁quotes	-8337
▁visits	-8338
▁Zealand	-8339
▁closely	-8340
▁defined	-8341
▁writers	-8342
criptions	-8343
▁flexible	-8344
▁lifetime	-8345
▁diversity	-8346
▁suffering	-8347
▁maintaining	-8348
BM	-8349
nFe	-8350
nda	-8351
web	-8352
▁06	-8353
▁DO	-8354
!!!\	-8355
aret	-8356
hour	-8357
▁Cut	-8358
▁Iss	-8359
▁Jun	-8360
▁ads	-8361
▁rib	-8362
ceeds	-8363
ethod	-8364
iders	-8365
mates	-8366
▁aver	-8367
▁grad	-8368
▁mere	-8369
▁rein	-8370
▁yard	-8371
▁Month	-8372
▁blank	-8373
▁Athlet	-8374
▁Editor	-8375
▁Toronto	-8376
▁instant	-8377
▁keyboard	-8378
▁everybody	-8379
▁Protection	-8380
▁consistent	-8381
▁participation	-8382
LB	-8383
Not	-8384
eek	-8385
pot	-8386
she	-8387
View	-8388
alle	-8389
asks	-8390
▁Apr	-8391
▁Jam	-8392
▁Pin	-8393
▁Sym	-8394
achus	-8395
ormal	-8396
oured	-8397
▁Bang	-8398
▁Days	-8399
▁Nash	-8400
▁cats	-8401
▁Again	-8402
▁actor	-8403
▁sixth	-8404
▁engage	-8405
▁finest	-8406
▁lowest	-8407
▁Edition	-8408
▁Highway	-8409
▁compens	-8410
▁suspend	-8411
▁virtual	-8412
▁obtained	-8413
▁Professor	-8414
▁authority	-8415
▁connections	-8416
▁regulations	-8417
▁Professional	-8418
▁38	-8419
▁6.	-8420
▁af	-8421
nTwo	-8422
raud	-8423
that	-8424
then	-8425
▁Dun	-8426
▁Hay	-8427
ashes	-8428
ifies	-8429
▁Holy	-8430
▁bull	-8431
▁narr	-8432
▁nose	-8433
▁puts	-8434
▁soup	-8435
▁Allen	-8436
▁Share	-8437
▁split	-8438
▁yield	-8439
ulating	-8440
▁Brazil	-8441
▁Jordan	-8442
▁Orange	-8443
▁dreams	-8444
▁strict	-8445
▁desired	-8446
▁reprodu	-8447
▁feelings	-8448
▁brilliant	-8449
▁qualified	-8450
▁somewhere	-8451
94	-8452
uy	-8453
yp	-8454
apy	-8455
bel	-8456
nDe	-8457
▁EX	-8458
izon	-8459
rete	-8460
▁:)\	-8461
▁Was	-8462
▁lie	-8463
▁Snow	-8464
▁coal	-8465
▁vill	-8466
owered	-8467
ussion	-8468
▁Camer	-8469
▁Marsh	-8470
▁Still	-8471
▁Trade	-8472
▁birds	-8473
▁bunch	-8474
▁hosts	-8475
▁sharp	-8476
▁shift	-8477
▁surve	-8478
▁votes	-8479
ointing	-8480
quality	-8481
▁Studio	-8482
▁wealth	-8483
▁checked	-8484
▁engaged	-8485
▁trailer	-8486
▁Kentucky	-8487
▁sponsors	-8488
▁portfolio	-8489
eld	-8490
nTe	-8491
Your	-8492
bell	-8493
etic	-8494
greg	-8495
vals	-8496
▁Mom	-8497
▁bug	-8498
cThis	-8499
▁NASA	-8500
▁diss	-8501
▁terr	-8502
▁Break	-8503
▁Phill	-8504
▁Steel	-8505
▁Youth	-8506
reation	-8507
▁Histor	-8508
▁aspect	-8509
▁flower	-8510
▁transp	-8511
▁Capital	-8512
▁Russian	-8513
▁dynamic	-8514
▁veteran	-8515
nAlthough	-8516
▁Comments	-8517
▁entering	-8518
▁managing	-8519
▁Baltimore	-8520
▁Champions	-8521
▁discounts	-8522
▁colleagues	-8523
▁procedures	-8524
▁Connecticut	-8525
bow	-8526
nEd	-8527
ango	-8528
brid	-8529
▁$25	-8530
▁2.0	-8531
▁Pur	-8532
nWill	-8533
uties	-8534
▁Conf	-8535
▁Emer	-8536
▁Leon	-8537
▁Link	-8538
ellect	-8539
▁fewer	-8540
▁reply	-8541
▁Forest	-8542
▁formed	-8543
▁fundra	-8544
▁gotten	-8545
▁passes	-8546
▁Restaur	-8547
▁auction	-8548
▁causing	-8549
▁retired	-8550
achusetts	-8551
▁Baseball	-8552
▁Sciences	-8553
▁covering	-8554
▁findings	-8555
▁Relations	-8556
▁donations	-8557
▁exception	-8558
▁landscape	-8559
▁subscribe	-8560
▁ultimately	-8561
▁discussions	-8562
98	-8563
TP	-8564
nZ	-8565
▁;	-8566
-13	-8567
irk	-8568
nGo	-8569
char	-8570
nUse	-8571
vard	-8572
▁Wed	-8573
▁hal	-8574
▁ski	-8575
▁Size	-8576
▁acid	-8577
▁trem	-8578
▁unex	-8579
50,000	-8580
▁Front	-8581
▁Greek	-8582
▁Latin	-8583
▁recru	-8584
▁seats	-8585
▁weigh	-8586
anguage	-8587
▁Barack	-8588
ospitals	-8589
▁Clinton	-8590
▁Collect	-8591
▁Lincoln	-8592
▁compare	-8593
▁farmers	-8594
▁proceed	-8595
▁coaching	-8596
▁pregnancy	-8597
▁sponsored	-8598
▁networking	-8599
▁preparation	-8600
bi	-8601
▁(0	-8602
▁BM	-8603
▁FR	-8604
▁Ox	-8605
alse	-8606
eler	-8607
nMar	-8608
▁Ice	-8609
about	-8610
eding	-8611
rease	-8612
▁Gift	-8613
▁Wars	-8614
▁root	-8615
erring	-8616
giving	-8617
▁admin	-8618
▁blind	-8619
▁fiber	-8620
▁magic	-8621
▁weren	-8622
nDuring	-8623
▁Winter	-8624
▁dating	-8625
▁circumst	-8626
▁Marketing	-8627
▁childhood	-8628
▁favorites	-8629
▁everywhere	-8630
▁reputation	-8631
▁presidential	-8632
EF	-8633
oa	-8634
May	-8635
aga	-8636
amil	-8637
cker	-8638
▁1/4	-8639
▁Lyn	-8640
▁Roy	-8641
nOrig	-8642
ordon	-8643
▁edit	-8644
▁tone	-8645
amsung	-8646
▁Mayor	-8647
▁array	-8648
▁fired	-8649
▁phase	-8650
▁plane	-8651
▁Common	-8652
▁breath	-8653
▁logged	-8654
▁nights	-8655
▁packed	-8656
▁stayed	-8657
▁consequ	-8658
▁Attorney	-8659
▁Register	-8660
▁checking	-8661
/8	-8662
74	-8663
/11	-8664
10.	-8665
aza	-8666
pir	-8667
rog	-8668
▁(8	-8669
▁95	-8670
▁GT	-8671
fish	-8672
oked	-8673
pace	-8674
▁Ask	-8675
▁Yet	-8676
aning	-8677
▁Auto	-8678
▁Bird	-8679
▁Chap	-8680
▁legs	-8681
▁mand	-8682
▁torn	-8683
ielder	-8684
ockets	-8685
▁2007,	-8686
▁Falls	-8687
▁Money	-8688
▁venue	-8689
faction	-8690
itution	-8691
▁Change	-8692
▁browse	-8693
▁copies	-8694
▁courts	-8695
▁ranked	-8696
▁vulner	-8697
▁YouTube	-8698
▁insight	-8699
▁pricing	-8700
▁constant	-8701
▁reducing	-8702
▁swimming	-8703
▁primarily	-8704
▁Tournament	-8705
▁differences	-8706
▁manufacturers	-8707
NY	-8708
SL	-8709
Cont	-8710
iler	-8711
inth	-8712
wich	-8713
zing	-8714
▁"\"	-8715
▁flo	-8716
▁rug	-8717
▁tap	-8718
orses	-8719
store	-8720
world	-8721
▁Line	-8722
▁Mach	-8723
▁mood	-8724
hether	-8725
ortion	-8726
▁Prime	-8727
▁Roman	-8728
▁Would	-8729
▁pants	-8730
written	-8731
▁dishes	-8732
▁emails	-8733
▁limits	-8734
▁waters	-8735
▁mailing	-8736
▁uniform	-8737
▁authentic	-8738
▁designers	-8739
▁reduction	-8740
-14	-8741
Mon	-8742
nUp	-8743
lass	-8744
nVis	-8745
wing	-8746
▁Bad	-8747
▁Nik	-8748
ipper	-8749
proof	-8750
▁1980	-8751
▁Cand	-8752
▁bass	-8753
▁bomb	-8754
▁buck	-8755
▁jail	-8756
▁drama	-8757
▁salad	-8758
issions	-8759
▁Harris	-8760
▁gaming	-8761
▁hidden	-8762
▁voting	-8763
urricane	-8764
▁samples	-8765
▁screens	-8766
▁romantic	-8767
▁southern	-8768
▁substant	-8769
▁Solutions	-8770
▁expansion	-8771
▁Engineering	-8772
02	-8773
IGH	-8774
]"}	-8775
rix	-8776
tes	-8777
▁-\	-8778
▁CP	-8779
aire	-8780
elle	-8781
ippi	-8782
▁bid	-8783
▁sid	-8784
asant	-8785
iking	-8786
ridge	-8787
▁buff	-8788
▁evil	-8789
oosing	-8790
▁setup	-8791
▁swing	-8792
▁Cooper	-8793
▁assign	-8794
▁laptop	-8795
▁scheme	-8796
▁weapon	-8797
▁powered	-8798
▁succeed	-8799
anchester	-8800
▁overnight	-8801
▁medication	-8802
▁distributed	-8803
00\	-8804
UST	-8805
cious	-8806
▁Come	-8807
▁evol	-8808
▁hung	-8809
▁sear	-8810
earing	-8811
embers	-8812
▁Enjoy	-8813
▁Judge	-8814
▁roles	-8815
▁tweet	-8816
clusive	-8817
▁Tigers	-8818
▁borrow	-8819
▁orange	-8820
▁territ	-8821
▁Classic	-8822
▁Village	-8823
▁genuine	-8824
ventional	-8825
▁appointed	-8826
▁component	-8827
▁convenience	-8828
▁temperatures	-8829
cr	-8830
▁SC	-8831
▁SD	-8832
eman	-8833
iere	-8834
isan	-8835
mans	-8836
nPer	-8837
pany	-8838
▁Dam	-8839
▁Fal	-8840
▁Sir	-8841
sters	-8842
▁Band	-8843
▁User	-8844
▁lies	-8845
▁pupp	-8846
▁purs	-8847
▁sexy	-8848
▁tech	-8849
person	-8850
▁Egypt	-8851
▁clock	-8852
▁drove	-8853
▁rural	-8854
▁union	-8855
▁Number	-8856
▁enables	-8857
▁promotion	-8858
▁wondering	-8859
▁Entertainment	-8860
78	-8861
AB	-8862
mo	-8863
Rep	-8864
ami	-8865
bra	-8866
osa	-8867
▁CF	-8868
nInd	-8869
requ	-8870
▁Did	-8871
▁Jer	-8872
▁Nic	-8873
▁ink	-8874
/2013	-8875
▁Corp	-8876
▁Hold	-8877
▁dust	-8878
▁knee	-8879
acular	-8880
▁Kelly	-8881
▁Pract	-8882
▁Style	-8883
▁renov	-8884
▁weird	-8885
▁Though	-8886
▁attrib	-8887
nWelcome	-8888
▁convert	-8889
▁speaker	-8890
▁theater	-8891
▁wanting	-8892
▁pregnant	-8893
▁generated	-8894
▁languages	-8895
▁responded	-8896
▁technique	-8897
.-	-8898
ko	-8899
Col	-8900
▁7.	-8901
▁AL	-8902
▁NO	-8903
▁Ra	-8904
▁SO	-8905
▁SU	-8906
▁WH	-8907
whel	-8908
▁10-	-8909
▁Bed	-8910
▁Dak	-8911
▁Yan	-8912
▁mal	-8913
2014\	-8914
nEach	-8915
nLike	-8916
▁1990	-8917
▁Bask	-8918
▁Burn	-8919
▁drag	-8920
▁jury	-8921
▁Books	-8922
▁Never	-8923
▁bands	-8924
▁brush	-8925
▁smoke	-8926
athered	-8927
▁acquis	-8928
▁casual	-8929
▁cooked	-8930
▁golden	-8931
▁Channel	-8932
▁Records	-8933
▁falling	-8934
▁hanging	-8935
▁reviewed	-8936
▁speakers	-8937
▁stronger	-8938
▁suitable	-8939
▁possession	-8940
But	-8941
Get	-8942
ICK	-8943
mel	-8944
nOf	-8945
▁Ba	-8946
▁CT	-8947
/200	-8948
lace	-8949
site	-8950
▁1.5	-8951
▁120	-8952
▁cos	-8953
▁era	-8954
▁hip	-8955
ighth	-8956
month	-8957
organ	-8958
ropri	-8959
▁Easy	-8960
▁Must	-8961
▁coat	-8962
Posted	-8963
ername	-8964
▁Laure	-8965
▁Peace	-8966
▁Susan	-8967
▁Tools	-8968
▁Should	-8969
▁combat	-8970
▁loving	-8971
▁Anthony	-8972
▁Stewart	-8973
▁damaged	-8974
▁focuses	-8975
▁founder	-8976
▁precise	-8977
▁disaster	-8978
▁personnel	-8979
▁resulting	-8980
▁principles	-8981
▁reportedly	-8982
▁association	-8983
▁Massachusetts	-8984
nQ	-8985
▁DI	-8986
blog	-8987
iche	-8988
thon	-8989
▁Bol	-8990
▁Exp	-8991
▁Osc	-8992
▁adj	-8993
▁fur	-8994
elled	-8995
▁Gate	-8996
▁Need	-8997
▁asks	-8998
▁cycl	-8999
▁lect	-9000
▁math	-9001
▁sacr	-9002
▁toss	-9003
▁Advis	-9004
▁Level	-9005
▁crisp	-9006
▁patch	-9007
▁rival	-9008
▁templ	-9009
▁inquir	-9010
▁judges	-9011
▁lineup	-9012
omething	-9013
ordinary	-9014
▁Mississ	-9015
▁adopted	-9016
▁anymore	-9017
▁reserve	-9018
▁texture	-9019
isticated	-9020
▁Customer	-9021
▁attempts	-9022
▁dramatic	-9023
▁focusing	-9024
▁priority	-9025
▁allegedly	-9026
▁complaint	-9027
▁innovation	-9028
▁respective	-9029
▁instruction	-9030
▁conservative	-9031
▁intelligence	-9032
',	-9033
OK	-9034
/12	-9035
IVE	-9036
dep	-9037
ima	-9038
nOh	-9039
agan	-9040
emet	-9041
etch	-9042
nSpe	-9043
pire	-9044
▁Est	-9045
▁Tel	-9046
▁cul	-9047
angel	-9048
mouth	-9049
▁1970	-9050
▁bold	-9051
▁fits	-9052
ingham	-9053
terior	-9054
▁Adobe	-9055
▁Maine	-9056
▁bills	-9057
through	-9058
▁Bureau	-9059
▁Howard	-9060
▁Region	-9061
▁liquid	-9062
▁orient	-9063
secutive	-9064
▁Comment	-9065
▁Sheriff	-9066
▁Website	-9067
▁staying	-9068
▁Chairman	-9069
▁estimate	-9070
▁remained	-9071
▁estimates	-9072
▁finishing	-9073
▁physician	-9074
▁procedure	-9075
▁workshops	-9076
▁controlled	-9077
▁functional	-9078
▁implementation	-9079
EP	-9080
cF	-9081
cR	-9082
oto	-9083
uma	-9084
ype	-9085
▁2-	-9086
▁42	-9087
▁46	-9088
tail	-9089
▁$15	-9090
▁Nob	-9091
▁tub	-9092
oween	-9093
▁Dick	-9094
▁pitc	-9095
▁plot	-9096
▁toys	-9097
Please	-9098
itches	-9099
▁kills	-9100
▁lemon	-9101
viously	-9102
▁Better	-9103
▁Luther	-9104
▁Prince	-9105
▁assume	-9106
▁breaks	-9107
▁formal	-9108
▁poster	-9109
▁versat	-9110
resident	-9111
▁protest	-9112
▁athletes	-9113
▁controls	-9114
▁displays	-9115
▁incorpor	-9116
▁religion	-9117
▁whenever	-9118
▁alongside	-9119
▁philosoph	-9120
▁containing	-9121
▁purchasing	-9122
▁Unfortunately	-9123
DP	-9124
iju	-9125
log	-9126
obb	-9127
ram	-9128
yes	-9129
▁05	-9130
▁Ca	-9131
▁Pa	-9132
sole	-9133
tegr	-9134
▁Gun	-9135
▁Non	-9136
▁Sem	-9137
Berry	-9138
aware	-9139
woman	-9140
▁Andy	-9141
▁Dead	-9142
▁Tele	-9143
▁leaf	-9144
▁stro	-9145
apolis	-9146
aspoon	-9147
▁Bears	-9148
▁Maria	-9149
▁Which	-9150
▁absor	-9151
▁divid	-9152
amework	-9153
▁Eagles	-9154
▁Father	-9155
▁[...]\	-9156
▁forums	-9157
▁newest	-9158
▁element	-9159
▁penalty	-9160
▁pointed	-9161
▁Lawrence	-9162
▁Personal	-9163
▁achieved	-9164
▁equipped	-9165
▁subjects	-9166
▁entreprene	-9167
▁incredibly	-9168
▁retirement	-9169
▁statistics	-9170
▁interaction	-9171
▁functionality	-9172
:45	-9173
oni	-9174
vol	-9175
▁AS	-9176
arel	-9177
nWho	-9178
this	-9179
▁Sab	-9180
▁pic	-9181
casts	-9182
ishop	-9183
▁Deal	-9184
▁Name	-9185
▁euro	-9186
▁lake	-9187
▁lift	-9188
▁shoe	-9189
anning	-9190
engers	-9191
▁dozen	-9192
▁falls	-9193
▁Marine	-9194
▁Mother	-9195
▁explos	-9196
▁refrig	-9197
▁Springs	-9198
▁donated	-9199
▁singing	-9200
▁accuracy	-9201
▁expanded	-9202
▁shoulder	-9203
▁teaspoon	-9204
▁Transport	-9205
▁vegetables	-9206
▁unemployment	-9207
Wor	-9208
aws	-9209
nSc	-9210
udd	-9211
wan	-9212
!!!!	-9213
omic	-9214
orne	-9215
xxxx	-9216
▁600	-9217
▁Bry	-9218
▁Dyn	-9219
▁mut	-9220
▁shr	-9221
Every	-9222
chers	-9223
imize	-9224
itzer	-9225
▁Barn	-9226
▁Pict	-9227
▁Save	-9228
▁noon	-9229
ijuana	-9230
▁stead	-9231
▁finger	-9232
▁overse	-9233
graduate	-9234
▁artwork	-9235
▁comprom	-9236
▁homeown	-9237
▁lessons	-9238
▁ranging	-9239
▁Exchange	-9240
▁donation	-9241
▁involves	-9242
▁licensed	-9243
▁residential	-9244
cT	-9245
OVE	-9246
See	-9247
ila	-9248
mat	-9249
nie	-9250
oli	-9251
!\"\	-9252
gets	-9253
nDis	-9254
nYes	-9255
nell	-9256
▁CNN	-9257
▁Fat	-9258
▁McK	-9259
words	-9260
▁Bart	-9261
▁wave	-9262
overty	-9263
screen	-9264
unicip	-9265
▁Birth	-9266
▁faced	-9267
ivities	-9268
▁2012.\	-9269
▁Edward	-9270
▁Events	-9271
▁bodies	-9272
▁bridge	-9273
▁troops	-9274
aturally	-9275
quarters	-9276
▁Chamber	-9277
▁Limited	-9278
▁Russell	-9279
▁Stories	-9280
▁unusual	-9281
▁Olympics	-9282
▁declined	-9283
▁suddenly	-9284
▁ownership	-9285
▁enterprise	-9286
▁consecutive	-9287
▁circumstances	-9288
gie	-9289
oda	-9290
ogy	-9291
rys	-9292
▁CR	-9293
News	-9294
bean	-9295
html	-9296
ulpt	-9297
▁Alp	-9298
▁Fab	-9299
▁nob	-9300
cific	-9301
immer	-9302
▁Core	-9303
▁Jobs	-9304
▁Rain	-9305
▁dont	-9306
▁snap	-9307
▁ther	-9308
andise	-9309
annels	-9310
ressed	-9311
struct	-9312
▁Stone	-9313
▁gonna	-9314
▁loyal	-9315
▁pilot	-9316
▁stake	-9317
nBefore	-9318
▁coupon	-9319
▁democr	-9320
▁sought	-9321
▁Kennedy	-9322
▁privile	-9323
▁seventh	-9324
▁Continue	-9325
▁chairman	-9326
▁reporter	-9327
▁Challenge	-9328
▁champions	-9329
▁literally	-9330
▁supplement	-9331
▁architecture	-9332
▁conservation	-9333
39	-9334
Im	-9335
ja	-9336
nn	-9337
):\	-9338
▁UC	-9339
ador	-9340
etry	-9341
otta	-9342
▁Ast	-9343
▁ans	-9344
▁pul	-9345
andal	-9346
nFree	-9347
ummer	-9348
▁Fact	-9349
▁Give	-9350
▁Kate	-9351
▁duty	-9352
▁grab	-9353
▁laid	-9354
nGreat	-9355
veland	-9356
▁recon	-9357
▁tours	-9358
▁walks	-9359
ebruary	-9360
▁Justin	-9361
▁cookie	-9362
▁harder	-9363
▁humans	-9364
▁spaces	-9365
▁stable	-9366
ibraries	-9367
▁Explore	-9368
▁facilit	-9369
▁greatly	-9370
▁Victoria	-9371
▁managers	-9372
▁opposite	-9373
▁sentence	-9374
▁workshop	-9375
▁Questions	-9376
▁smartphone	-9377
0\	-9378
55	-9379
AV	-9380
HP	-9381
aa	-9382
ASE	-9383
▁4-	-9384
olly	-9385
upid	-9386
▁Han	-9387
▁hel	-9388
▁rig	-9389
▁unw	-9390
table	-9391
▁Kong	-9392
▁deck	-9393
▁flag	-9394
▁phen	-9395
erator	-9396
erving	-9397
minute	-9398
nLearn	-9399
▁Polit	-9400
▁proof	-9401
▁excite	-9402
▁explan	-9403
▁manual	-9404
▁shower	-9405
▁stocks	-9406
▁Charlie	-9407
▁Kingdom	-9408
▁western	-9409
▁answered	-9410
▁forecast	-9411
▁overwhel	-9412
▁contracts	-9413
▁Afghanistan	-9414
-11	-9415
nMe	-9416
▁je	-9417
atin	-9418
utor	-9419
▁ALL	-9420
▁Sox	-9421
▁god	-9422
▁phr	-9423
aired	-9424
aying	-9425
bound	-9426
nBack	-9427
ppers	-9428
umble	-9429
▁Shel	-9430
▁Very	-9431
▁bell	-9432
▁mild	-9433
▁semi	-9434
▁tire	-9435
ateful	-9436
ensity	-9437
igious	-9438
inding	-9439
semble	-9440
▁2011.	-9441
▁Krist	-9442
▁resid	-9443
ainless	-9444
▁Murray	-9445
▁Nelson	-9446
▁circle	-9447
▁tender	-9448
▁Nations	-9449
▁carries	-9450
▁depends	-9451
▁travell	-9452
▁vintage	-9453
▁worried	-9454
▁tomatoes	-9455
▁strategic	-9456
▁prevention	-9457
▁integration	-9458
▁universities	-9459
▁consideration	-9460
%,	-9461
MC	-9462
iot	-9463
who	-9464
▁MB	-9465
▁Ent	-9466
▁Mah	-9467
▁Ven	-9468
athon	-9469
entle	-9470
haust	-9471
oenix	-9472
▁Pick	-9473
▁Whit	-9474
▁embr	-9475
▁hide	-9476
▁trig	-9477
▁Civil	-9478
▁begun	-9479
chestra	-9480
emetery	-9481
▁Korean	-9482
▁cotton	-9483
▁defect	-9484
▁drinks	-9485
▁grocer	-9486
▁hockey	-9487
▁pushed	-9488
children	-9489
▁Consult	-9490
▁Defense	-9491
▁Israeli	-9492
▁elegant	-9493
▁lawsuit	-9494
▁persons	-9495
▁survive	-9496
▁unknown	-9497
▁delivers	-9498
▁external	-9499
▁fabulous	-9500
▁repeated	-9501
▁Cleveland	-9502
▁evolution	-9503
▁principal	-9504
▁producing	-9505
▁reception	-9506
▁evaluation	-9507
▁struggling	-9508
uz	-9509
IDS	-9510
▁5-	-9511
▁6-	-9512
▁id	-9513
avid	-9514
tery	-9515
▁10.	-9516
▁Sex	-9517
▁cow	-9518
aping	-9519
nTags	-9520
ricts	-9521
▁Capt	-9522
▁Jane	-9523
▁Mind	-9524
▁exem	-9525
▁seam	-9526
inance	-9527
iology	-9528
olitan	-9529
reated	-9530
▁Sport	-9531
▁Terry	-9532
▁holes	-9533
▁loose	-9534
▁pride	-9535
▁screw	-9536
▁curren	-9537
▁deploy	-9538
▁gained	-9539
▁insert	-9540
▁shapes	-9541
▁slowly	-9542
▁attitude	-9543
▁browsing	-9544
▁interact	-9545
▁potatoes	-9546
▁Authority	-9547
▁hopefully	-9548
▁purchases	-9549
▁Pittsburgh	-9550
▁potentially	-9551
4)	-9552
62	-9553
FF	-9554
Oh	-9555
PL	-9556
hol	-9557
ira	-9558
ubs	-9559
▁2\	-9560
▁EU	-9561
Free	-9562
enth	-9563
rait	-9564
ulum	-9565
urse	-9566
yler	-9567
▁Bag	-9568
▁Gre	-9569
▁Mix	-9570
▁fru	-9571
grade	-9572
nStud	-9573
▁Heat	-9574
▁Navy	-9575
▁Pink	-9576
▁guns	-9577
eneral	-9578
lessly	-9579
▁Coach	-9580
▁Movie	-9581
▁Saint	-9582
▁Treat	-9583
▁deleg	-9584
▁entit	-9585
▁firms	-9586
▁plain	-9587
▁seeds	-9588
▁ships	-9589
▁ultra	-9590
atching	-9591
▁Celebr	-9592
▁Junior	-9593
▁Valent	-9594
▁fascin	-9595
▁lesson	-9596
▁streak	-9597
▁Antonio	-9598
▁compact	-9599
▁dealers	-9600
▁diamond	-9601
▁picking	-9602
nSaturday	-9603
▁earnings	-9604
▁tracking	-9605
▁Represent	-9606
▁Sometimes	-9607
▁Manchester	-9608
▁aggressive	-9609
▁expression	-9610
▁motorcycle	-9611
▁opposition	-9612
▁Mississippi	-9613
▁tablespoons	-9614
▁contribution	-9615
▁documentation	-9616
7-	-9617
De	-9618
ND	-9619
TER	-9620
aun	-9621
elp	-9622
esc	-9623
▁2:	-9624
▁99	-9625
▁PS	-9626
▁mm	-9627
ATED	-9628
ader	-9629
cour	-9630
nRem	-9631
npro	-9632
raid	-9633
yers	-9634
▁1.0	-9635
▁10%	-9636
▁Dor	-9637
▁Hor	-9638
▁haz	-9639
▁mad	-9640
▁toy	-9641
▁vit	-9642
▁voc	-9643
backs	-9644
inkle	-9645
nJohn	-9646
▁Anal	-9647
▁Past	-9648
▁jazz	-9649
▁vess	-9650
market	-9651
mented	-9652
▁Simon	-9653
▁bonus	-9654
▁honey	-9655
▁usage	-9656
▁Argent	-9657
▁Compet	-9658
▁Denver	-9659
▁Member	-9660
▁defeat	-9661
▁powers	-9662
▁Friends	-9663
▁Harvard	-9664
▁Reviews	-9665
▁actress	-9666
▁couples	-9667
▁predict	-9668
▁regions	-9669
▁underst	-9670
▁reaction	-9671
▁automatic	-9672
▁suspended	-9673
▁girlfriend	-9674
▁initiatives	-9675
▁necessarily	-9676
▁participated	-9677
▁sophisticated	-9678
Pr	-9679
UD	-9680
600	-9681
Man	-9682
def	-9683
▁39	-9684
▁CL	-9685
▁ca	-9686
oops	-9687
oval	-9688
sect	-9689
uous	-9690
▁mac	-9691
▁tor	-9692
check	-9693
▁Pear	-9694
▁Vent	-9695
▁bicy	-9696
▁conj	-9697
▁myst	-9698
▁slee	-9699
ctober	-9700
▁2007\	-9701
▁Adams	-9702
▁Bloom	-9703
▁Metro	-9704
▁Psych	-9705
▁admit	-9706
▁cents	-9707
amental	-9708
holders	-9709
limited	-9710
▁desper	-9711
▁recall	-9712
▁Roberts	-9713
ellectual	-9714
▁Computer	-9715
▁contents	-9716
▁indicated	-9717
▁preferred	-9718
▁temporary	-9719
▁Elementary	-9720
▁remarkable	-9721
▁capabilities	-9722
App	-9723
ige	-9724
isp	-9725
▁Rh	-9726
ampa	-9727
nyou	-9728
oken	-9729
▁ABC	-9730
▁NHL	-9731
▁anx	-9732
▁mob	-9733
cular	-9734
iesel	-9735
nEven	-9736
nwith	-9737
xygen	-9738
▁Bapt	-9739
▁Brew	-9740
▁Info	-9741
▁clim	-9742
▁dual	-9743
iatric	-9744
roduct	-9745
▁Corps	-9746
▁Model	-9747
▁blame	-9748
▁meals	-9749
ownload	-9750
▁Gordon	-9751
▁Michel	-9752
▁Toyota	-9753
▁barely	-9754
▁cancel	-9755
▁mainly	-9756
▁proved	-9757
▁resume	-9758
▁rounds	-9759
nLooking	-9760
▁Perfect	-9761
▁careful	-9762
▁desktop	-9763
▁exhibit	-9764
▁granted	-9765
▁graphic	-9766
▁Learning	-9767
▁argument	-9768
▁athletic	-9769
▁mortgage	-9770
▁musicians	-9771
▁nutrition	-9772
▁promoting	-9773
▁regardless	-9774
▁personality	-9775
GO	-9776
HE	-9777
pg	-9778
▁)	-9779
Why	-9780
die	-9781
rat	-9782
▁54	-9783
▁CS	-9784
▁Os	-9785
anne	-9786
edge	-9787
oned	-9788
▁Rap	-9789
▁Ten	-9790
▁sin	-9791
acker	-9792
hetic	-9793
leans	-9794
▁Cool	-9795
▁chap	-9796
▁rend	-9797
▁Cloud	-9798
▁Think	-9799
▁alarm	-9800
▁balls	-9801
▁upset	-9802
▁2013.\	-9803
▁Choose	-9804
▁divide	-9805
▁guides	-9806
▁oldest	-9807
▁prayer	-9808
▁Barbara	-9809
▁Mission	-9810
▁Senator	-9811
▁pushing	-9812
▁utility	-9813
▁brothers	-9814
▁colorful	-9815
▁prosecut	-9816
▁soldiers	-9817
▁admission	-9818
▁describes	-9819
▁inventory	-9820
▁mountains	-9821
▁screening	-9822
▁Experience	-9823
▁celebrated	-9824
▁popularity	-9825
▁unexpected	-9826
MI	-9827
cat	-9828
aton	-9829
bors	-9830
core	-9831
hyth	-9832
rett	-9833
▁Blu	-9834
▁FAQ	-9835
▁Fan	-9836
▁Ont	-9837
inema	-9838
nMake	-9839
nWant	-9840
ounge	-9841
▁Flow	-9842
▁Gulf	-9843
▁Sche	-9844
▁army	-9845
▁clip	-9846
▁rely	-9847
▁vacc	-9848
▁ward	-9849
hattan	-9850
ieties	-9851
making	-9852
▁Stars	-9853
▁beans	-9854
▁loans	-9855
▁prime	-9856
▁races	-9857
▁yours	-9858
▁apolog	-9859
▁canvas	-9860
▁stages	-9861
▁crucial	-9862
▁smoking	-9863
▁acquired	-9864
▁northern	-9865
▁playoffs	-9866
▁resulted	-9867
▁username	-9868
▁wildlife	-9869
▁placement	-9870
▁specified	-9871
▁contributed	-9872
▁representatives	-9873
3-	-9874
yo	-9875
DAY	-9876
Now	-9877
bec	-9878
cHe	-9879
▁"\	-9880
▁AB	-9881
agen	-9882
elve	-9883
itis	-9884
rior	-9885
▁2.5	-9886
▁COM	-9887
▁Ori	-9888
isers	-9889
nTake	-9890
▁CONT	-9891
▁Cart	-9892
▁Iron	-9893
▁Pant	-9894
▁Sant	-9895
▁bone	-9896
▁dirt	-9897
▁elev	-9898
▁fool	-9899
▁lens	-9900
▁okay	-9901
▁sees	-9902
▁spir	-9903
▁tons	-9904
▁maker	-9905
▁overl	-9906
▁tasks	-9907
▁tooth	-9908
irlines	-9909
▁Alaska	-9910
▁Galaxy	-9911
▁drives	-9912
▁frustr	-9913
▁viewed	-9914
▁Buffalo	-9915
▁Options	-9916
▁Orleans	-9917
▁Perhaps	-9918
▁Tickets	-9919
▁honored	-9920
itionally	-9921
▁Partners	-9922
▁concepts	-9923
▁struggle	-9924
▁directory	-9925
▁preparing	-9926
▁retailers	-9927
▁secretary	-9928
▁creativity	-9929
▁personalized	-9930
04	-9931
92	-9932
Se	-9933
awa	-9934
fire	-9935
prof	-9936
▁20-	-9937
▁Ped	-9938
▁bol	-9939
clude	-9940
erald	-9941
nPost	-9942
▁2014	-9943
▁Aren	-9944
▁Fast	-9945
▁Nort	-9946
▁Roll	-9947
▁beef	-9948
▁lady	-9949
▁loud	-9950
▁soil	-9951
▁tact	-9952
iating	-9953
nEnter	-9954
▁Andre	-9955
▁Dance	-9956
▁Glass	-9957
▁Speed	-9958
▁Suite	-9959
▁candy	-9960
▁olive	-9961
▁afraid	-9962
▁shirts	-9963
▁stored	-9964
eptember	-9965
▁Affairs	-9966
▁Reading	-9967
▁dismiss	-9968
▁Atlantic	-9969
▁Halloween	-9970
▁comparison	-9971
▁nationwide	-9972
▁Application	-9973
▁departments	-9974
▁documentary	-9975
▁exclusively	-9976
▁scholarship	-9977
''	-9978
TML	-9979
nPh	-9980
zed	-9981
bits	-9982
itty	-9983
nRet	-9984
tech	-9985
▁3.0	-9986
▁NYC	-9987
▁Dean	-9988
▁Rome	-9989
▁Sony	-9990
▁pean	-9991
▁tags	-9992
▁till	-9993
essing	-9994
▁Posts	-9995
▁inner	-9996
▁ratio	-9997
innamon	-9998
▁Return	-9999
▁Things	-10000
▁devast	-10001
▁jacket	-10002
▁Jessica	-10003
▁equally	-10004
▁poverty	-10005
▁shelter	-10006
▁Medicare	-10007
▁outcomes	-10008
▁reaching	-10009
▁strongly	-10010
▁survived	-10011
▁targeted	-10012
▁acknowled	-10013
▁advertise	-10014
▁Restaurant	-10015
▁completion	-10016
Me	-10017
PT	-10018
df	-10019
-18	-10020
Des	-10021
She	-10022
▁1:	-10023
anth	-10024
atal	-10025
boro	-10026
oper	-10027
▁Boe	-10028
▁Ess	-10029
▁Has	-10030
annon	-10031
issue	-10032
outer	-10033
▁Bron	-10034
▁Cole	-10035
▁Text	-10036
▁Viet	-10037
▁Wire	-10038
▁outs	-10039
covery	-10040
▁Vista	-10041
▁fraud	-10042
▁stamp	-10043
▁tired	-10044
mitting	-10045
nReview	-10046
▁Ground	-10047
▁Palest	-10048
▁Queens	-10049
▁branch	-10050
▁grants	-10051
▁rescue	-10052
▁ruling	-10053
▁sheets	-10054
ependent	-10055
▁flights	-10056
▁letting	-10057
▁mistake	-10058
▁tremend	-10059
▁vendors	-10060
▁viewers	-10061
▁Governor	-10062
▁Scotland	-10063
▁disabled	-10064
▁marijuana	-10065
▁virtually	-10066
▁publishing	-10067
▁importantly	-10068
FA	-10069
VI	-10070
cd	-10071
Add	-10072
cor	-10073
nan	-10074
rox	-10075
▁00	-10076
▁41	-10077
▁cm	-10078
addy	-10079
gins	-10080
▁250	-10081
▁gym	-10082
Click	-10083
herry	-10084
nDate	-10085
piece	-10086
utter	-10087
▁Fame	-10088
▁Gene	-10089
▁scar	-10090
▁tube	-10091
anches	-10092
azines	-10093
estone	-10094
ichael	-10095
▁1-800	-10096
▁codes	-10097
▁false	-10098
▁quilt	-10099
▁towns	-10100
▁losses	-10101
▁prints	-10102
▁reveal	-10103
▁roster	-10104
▁burning	-10105
▁demands	-10106
▁exhaust	-10107
▁fingers	-10108
▁footage	-10109
▁preview	-10110
▁subsequ	-10111
▁accompan	-10112
▁freshman	-10113
▁governor	-10114
▁indicate	-10115
▁studying	-10116
istributed	-10117
▁impressed	-10118
▁reporters	-10119
▁Performance	-10120
▁appreciated	-10121
▁celebrating	-10122
▁exceptional	-10123
▁restrictions	-10124
▁extraordinary	-10125
uh	-10126
aka	-10127
nAv	-10128
uct	-10129
olar	-10130
▁Agr	-10131
▁Ark	-10132
▁ERA	-10133
▁GOP	-10134
▁Ide	-10135
▁Sug	-10136
early	-10137
nHigh	-10138
▁Drug	-10139
▁bron	-10140
▁shit	-10141
▁tort	-10142
▁wise	-10143
▁Wayne	-10144
▁aimed	-10145
▁compr	-10146
▁hyper	-10147
▁roots	-10148
ounding	-10149
▁Walker	-10150
▁funded	-10151
▁inning	-10152
▁tackle	-10153
▁Content	-10154
▁Mexican	-10155
▁Samsung	-10156
▁amounts	-10157
▁buttons	-10158
▁credits	-10159
▁durable	-10160
▁visible	-10161
▁enhanced	-10162
▁terrible	-10163
▁veterans	-10164
▁WordPress	-10165
▁associate	-10166
▁contacted	-10167
▁hospitals	-10168
▁intention	-10169
▁platforms	-10170
▁recipient	-10171
▁approaches	-10172
▁electrical	-10173
▁excitement	-10174
▁maintained	-10175
▁appearances	-10176
▁medications	-10177
▁represented	-10178
▁publications	-10179
47	-10180
DC	-10181
mic	-10182
oam	-10183
oust	-10184
rets	-10185
usal	-10186
what	-10187
▁Der	-10188
▁Fer	-10189
anked	-10190
annah	-10191
brook	-10192
icals	-10193
omore	-10194
storm	-10195
▁Anna	-10196
▁Body	-10197
▁Cars	-10198
▁Laur	-10199
▁gate	-10200
▁isol	-10201
▁keys	-10202
▁worn	-10203
encing	-10204
▁Delhi	-10205
▁Sweet	-10206
▁Veter	-10207
▁alert	-10208
▁brace	-10209
▁cheer	-10210
▁knife	-10211
▁shock	-10212
▁smell	-10213
imental	-10214
nSearch	-10215
ruption	-10216
western	-10217
▁Nature	-10218
▁deeply	-10219
▁donate	-10220
▁exceed	-10221
aughters	-10222
outheast	-10223
▁Despite	-10224
▁neither	-10225
▁premier	-10226
▁servers	-10227
▁venture	-10228
▁ministry	-10229
▁districts	-10230
▁producers	-10231
▁residence	-10232
▁trademark	-10233
▁compliment	-10234
▁electricity	-10235
Hz	-10236
OB	-10237
010	-10238
TON	-10239
▁>\	-10240
▁Po	-10241
beat	-10242
ieve	-10243
nPat	-10244
owed	-10245
▁Gib	-10246
▁Hud	-10247
▁Kit	-10248
▁Nav	-10249
▁mic	-10250
▁Brid	-10251
▁Five	-10252
▁Unit	-10253
Donald	-10254
ellite	-10255
master	-10256
▁Trail	-10257
▁piano	-10258
▁tries	-10259
ropical	-10260
▁Castle	-10261
▁Dakota	-10262
▁Source	-10263
▁prizes	-10264
nTuesday	-10265
▁Details	-10266
▁Finance	-10267
▁Phoenix	-10268
▁Weather	-10269
▁banking	-10270
▁editing	-10271
▁heavily	-10272
▁Archives	-10273
▁applying	-10274
▁colleges	-10275
▁entrance	-10276
▁throwing	-10277
nPublished	-10278
▁Charlotte	-10279
▁discovery	-10280
▁sensitive	-10281
▁Convention	-10282
▁definition	-10283
▁settlement	-10284
▁entertaining	-10285
▁prescription	-10286
▁satisfaction	-10287
)||	-10288
Ste	-10289
▁Ga	-10290
arms	-10291
mith	-10292
▁ESP	-10293
▁Joy	-10294
▁Nut	-10295
▁Pad	-10296
▁Pas	-10297
▁Tru	-10298
▁cam	-10299
▁jur	-10300
▁mph	-10301
amics	-10302
nPart	-10303
ocial	-10304
oting	-10305
otive	-10306
tical	-10307
▁Beck	-10308
▁Belg	-10309
▁Chel	-10310
▁Corn	-10311
▁Reds	-10312
▁Sean	-10313
▁Song	-10314
▁dess	-10315
▁exit	-10316
arring	-10317
atured	-10318
ceived	-10319
ifting	-10320
ottest	-10321
▁Clear	-10322
▁bacon	-10323
▁fault	-10324
▁slide	-10325
▁virus	-10326
ivalent	-10327
▁Albert	-10328
▁escape	-10329
▁heaven	-10330
▁suffer	-10331
▁Baptist	-10332
▁deserve	-10333
▁exposed	-10334
▁printer	-10335
▁shortly	-10336
▁studied	-10337
▁Creative	-10338
▁episodes	-10339
▁operated	-10340
▁naturally	-10341
▁fundamental	-10342
ALL	-10343
aux	-10344
oft	-10345
pay	-10346
ugg	-10347
▁BE	-10348
Just	-10349
Well	-10350
door	-10351
mate	-10352
okia	-10353
onda	-10354
▁350	-10355
▁Cry	-10356
▁Put	-10357
▁tox	-10358
books	-10359
igate	-10360
unate	-10361
utors	-10362
▁Comb	-10363
▁Math	-10364
▁Poly	-10365
▁porn	-10366
▁stem	-10367
▁wing	-10368
irates	-10369
▁Carib	-10370
▁Prize	-10371
▁enemy	-10372
▁Hotels	-10373
▁Scient	-10374
▁Simply	-10375
▁Turkey	-10376
▁indoor	-10377
▁panels	-10378
▁twenty	-10379
arehouse	-10380
unicipal	-10381
▁Premier	-10382
▁chronic	-10383
▁Advanced	-10384
▁assigned	-10385
▁channels	-10386
▁gathered	-10387
▁Manhattan	-10388
▁interpret	-10389
▁secondary	-10390
▁BlackBerry	-10391
▁engagement	-10392
▁governments	-10393
▁spectacular	-10394
.3	-10395
01	-10396
vo	-10397
yd	-10398
ASH	-10399
ICE	-10400
iah	-10401
una	-10402
▁WW	-10403
▁||	-10404
atar	-10405
nSim	-10406
stop	-10407
▁360	-10408
▁Dri	-10409
▁Kay	-10410
▁Moh	-10411
cThey	-10412
icked	-10413
owing	-10414
shirt	-10415
▁1960	-10416
▁Bond	-10417
▁Lock	-10418
▁Prin	-10419
▁fake	-10420
▁vine	-10421
mother	-10422
rowing	-10423
▁Larry	-10424
▁elder	-10425
▁stood	-10426
▁threw	-10427
nMonday	-10428
section	-10429
▁deeper	-10430
▁gender	-10431
▁horses	-10432
▁labels	-10433
▁margin	-10434
▁module	-10435
▁engines	-10436
▁harvest	-10437
▁stylish	-10438
▁subsidi	-10439
▁summary	-10440
▁Broadway	-10441
▁Remember	-10442
▁balanced	-10443
▁calories	-10444
▁mistakes	-10445
▁semester	-10446
▁unlikely	-10447
▁abilities	-10448
▁exploring	-10449
▁initially	-10450
▁compliance	-10451
▁literature	-10452
▁passengers	-10453
▁certificate	-10454
▁communicate	-10455
▁administrator	-10456
▁controversial	-10457
KS	-10458
NS	-10459
PP	-10460
TE	-10461
nal	-10462
nut	-10463
▁0\	-10464
▁Ah	-10465
abil	-10466
cthe	-10467
cycl	-10468
olen	-10469
ooks	-10470
rock	-10471
wind	-10472
▁$50	-10473
▁alt	-10474
▁pip	-10475
eland	-10476
oding	-10477
pense	-10478
riber	-10479
▁Beat	-10480
▁Mall	-10481
▁Side	-10482
asting	-10483
cThere	-10484
heimer	-10485
oppers	-10486
▁Grant	-10487
▁Happy	-10488
▁Links	-10489
▁bikes	-10490
▁hired	-10491
▁humor	-10492
▁minds	-10493
▁semin	-10494
▁surge	-10495
▁wines	-10496
▁comics	-10497
▁folder	-10498
▁immigr	-10499
▁lawyer	-10500
▁locate	-10501
▁Univers	-10502
▁carrier	-10503
▁divided	-10504
▁fantasy	-10505
▁healing	-10506
▁minimal	-10507
▁Economic	-10508
▁promised	-10509
▁Assistant	-10510
▁campaigns	-10511
▁delivering	-10512
▁promotional	-10513
▁introduction	-10514
Do	-10515
HD	-10516
Us	-10517
uj	-10518
ITE	-10519
▁IM	-10520
▁Sa	-10521
anie	-10522
bing	-10523
cYou	-10524
cats	-10525
home	-10526
kees	-10527
pack	-10528
quet	-10529
▁Eth	-10530
▁NEW	-10531
▁Nap	-10532
▁Pap	-10533
▁sed	-10534
/2012	-10535
agram	-10536
apore	-10537
otion	-10538
▁Budd	-10539
▁Hong	-10540
▁Jere	-10541
▁Sale	-10542
▁Trip	-10543
▁chip	-10544
▁peak	-10545
▁wrap	-10546
▁2010.	-10547
▁Scout	-10548
▁cabin	-10549
▁dried	-10550
▁parks	-10551
▁paste	-10552
▁Animal	-10553
▁Double	-10554
▁Effect	-10555
▁Proper	-10556
▁curric	-10557
▁handed	-10558
▁figured	-10559
▁Features	-10560
▁captured	-10561
▁commonly	-10562
▁deadline	-10563
▁diseases	-10564
▁optional	-10565
vironments	-10566
▁lawmakers	-10567
▁Christopher	-10568
▁coordinator	-10569
▁institution	-10570
▁investments	-10571
▁disappointed	-10572
.2	-10573
.4	-10574
CP	-10575
EB	-10576
▁?	-10577
cho	-10578
▁68	-10579
▁Bh	-10580
▁DJ	-10581
emed	-10582
ilet	-10583
mons	-10584
nAut	-10585
▁BBC	-10586
▁Bou	-10587
▁aer	-10588
▁roy	-10589
acent	-10590
nKeep	-10591
speed	-10592
▁1000	-10593
▁Cash	-10594
▁Conc	-10595
▁quar	-10596
▁toll	-10597
reedom	-10598
▁Final	-10599
▁Nancy	-10600
▁Quick	-10601
▁gains	-10602
▁lease	-10603
▁onion	-10604
intendo	-10605
nFriday	-10606
urchase	-10607
▁Create	-10608
▁wooden	-10609
▁Islamic	-10610
▁Ontario	-10611
▁Philipp	-10612
▁captain	-10613
▁violent	-10614
▁Complete	-10615
▁Planning	-10616
▁courtesy	-10617
▁phenomen	-10618
▁referred	-10619
▁striking	-10620
▁elections	-10621
▁concerning	-10622
▁flexibility	-10623
▁occasionally	-10624
▁photographer	-10625
76	-10626
RO	-10627
VP	-10628
ez	-10629
ESS	-10630
Sub	-10631
don	-10632
fly	-10633
gun	-10634
ori	-10635
rep	-10636
▁51	-10637
▁SW	-10638
esty	-10639
heat	-10640
nMan	-10641
quer	-10642
zens	-10643
▁(10	-10644
▁Beh	-10645
▁CBS	-10646
▁Gab	-10647
▁Hus	-10648
Tunes	-10649
agine	-10650
nBoth	-10651
nNews	-10652
stick	-10653
▁Dise	-10654
▁Nurs	-10655
▁Race	-10656
▁THIS	-10657
▁beds	-10658
▁hood	-10659
▁sour	-10660
acious	-10661
istent	-10662
ported	-10663
uminum	-10664
▁Girls	-10665
▁Image	-10666
▁Jerry	-10667
▁aband	-10668
▁withd	-10669
atively	-10670
▁Legisl	-10671
▁Spirit	-10672
▁dispos	-10673
▁frozen	-10674
▁garage	-10675
▁sculpt	-10676
itations	-10677
nBecause	-10678
▁Diamond	-10679
▁Reserve	-10680
▁formula	-10681
▁rolling	-10682
▁vanilla	-10683
▁watches	-10684
nThursday	-10685
▁Everyone	-10686
▁concrete	-10687
▁counties	-10688
▁emerging	-10689
▁listings	-10690
▁correctly	-10691
▁introduce	-10692
▁responses	-10693
▁arrangements	-10694
▁respectively	-10695
▁presentations	-10696
/7	-10697
08	-10698
93	-10699
NC	-10700
IST	-10701
oof	-10702
▁:\	-10703
▁TX	-10704
even	-10705
olid	-10706
▁>>\	-10707
▁Amy	-10708
▁Dom	-10709
▁Six	-10710
▁lbs	-10711
ailed	-10712
ierce	-10713
nCall	-10714
reach	-10715
stock	-10716
▁aims	-10717
▁gran	-10718
▁lung	-10719
▁pose	-10720
asures	-10721
nApril	-10722
stract	-10723
▁Innov	-10724
▁Intel	-10725
▁medal	-10726
▁ranks	-10727
▁rated	-10728
▁reven	-10729
▁stops	-10730
▁teens	-10731
▁twist	-10732
berries	-10733
▁Advent	-10734
▁Giants	-10735
▁buyers	-10736
▁compos	-10737
▁exists	-10738
▁occurs	-10739
▁puzzle	-10740
▁Liberty	-10741
▁painted	-10742
▁Alliance	-10743
▁Marshall	-10744
▁adoption	-10745
▁expenses	-10746
▁expanding	-10747
▁uncertain	-10748
▁applicable	-10749
▁compatible	-10750
▁depression	-10751
▁explanation	-10752
▁Thanksgiving	-10753
1/2	-10754
onz	-10755
eled	-10756
ickr	-10757
nRel	-10758
nTop	-10759
rous	-10760
▁$12	-10761
▁3.5	-10762
▁maj	-10763
aceut	-10764
eness	-10765
ivals	-10766
limin	-10767
nStep	-10768
ugust	-10769
▁1995	-10770
▁Lisa	-10771
▁Pers	-10772
▁buzz	-10773
strong	-10774
▁Homes	-10775
▁Tampa	-10776
▁alike	-10777
▁crack	-10778
▁distr	-10779
▁laser	-10780
isation	-10781
▁2011.\	-10782
▁Employ	-10783
▁Estate	-10784
▁babies	-10785
▁checks	-10786
▁scream	-10787
▁wheels	-10788
▁Address	-10789
▁beaches	-10790
▁beating	-10791
▁fiction	-10792
▁periods	-10793
▁Brooklyn	-10794
▁Interest	-10795
▁Jonathan	-10796
▁measured	-10797
▁overview	-10798
▁sleeping	-10799
▁chemicals	-10800
▁expecting	-10801
▁gathering	-10802
▁spiritual	-10803
▁protecting	-10804
▁specialist	-10805
▁acquisition	-10806
▁quarterback	-10807
▁conventional	-10808
.:	-10809
fa	-10810
Ind	-10811
Med	-10812
Net	-10813
fox	-10814
ols	-10815
▁AF	-10816
▁Hu	-10817
asty	-10818
burn	-10819
onde	-10820
reck	-10821
ummy	-10822
▁Dry	-10823
▁Gov	-10824
▁gap	-10825
isdom	-10826
▁Coun	-10827
▁Gary	-10828
▁Gree	-10829
▁Stay	-10830
▁bulk	-10831
▁chol	-10832
▁dipl	-10833
▁pond	-10834
▁vert	-10835
▁yoga	-10836
ountry	-10837
ousing	-10838
tended	-10839
▁Cream	-10840
▁Death	-10841
▁Paper	-10842
▁Woods	-10843
▁acres	-10844
▁rally	-10845
▁ruled	-10846
▁teeth	-10847
▁tires	-10848
▁winds	-10849
▁Doctor	-10850
▁Method	-10851
▁Single	-10852
▁agenda	-10853
▁desert	-10854
▁floors	-10855
▁gentle	-10856
▁ladies	-10857
▁stupid	-10858
▁dancing	-10859
▁deficit	-10860
▁endorse	-10861
▁restore	-10862
▁worship	-10863
▁precious	-10864
▁Architect	-10865
▁existence	-10866
▁nonprofit	-10867
▁directions	-10868
▁consumption	-10869
▁involvement	-10870
▁Transportation	-10871
BL	-10872
KE	-10873
UE	-10874
Cal	-10875
Mar	-10876
cca	-10877
emb	-10878
iox	-10879
oca	-10880
opt	-10881
▁52	-10882
▁BL	-10883
▁FO	-10884
▁NE	-10885
▁ft	-10886
****	-10887
acon	-10888
ders	-10889
lett	-10890
▁Ted	-10891
▁Vin	-10892
▁iOS	-10893
▁sne	-10894
uplic	-10895
utral	-10896
▁Meet	-10897
▁Sure	-10898
▁adap	-10899
▁hire	-10900
ervice	-10901
father	-10902
nVisit	-10903
ounces	-10904
▁1,000	-10905
▁Oscar	-10906
▁drops	-10907
▁scrap	-10908
▁suite	-10909
▁uncle	-10910
▁waist	-10911
duction	-10912
selling	-10913
▁Battle	-10914
▁boring	-10915
▁eighth	-10916
▁layout	-10917
▁locked	-10918
▁refres	-10919
▁transf	-10920
▁Quality	-10921
▁arrival	-10922
▁suicide	-10923
▁Consumer	-10924
▁Industry	-10925
▁Thompson	-10926
▁analysts	-10927
▁financing	-10928
▁magazines	-10929
▁recession	-10930
▁complicated	-10931
07	-10932
ds	-10933
URE	-10934
aho	-10935
imm	-10936
lla	-10937
oks	-10938
udy	-10939
▁1-	-10940
▁Ow	-10941
airy	-10942
aved	-10943
best	-10944
elta	-10945
enny	-10946
etta	-10947
ogen	-10948
▁Aid	-10949
▁Imp	-10950
▁Zoo	-10951
uerto	-10952
▁1998	-10953
▁Anne	-10954
▁Norm	-10955
▁Prot	-10956
▁Todd	-10957
▁pics	-10958
▁unve	-10959
incinn	-10960
▁2004,	-10961
▁Griff	-10962
▁Jimmy	-10963
▁Short	-10964
▁Title	-10965
▁angle	-10966
▁embed	-10967
▁handy	-10968
▁rehab	-10969
▁ridic	-10970
▁shelf	-10971
▁Excell	-10972
▁Muslim	-10973
▁carpet	-10974
▁danger	-10975
▁denied	-10976
▁iTunes	-10977
▁muscle	-10978
▁myster	-10979
▁permit	-10980
▁wishes	-10981
▁Process	-10982
▁ceiling	-10983
▁costume	-10984
▁fastest	-10985
▁flavors	-10986
▁nursing	-10987
▁qualify	-10988
ropolitan	-10989
▁choosing	-10990
▁climbing	-10991
▁ensuring	-10992
▁grateful	-10993
▁ordering	-10994
▁graduated	-10995
▁processor	-10996
▁customized	-10997
▁equivalent	-10998
▁representing	-10999
▁reservations	-11000
▁identification	-11001
En	-11002
Fl	-11003
Or	-11004
400	-11005
Jan	-11006
era	-11007
▁#1	-11008
▁..	-11009
▁CM	-11010
Date	-11011
nOff	-11012
unks	-11013
▁50%	-11014
▁RBI	-11015
▁din	-11016
▁Boys	-11017
▁hadn	-11018
▁tune	-11019
arlier	-11020
omatic	-11021
ptions	-11022
urches	-11023
▁Arena	-11024
▁Clean	-11025
▁Cover	-11026
▁Initi	-11027
▁Islam	-11028
▁Print	-11029
▁Round	-11030
▁annoy	-11031
▁enorm	-11032
▁pursu	-11033
▁react	-11034
urities	-11035
▁10,000	-11036
▁Carter	-11037
▁Update	-11038
▁Victor	-11039
▁barrel	-11040
▁dealer	-11041
▁hearts	-11042
▁inject	-11043
▁loaded	-11044
▁preced	-11045
▁pursue	-11046
▁solely	-11047
▁versus	-11048
nDespite	-11049
▁heating	-11050
▁mystery	-11051
▁roughly	-11052
▁Hamilton	-11053
▁annually	-11054
▁stopping	-11055
▁survival	-11056
nWednesday	-11057
▁Caribbean	-11058
▁emissions	-11059
▁framework	-11060
▁commentary	-11061
▁industries	-11062
▁demonstrate	-11063
▁merchandise	-11064
▁environments	-11065
PG	-11066
Day	-11067
ECT	-11068
cos	-11069
erk	-11070
ito	-11071
nGu	-11072
nst	-11073
▁"[	-11074
▁TD	-11075
Here	-11076
iary	-11077
itol	-11078
lies	-11079
▁30-	-11080
▁Age	-11081
▁Alb	-11082
▁Nev	-11083
▁Var	-11084
▁pad	-11085
▁soy	-11086
angle	-11087
netic	-11088
▁Hend	-11089
▁Mini	-11090
▁Send	-11091
▁bail	-11092
▁obst	-11093
▁zero	-11094
ultane	-11095
▁Being	-11096
▁Build	-11097
▁alleg	-11098
▁legit	-11099
esterol	-11100
▁Images	-11101
▁Potter	-11102
▁basket	-11103
▁hiring	-11104
▁titled	-11105
▁Further	-11106
▁Holiday	-11107
▁Morning	-11108
▁Reuters	-11109
▁devoted	-11110
▁hunting	-11111
▁seating	-11112
▁seniors	-11113
incinnati	-11114
▁claiming	-11115
▁defeated	-11116
▁batteries	-11117
▁boyfriend	-11118
▁delighted	-11119
▁elsewhere	-11120
▁employers	-11121
▁offerings	-11122
▁difficulty	-11123
▁structures	-11124
▁substitute	-11125
▁trademarks	-11126
▁accompanied	-11127
▁essentially	-11128
▁Registration	-11129
09	-11130
42	-11131
79	-11132
VA	-11133
1.\	-11134
OST	-11135
▁43	-11136
▁Fa	-11137
▁ru	-11138
nDid	-11139
oons	-11140
▁MLB	-11141
▁arr	-11142
amous	-11143
lined	-11144
nGood	-11145
ushes	-11146
ython	-11147
▁belt	-11148
▁panc	-11149
ishers	-11150
urious	-11151
▁2006,	-11152
▁Benef	-11153
▁Cable	-11154
▁Perry	-11155
▁fragr	-11156
▁inaug	-11157
▁lobby	-11158
▁wider	-11159
ategory	-11160
pending	-11161
▁Future	-11162
▁Morgan	-11163
▁backed	-11164
▁counts	-11165
▁lately	-11166
ologists	-11167
▁Fashion	-11168
▁Install	-11169
▁applies	-11170
▁blocked	-11171
▁charity	-11172
▁handful	-11173
▁landing	-11174
ictionary	-11175
▁Franklin	-11176
▁exterior	-11177
▁Hurricane	-11178
▁Technical	-11179
▁frequency	-11180
▁infection	-11181
▁integrity	-11182
▁legendary	-11183
▁packaging	-11184
▁Additional	-11185
▁Everything	-11186
▁Leadership	-11187
▁designated	-11188
▁philosophy	-11189
▁treatments	-11190
▁competitors	-11191
▁generations	-11192
.;	-11193
82	-11194
jo	-11195
sl	-11196
Bul	-11197
Che	-11198
Yes	-11199
cIf	-11200
cal	-11201
hou	-11202
ibl	-11203
opy	-11204
ped	-11205
▁IL	-11206
▁Om	-11207
acco	-11208
cend	-11209
conf	-11210
nArt	-11211
news	-11212
▁$2.	-11213
▁Hal	-11214
▁Hop	-11215
▁Mit	-11216
▁Neb	-11217
▁Tok	-11218
▁Wii	-11219
After	-11220
aukee	-11221
nthat	-11222
pract	-11223
▁1950	-11224
▁ESPN	-11225
▁Pent	-11226
▁Prop	-11227
▁pour	-11228
imedia	-11229
orious	-11230
▁Clark	-11231
▁Impro	-11232
▁edges	-11233
▁laund	-11234
▁waves	-11235
ambling	-11236
▁hybrid	-11237
▁receip	-11238
▁traged	-11239
appropri	-11240
nWhether	-11241
▁Chelsea	-11242
▁apparel	-11243
▁inspire	-11244
▁islands	-11245
▁theatre	-11246
▁wrapped	-11247
ationally	-11248
▁Agricult	-11249
▁blogging	-11250
▁emphasis	-11251
▁diagnosed	-11252
▁diagnosis	-11253
▁encounter	-11254
▁curriculum	-11255
▁transaction	-11256
▁intellectual	-11257
46	-11258
Sp	-11259
!)\	-11260
ORT	-11261
OUR	-11262
esh	-11263
han	-11264
||\	-11265
▁56	-11266
▁DE	-11267
▁GO	-11268
card	-11269
ilst	-11270
ntil	-11271
othy	-11272
quis	-11273
udes	-11274
umbl	-11275
▁Alt	-11276
▁BMW	-11277
▁Lic	-11278
▁Lot	-11279
▁Wee	-11280
▁lap	-11281
▁tsp	-11282
▁unp	-11283
▁zip	-11284
ecome	-11285
ifier	-11286
nMark	-11287
nMean	-11288
▁1996	-11289
▁Beth	-11290
▁Hans	-11291
▁cous	-11292
▁migr	-11293
▁nuts	-11294
▁prev	-11295
▁sits	-11296
effect	-11297
itched	-11298
nSorry	-11299
▁Chair	-11300
▁colon	-11301
▁prest	-11302
▁sweep	-11303
fielder	-11304
pection	-11305
▁Beauty	-11306
▁Dragon	-11307
▁Easter	-11308
▁Photos	-11309
▁Rating	-11310
▁actors	-11311
▁honors	-11312
▁oxygen	-11313
▁sacrif	-11314
▁salary	-11315
▁Madison	-11316
▁Nothing	-11317
▁Yankees	-11318
▁disturb	-11319
▁nations	-11320
▁segment	-11321
▁abortion	-11322
▁actively	-11323
▁checkout	-11324
▁declared	-11325
▁dialogue	-11326
▁modified	-11327
▁celebrity	-11328
▁daughters	-11329
▁proposals	-11330
▁downloaded	-11331
▁accomplished	-11332
▁administrative	-11333
▁recommendation	-11334
83	-11335
Gu	-11336
gor	-11337
nEm	-11338
oat	-11339
▁(9	-11340
▁CC	-11341
▁Mu	-11342
▁Wa	-11343
nHer	-11344
nSec	-11345
plus	-11346
post	-11347
▁(\"	-11348
▁Bab	-11349
▁Gil	-11350
▁Job	-11351
▁Les	-11352
▁NBC	-11353
▁Rio	-11354
▁Rot	-11355
▁Row	-11356
▁Syd	-11357
▁kil	-11358
ifted	-11359
track	-11360
▁$500	-11361
▁Cant	-11362
▁Fish	-11363
▁HTML	-11364
▁Parl	-11365
▁bout	-11366
▁pine	-11367
▁sail	-11368
▁tale	-11369
nStart	-11370
nUnder	-11371
vation	-11372
waukee	-11373
▁Honey	-11374
▁Lions	-11375
▁Magic	-11376
▁Total	-11377
▁Touch	-11378
▁Tyler	-11379
▁grace	-11380
▁uncom	-11381
rection	-11382
▁Campus	-11383
▁Puerto	-11384
▁Wright	-11385
▁fallen	-11386
▁rarely	-11387
▁speaks	-11388
▁trails	-11389
▁Islands	-11390
▁Profile	-11391
▁Reports	-11392
▁Results	-11393
▁booking	-11394
▁outcome	-11395
▁placing	-11396
▁publish	-11397
▁rapidly	-11398
▁recruit	-11399
▁Ministry	-11400
▁employer	-11401
▁premiere	-11402
▁thousand	-11403
▁Southwest	-11404
▁Valentine	-11405
▁objective	-11406
▁operators	-11407
▁pollution	-11408
▁specialty	-11409
▁attendance	-11410
▁complaints	-11411
▁continuous	-11412
▁encouraging	-11413
▁specifications	-11414
▁characteristics	-11415
ii	-11416
-17	-11417
iva	-11418
nFl	-11419
nas	-11420
ova	-11421
urg	-11422
▁3\	-11423
▁47	-11424
▁EC	-11425
▁TR	-11426
shot	-11427
tics	-11428
▁Bat	-11429
▁Fly	-11430
▁Kar	-11431
▁Too	-11432
▁pig	-11433
izard	-11434
quest	-11435
usive	-11436
▁Sent	-11437
▁aged	-11438
▁calm	-11439
▁joke	-11440
▁pear	-11441
▁seal	-11442
▁suck	-11443
author	-11444
charge	-11445
lected	-11446
nStill	-11447
nThose	-11448
▁Barry	-11449
▁Blues	-11450
▁Chase	-11451
▁Nokia	-11452
▁Robin	-11453
▁alter	-11454
▁brack	-11455
▁comed	-11456
▁crown	-11457
▁fluid	-11458
▁helic	-11459
▁innoc	-11460
▁polls	-11461
avorite	-11462
enities	-11463
▁Harbor	-11464
▁Orland	-11465
▁Weight	-11466
▁cruise	-11467
▁deaths	-11468
▁jumped	-11469
▁stolen	-11470
▁timely	-11471
▁treats	-11472
▁warned	-11473
▁Finally	-11474
▁anybody	-11475
▁curious	-11476
▁grocery	-11477
▁Commerce	-11478
▁Heritage	-11479
▁Resource	-11480
▁giveaway	-11481
▁observed	-11482
▁opponent	-11483
▁licensing	-11484
▁neighbors	-11485
▁collecting	-11486
▁resistance	-11487
▁strengthen	-11488
▁accommodate	-11489
▁compensation	-11490
▁demonstrated	-11491
/5	-11492
IO	-11493
MP	-11494
wa	-11495
gom	-11496
rob	-11497
van	-11498
was	-11499
▁Az	-11500
▁Wy	-11501
bbed	-11502
enna	-11503
fund	-11504
hard	-11505
iger	-11506
only	-11507
uman	-11508
vity	-11509
▁12-	-11510
▁3/4	-11511
▁Gay	-11512
▁Mas	-11513
▁gig	-11514
break	-11515
first	-11516
▁Desk	-11517
▁Jake	-11518
▁Jeep	-11519
▁LOVE	-11520
▁leak	-11521
▁penc	-11522
▁rack	-11523
prises	-11524
school	-11525
▁Grove	-11526
▁Mater	-11527
▁nurse	-11528
▁toler	-11529
leyball	-11530
manship	-11531
nCustom	-11532
▁Malays	-11533
▁accord	-11534
▁dozens	-11535
▁extent	-11536
▁landed	-11537
▁mathem	-11538
▁priced	-11539
▁stones	-11540
communic	-11541
▁Section	-11542
▁Tribune	-11543
▁archive	-11544
▁cancell	-11545
▁colored	-11546
▁funeral	-11547
▁magical	-11548
▁resolve	-11549
▁Assembly	-11550
▁Columbus	-11551
▁branches	-11552
▁evaluate	-11553
▁overseas	-11554
▁produces	-11555
▁profiles	-11556
▁addressed	-11557
▁competing	-11558
▁destroyed	-11559
▁detection	-11560
▁eliminate	-11561
▁selecting	-11562
▁apartments	-11563
▁completing	-11564
▁convention	-11565
SW	-11566
vd	-11567
nGr	-11568
nSp	-11569
ugs	-11570
▁)\	-11571
▁BY	-11572
▁IV	-11573
bled	-11574
cure	-11575
hill	-11576
wall	-11577
▁Ble	-11578
▁Occ	-11579
nInst	-11580
▁Duke	-11581
▁Java	-11582
▁Mars	-11583
▁Mitt	-11584
▁Rent	-11585
▁bund	-11586
▁disk	-11587
▁grid	-11588
▁spam	-11589
achers	-11590
unches	-11591
▁Bring	-11592
▁Mason	-11593
▁Pharm	-11594
▁cater	-11595
▁explo	-11596
▁mouse	-11597
▁pasta	-11598
▁snack	-11599
▁sweat	-11600
▁Peters	-11601
▁belief	-11602
▁hardly	-11603
▁latter	-11604
fighters	-11605
▁Oakland	-11606
▁absence	-11607
▁assured	-11608
▁somehow	-11609
reational	-11610
▁Programs	-11611
▁operator	-11612
▁Louisiana	-11613
▁anonymous	-11614
▁directors	-11615
▁inspiring	-11616
▁instantly	-11617
▁rewritten	-11618
▁territory	-11619
▁vegetable	-11620
▁versatile	-11621
▁Basketball	-11622
▁Cincinnati	-11623
▁supporters	-11624
▁surrounded	-11625
▁electronics	-11626
▁fascinating	-11627
▁configuration	-11628
49	-11629
MD	-11630
tw	-11631
INE	-11632
Res	-11633
adi	-11634
aki	-11635
nex	-11636
vit	-11637
▁Kl	-11638
2000	-11639
Time	-11640
anga	-11641
ivic	-11642
uits	-11643
▁Bee	-11644
▁Lie	-11645
▁Roc	-11646
▁Tan	-11647
▁ank	-11648
▁cub	-11649
▁dil	-11650
▁fed	-11651
▁hub	-11652
aders	-11653
eters	-11654
maker	-11655
white	-11656
▁Anim	-11657
▁Crit	-11658
▁Lion	-11659
▁Mean	-11660
▁Tell	-11661
▁Tips	-11662
▁Turk	-11663
▁Vill	-11664
▁dose	-11665
▁dump	-11666
▁fert	-11667
▁nick	-11668
▁pork	-11669
▁rust	-11670
▁sons	-11671
▁yarn	-11672
▁Prior	-11673
▁Trial	-11674
▁cliff	-11675
▁disag	-11676
▁seeks	-11677
nDirect	-11678
▁Guaran	-11679
▁Integr	-11680
▁Record	-11681
▁Visual	-11682
▁Warren	-11683
▁bacter	-11684
▁charts	-11685
▁compan	-11686
▁onions	-11687
▁riders	-11688
▁rolled	-11689
▁strips	-11690
atherine	-11691
▁Coordin	-11692
▁Rangers	-11693
▁Working	-11694
▁affairs	-11695
▁beloved	-11696
▁bottles	-11697
▁expects	-11698
▁fabrics	-11699
▁formats	-11700
▁Language	-11701
▁generous	-11702
▁proceeds	-11703
▁reserves	-11704
▁Alexander	-11705
▁Singapore	-11706
▁followers	-11707
▁headlines	-11708
▁streaming	-11709
▁authorized	-11710
▁complement	-11711
▁investigating	-11712
89	-11713
UP	-11714
-25	-11715
ANT	-11716
Can	-11717
inf	-11718
nre	-11719
▁VA	-11720
====	-11721
gate	-11722
kers	-11723
olas	-11724
onic	-11725
▁20%	-11726
▁Dub	-11727
▁Hat	-11728
▁Tea	-11729
▁gal	-11730
.....	-11731
atest	-11732
attoo	-11733
isure	-11734
nOpen	-11735
umblr	-11736
union	-11737
▁Circ	-11738
▁Kind	-11739
▁Prim	-11740
▁Rail	-11741
▁Salt	-11742
▁Such	-11743
▁anch	-11744
▁exch	-11745
▁hunt	-11746
▁rush	-11747
▁slip	-11748
▁ster	-11749
isting	-11750
ustain	-11751
▁Alice	-11752
▁Ridge	-11753
▁apple	-11754
▁charm	-11755
▁nutri	-11756
▁overs	-11757
▁stere	-11758
ishment	-11759
▁Course	-11760
▁Donald	-11761
▁Modern	-11762
▁Oxford	-11763
▁Recent	-11764
▁clever	-11765
▁grades	-11766
▁legacy	-11767
▁lovers	-11768
▁outfit	-11769
▁repeat	-11770
▁rubber	-11771
▁worker	-11772
▁Brandon	-11773
▁Release	-11774
▁cheaper	-11775
▁helicop	-11776
▁physics	-11777
▁pitcher	-11778
▁pockets	-11779
▁singles	-11780
▁Scholars	-11781
▁cinnamon	-11782
▁entitled	-11783
▁prospect	-11784
▁thrilled	-11785
▁prominent	-11786
▁stability	-11787
▁stainless	-11788
▁references	-11789
▁requirement	-11790
▁consequences	-11791
▁redistributed	-11792
'.	-11793
/1	-11794
?)	-11795
CAR	-11796
USA	-11797
\")	-11798
abs	-11799
agu	-11800
aya	-11801
bul	-11802
gra	-11803
nbe	-11804
pes	-11805
Orig	-11806
bian	-11807
inar	-11808
kind	-11809
okie	-11810
▁IRS	-11811
▁gam	-11812
▁hes	-11813
▁pix	-11814
found	-11815
heart	-11816
orted	-11817
ouses	-11818
raska	-11819
▁Bott	-11820
▁Juan	-11821
▁Kyle	-11822
▁Stri	-11823
▁cord	-11824
▁frag	-11825
▁myth	-11826
▁owns	-11827
▁rebu	-11828
ending	-11829
ippers	-11830
▁Bruce	-11831
▁Dodge	-11832
▁Domin	-11833
▁Early	-11834
▁adequ	-11835
▁greet	-11836
ository	-11837
▁Clinic	-11838
▁Hudson	-11839
▁Hunter	-11840
▁Person	-11841
▁Reader	-11842
▁Sydney	-11843
▁dental	-11844
▁shorts	-11845
▁stroke	-11846
........	-11847
liminary	-11848
▁Disease	-11849
▁Leonard	-11850
▁careers	-11851
▁circuit	-11852
▁decline	-11853
▁hottest	-11854
▁relaxed	-11855
▁sisters	-11856
▁tribute	-11857
▁Delivery	-11858
▁Montreal	-11859
▁distingu	-11860
▁ordinary	-11861
▁organize	-11862
▁outdoors	-11863
▁publicly	-11864
▁relating	-11865
▁spectrum	-11866
▁attempted	-11867
▁indicates	-11868
▁publisher	-11869
▁collective	-11870
▁passionate	-11871
▁sufficient	-11872
▁threatened	-11873
▁implemented	-11874
▁legislative	-11875
▁measurements	-11876
▁transactions	-11877
41	-11878
ji	-11879
-16	-11880
cIn	-11881
oyd	-11882
▁IC	-11883
▁Rs	-11884
▁tu	-11885
nWeb	-11886
tems	-11887
will	-11888
▁$1,	-11889
▁$30	-11890
▁Cos	-11891
▁Lam	-11892
These	-11893
click	-11894
ingle	-11895
issan	-11896
▁1997	-11897
▁Cany	-11898
▁Chef	-11899
▁Lane	-11900
▁Self	-11901
▁Wolf	-11902
▁beta	-11903
▁mask	-11904
▁tops	-11905
nPhoto	-11906
▁Aaron	-11907
▁Delta	-11908
▁picks	-11909
▁punch	-11910
▁scope	-11911
▁stays	-11912
playing	-11913
▁Knight	-11914
▁Making	-11915
▁Morris	-11916
▁Syrian	-11917
▁albums	-11918
▁crimes	-11919
▁killer	-11920
▁surviv	-11921
▁trucks	-11922
nFinally	-11923
▁Indones	-11924
▁grounds	-11925
▁ratings	-11926
▁vibrant	-11927
▁Academic	-11928
▁Michelle	-11929
▁Official	-11930
▁Palestin	-11931
▁supplier	-11932
nMeanwhile	-11933
▁Nashville	-11934
▁substance	-11935
▁Prevention	-11936
▁conclusion	-11937
▁consultant	-11938
▁objectives	-11939
▁beautifully	-11940
▁disabilities	-11941
▁negotiations	-11942
▁accommodation	-11943
▁investigators	-11944
Go	-11945
219	-11946
=\"	-11947
Eng	-11948
rot	-11949
▁8.	-11950
▁:-	-11951
▁PL	-11952
▁oh	-11953
2033	-11954
enez	-11955
gain	-11956
glas	-11957
turn	-11958
▁911	-11959
▁Dim	-11960
▁Hig	-11961
▁bes	-11962
▁thy	-11963
ancou	-11964
arest	-11965
ceive	-11966
depth	-11967
▁Ever	-11968
▁Stre	-11969
▁kiss	-11970
▁soap	-11971
▁tear	-11972
assion	-11973
ounced	-11974
▁Audio	-11975
▁Bobby	-11976
▁Chrys	-11977
▁Fresh	-11978
▁Years	-11979
▁cakes	-11980
▁cloth	-11981
▁pulls	-11982
nThough	-11983
▁Wonder	-11984
▁equity	-11985
▁gently	-11986
▁peanut	-11987
▁quoted	-11988
▁refere	-11989
▁runner	-11990
▁safely	-11991
▁serial	-11992
▁slides	-11993
▁trials	-11994
▁triple	-11995
ancouver	-11996
▁Foreign	-11997
▁Meeting	-11998
▁Vietnam	-11999
▁liberal	-12000
▁locally	-12001
▁romance	-12002
▁starter	-12003
▁threats	-12004
roduction	-12005
▁Nintendo	-12006
▁advocate	-12007
▁carriers	-12008
▁combines	-12009
▁engaging	-12010
▁frequent	-12011
▁rejected	-12012
▁sequence	-12013
▁audiences	-12014
▁broadband	-12015
▁opponents	-12016
▁satisfied	-12017
▁suppliers	-12018
▁classified	-12019
▁thoroughly	-12020
▁tremendous	-12021
▁understood	-12022
▁achievement	-12023
▁examination	-12024
▁exploration	-12025
06	-12026
4-	-12027
73	-12028
8)	-12029
MB	-12030
ML	-12031
wy	-12032
-05	-12033
enz	-12034
hma	-12035
ilm	-12036
rah	-12037
▁Lu	-12038
▁Mi	-12039
▁OH	-12040
▁ax	-12041
▁ok	-12042
▁pp	-12043
apse	-12044
held	-12045
nAss	-12046
nCar	-12047
▁$3.	-12048
▁Dra	-12049
▁UPS	-12050
▁fib	-12051
2019,	-12052
nHome	-12053
nNext	-12054
ospel	-12055
scale	-12056
▁Anti	-12057
▁File	-12058
▁Less	-12059
▁Poll	-12060
▁Rams	-12061
▁YOUR	-12062
▁demo	-12063
▁gene	-12064
▁hill	-12065
▁loop	-12066
▁quit	-12067
▁synd	-12068
ioneer	-12069
nQuest	-12070
▁2006\	-12071
▁Among	-12072
▁Idaho	-12073
▁Ranch	-12074
▁Syria	-12075
▁Terms	-12076
▁adopt	-12077
▁armed	-12078
▁booth	-12079
▁camps	-12080
▁drain	-12081
▁globe	-12082
▁grain	-12083
▁hilar	-12084
▁lands	-12085
▁rhyth	-12086
▁saves	-12087
unglass	-12088
▁Active	-12089
▁Graham	-12090
▁Screen	-12091
▁enjoys	-12092
▁meters	-12093
▁surely	-12094
▁Capitol	-12095
▁Freedom	-12096
▁Theater	-12097
▁handled	-12098
▁assembly	-12099
▁currency	-12100
▁receiver	-12101
▁universe	-12102
▁Argentina	-12103
▁forgotten	-12104
▁prospects	-12105
▁sentenced	-12106
▁simultane	-12107
▁excellence	-12108
▁meaningful	-12109
▁arrangement	-12110
▁consistently	-12111
CL	-12112
cW	-12113
ACK	-12114
ITH	-12115
chi	-12116
sub	-12117
▁4\	-12118
▁EN	-12119
▁VP	-12120
?\"\	-12121
acre	-12122
awks	-12123
half	-12124
mall	-12125
plex	-12126
pted	-12127
ront	-12128
▁GMT	-12129
▁Hur	-12130
▁spa	-12131
/2011	-12132
ateur	-12133
cWhat	-12134
etter	-12135
nCons	-12136
rigue	-12137
stage	-12138
▁7:30	-12139
▁Alan	-12140
▁Chev	-12141
▁Rice	-12142
▁Virt	-12143
▁Want	-12144
▁crop	-12145
▁ears	-12146
▁mall	-12147
▁pant	-12148
▁ramp	-12149
Friday	-12150
uisine	-12151
▁12:00	-12152
▁Crown	-12153
▁Tokyo	-12154
▁Train	-12155
▁jeans	-12156
▁sampl	-12157
▁shame	-12158
▁wrest	-12159
closure	-12160
inciple	-12161
▁Nevada	-12162
▁Summit	-12163
▁digest	-12164
▁insect	-12165
▁makeup	-12166
▁rivals	-12167
▁stitch	-12168
▁wisdom	-12169
▁Indians	-12170
▁Private	-12171
▁athlete	-12172
▁critics	-12173
▁elderly	-12174
▁highway	-12175
▁refused	-12176
itzerland	-12177
▁Electric	-12178
▁enormous	-12179
▁moderate	-12180
▁operates	-12181
▁overcome	-12182
▁reflects	-12183
▁removing	-12184
▁somebody	-12185
▁Orchestra	-12186
▁arguments	-12187
▁breathing	-12188
▁graduation	-12189
▁homeowners	-12190
▁physically	-12191
▁recruiting	-12192
▁experiments	-12193
▁highlighted	-12194
▁politicians	-12195
▁descriptions	-12196
▁certification	-12197
Am	-12198
Te	-12199
4.\	-12200
700	-12201
EAR	-12202
Per	-12203
dri	-12204
iov	-12205
itr	-12206
lan	-12207
▁Rd	-12208
Back	-12209
IGHT	-12210
▁Bah	-12211
▁Dal	-12212
▁Gas	-12213
▁Tol	-12214
▁eco	-12215
▁fet	-12216
2026.	-12217
erver	-12218
marks	-12219
phony	-12220
rogen	-12221
▁Pope	-12222
▁Trad	-12223
▁bust	-12224
▁damn	-12225
▁inex	-12226
▁rope	-12227
▁zomb	-12228
ancers	-12229
keeper	-12230
▁Craig	-12231
▁Liter	-12232
▁Track	-12233
▁Value	-12234
▁accum	-12235
▁appet	-12236
▁breed	-12237
▁invas	-12238
▁pound	-12239
▁rings	-12240
iameter	-12241
itative	-12242
▁Empire	-12243
▁Leader	-12244
▁Remove	-12245
▁discip	-12246
▁timing	-12247
▁toilet	-12248
▁Chicken	-12249
▁Thunder	-12250
▁Updated	-12251
▁Without	-12252
▁cooling	-12253
▁dressed	-12254
▁stadium	-12255
nLocation	-12256
▁Explorer	-12257
▁artistic	-12258
▁charming	-12259
▁congress	-12260
▁notified	-12261
▁traveled	-12262
▁enjoyable	-12263
▁nominated	-12264
▁paintings	-12265
▁passenger	-12266
▁processed	-12267
▁radiation	-12268
▁applicants	-12269
▁navigation	-12270
▁presenting	-12271
▁regulatory	-12272
▁efficiently	-12273
▁headquarters	-12274
▁overwhelming	-12275
▁possibilities	-12276
BR	-12277
CR	-12278
Fi	-12279
SM	-12280
NET	-12281
enh	-12282
pic	-12283
emon	-12284
erek	-12285
oots	-12286
phis	-12287
unny	-12288
▁Bus	-12289
▁Eve	-12290
▁Joh	-12291
▁SEC	-12292
▁tum	-12293
Point	-12294
ching	-12295
ideos	-12296
istor	-12297
▁Cape	-12298
▁Coup	-12299
▁Gray	-12300
▁Reed	-12301
▁cupc	-12302
▁epic	-12303
▁quil	-12304
▁scan	-12305
▁stom	-12306
ferent	-12307
ourmet	-12308
▁Eagle	-12309
▁Issue	-12310
▁Notes	-12311
▁abund	-12312
▁aging	-12313
▁buyer	-12314
▁knock	-12315
▁straw	-12316
ighting	-12317
install	-12318
lington	-12319
reement	-12320
▁Jeremy	-12321
▁Points	-12322
▁Racing	-12323
▁Temple	-12324
▁astron	-12325
▁deadly	-12326
▁duties	-12327
▁nomine	-12328
▁routes	-12329
▁themes	-12330
ographer	-12331
▁Cameron	-12332
▁advisor	-12333
▁doubles	-12334
▁pending	-12335
▁ranking	-12336
ilitation	-12337
▁Medicaid	-12338
▁Particip	-12339
▁aluminum	-12340
▁archives	-12341
▁portable	-12342
▁preserve	-12343
▁reminded	-12344
ternational	-12345
▁Parliament	-12346
▁capability	-12347
▁nationally	-12348
▁suspension	-12349
▁operational	-12350
▁transferred	-12351
▁developments	-12352
hr	-12353
Art	-12354
Pal	-12355
▁78	-12356
boys	-12357
fess	-12358
idth	-12359
nare	-12360
show	-12361
▁Wol	-12362
▁fel	-12363
▁fut	-12364
▁hyp	-12365
ammed	-12366
nOnly	-12367
nfrom	-12368
ripts	-12369
umper	-12370
▁Bear	-12371
▁Coal	-12372
▁Cris	-12373
▁MORE	-12374
▁Resp	-12375
▁bite	-12376
▁boil	-12377
▁brid	-12378
▁drew	-12379
closed	-12380
iances	-12381
▁Cards	-12382
▁Compl	-12383
▁Guest	-12384
▁Legal	-12385
▁Panel	-12386
▁asset	-12387
▁cited	-12388
▁memor	-12389
▁reads	-12390
▁shade	-12391
▁tasty	-12392
▁width	-12393
ocument	-12394
▁Greece	-12395
▁abroad	-12396
▁alumni	-12397
▁bother	-12398
▁fruits	-12399
▁merely	-12400
▁plates	-12401
▁superb	-12402
▁tissue	-12403
▁venues	-12404
ications	-12405
▁Current	-12406
▁citizen	-12407
▁colours	-12408
▁editors	-12409
▁opposed	-12410
▁tablets	-12411
▁teaches	-12412
▁workout	-12413
▁Birthday	-12414
▁adorable	-12415
▁deserves	-12416
▁finishes	-12417
▁promises	-12418
▁tropical	-12419
▁amendment	-12420
▁happiness	-12421
▁violation	-12422
▁newspapers	-12423
▁regulation	-12424
▁vulnerable	-12425
%.	-12426
AG	-12427
2.\	-12428
Rec	-12429
lon	-12430
vet	-12431
wed	-12432
▁"(	-12433
▁5\	-12434
▁Aw	-12435
▁Kr	-12436
bass	-12437
engu	-12438
ivan	-12439
mind	-12440
nSen	-12441
orce	-12442
▁Fla	-12443
▁Kal	-12444
▁Tag	-12445
▁Tob	-12446
cepts	-12447
oline	-12448
oning	-12449
pring	-12450
▁Cold	-12451
▁Deep	-12452
▁Hear	-12453
▁Nich	-12454
▁Rico	-12455
▁Xbox	-12456
▁bits	-12457
▁flee	-12458
▁glow	-12459
▁lips	-12460
▁lone	-12461
▁nerv	-12462
▁wore	-12463
called	-12464
gomery	-12465
orneys	-12466
▁Emily	-12467
▁Grace	-12468
▁Third	-12469
▁blast	-12470
▁param	-12471
▁steam	-12472
▁vocal	-12473
illance	-12474
▁Anyone	-12475
▁Canyon	-12476
▁Portug	-12477
▁Rogers	-12478
▁backup	-12479
▁banana	-12480
▁banner	-12481
▁caring	-12482
▁clinic	-12483
▁closet	-12484
▁habits	-12485
▁shield	-12486
▁thrown	-12487
▁verify	-12488
nJanuary	-12489
▁Century	-12490
▁Volunte	-12491
▁anytime	-12492
▁dresses	-12493
▁fitting	-12494
▁glasses	-12495
▁pumpkin	-12496
▁Manufact	-12497
▁basement	-12498
▁cultures	-12499
▁homeless	-12500
▁Milwaukee	-12501
▁amenities	-12502
▁concluded	-12503
▁liability	-12504
▁measuring	-12505
▁executives	-12506
▁mainstream	-12507
▁Switzerland	-12508
▁conjunction	-12509
▁confirmation	-12510
Ph	-12511
UI	-12512
hh	-12513
lu	-12514
-1,	-12515
/13	-12516
azy	-12517
nHi	-12518
unc	-12519
▁59	-12520
▁EP	-12521
▁GA	-12522
anas	-12523
offs	-12524
omed	-12525
ques	-12526
▁Cou	-12527
▁Deg	-12528
▁Lib	-12529
▁Spa	-12530
▁Ult	-12531
▁bin	-12532
▁ele	-12533
▁jet	-12534
after	-12535
ieces	-12536
▁Fine	-12537
▁Half	-12538
▁Lank	-12539
▁Reid	-12540
▁Tree	-12541
▁cust	-12542
▁gray	-12543
▁odds	-12544
▁thro	-12545
arrass	-12546
boards	-12547
nWatch	-12548
ynolds	-12549
▁Could	-12550
▁Lower	-12551
▁Spect	-12552
▁Voice	-12553
▁boots	-12554
▁shine	-12555
▁sized	-12556
nPeople	-12557
▁Always	-12558
▁Butter	-12559
▁Thread	-12560
▁Weekly	-12561
▁subtle	-12562
Bulletin	-12563
▁Monitor	-12564
▁courage	-12565
▁enabled	-12566
▁envelop	-12567
▁examine	-12568
▁rentals	-12569
▁scratch	-12570
▁suppose	-12571
▁trusted	-12572
aceutical	-12573
nDownload	-12574
ustration	-12575
▁Arkansas	-12576
▁Cemetery	-12577
▁heritage	-12578
▁protocol	-12579
▁sporting	-12580
▁weekends	-12581
▁Chocolate	-12582
▁chemistry	-12583
▁classical	-12584
▁converted	-12585
▁departure	-12586
▁educators	-12587
▁provision	-12588
▁requiring	-12589
▁satellite	-12590
▁sophomore	-12591
▁agreements	-12592
▁attempting	-12593
▁practition	-12594
▁subsidiary	-12595
▁cholesterol	-12596
▁Technologies	-12597
▁appreciation	-12598
TR	-12599
cE	-12600
ASS	-12601
Bay	-12602
dem	-12603
pur	-12604
uda	-12605
▁66	-12606
▁72	-12607
▁AV	-12608
▁Ky	-12609
▁mg	-12610
Some	-12611
agic	-12612
angs	-12613
bage	-12614
chet	-12615
ikip	-12616
issa	-12617
link	-12618
udge	-12619
▁11:	-12620
▁EDT	-12621
▁EPA	-12622
▁Jen	-12623
▁Lif	-12624
▁Ton	-12625
▁bub	-12626
▁les	-12627
▁vel	-12628
About	-12629
Quest	-12630
adesh	-12631
chell	-12632
email	-12633
liest	-12634
ollar	-12635
pound	-12636
▁Brun	-12637
▁Hair	-12638
▁Jean	-12639
▁Pain	-12640
▁Pete	-12641
▁cant	-12642
▁horm	-12643
▁shed	-12644
▁silk	-12645
abling	-12646
elfare	-12647
nShare	-12648
▁Leave	-12649
▁baked	-12650
▁dirty	-12651
▁fails	-12652
▁sorts	-12653
ingerie	-12654
looking	-12655
thernet	-12656
▁Artist	-12657
▁crafts	-12658
▁gluten	-12659
▁layers	-12660
▁marine	-12661
▁offend	-12662
▁resign	-12663
▁sensor	-12664
▁voices	-12665
ikipedia	-12666
nThrough	-12667
▁Collins	-12668
▁Several	-12669
▁handles	-12670
▁revised	-12671
▁tragedy	-12672
▁transit	-12673
▁McDonald	-12674
▁bedrooms	-12675
▁charging	-12676
▁churches	-12677
nSubscribe	-12678
ographical	-12679
▁Equipment	-12680
▁computing	-12681
▁container	-12682
▁demanding	-12683
▁libraries	-12684
appropriate	-12685
▁Enterprise	-12686
▁Healthcare	-12687
▁Initiative	-12688
▁dedication	-12689
▁warranties	-12690
▁destruction	-12691
▁contributing	-12692
▁destinations	-12693
?!	-12694
Dr	-12695
EY	-12696
ARD	-12697
OME	-12698
Sec	-12699
gon	-12700
may	-12701
mun	-12702
nEl	-12703
rod	-12704
▁DS	-12705
.)"}	-12706
azed	-12707
disc	-12708
good	-12709
inez	-12710
isle	-12711
leen	-12712
they	-12713
zone	-12714
▁Bie	-12715
▁Pul	-12716
▁ber	-12717
PDATE	-12718
agger	-12719
arcia	-12720
comed	-12721
icity	-12722
▁Doug	-12723
▁Safe	-12724
▁Thus	-12725
Search	-12726
nMarch	-12727
▁10:00	-12728
▁2,000	-12729
▁Below	-12730
▁Brist	-12731
▁Cliff	-12732
▁Honor	-12733
▁Large	-12734
▁arena	-12735
▁gloss	-12736
▁imper	-12737
▁lined	-12738
▁meter	-12739
▁showc	-12740
▁wides	-12741
borough	-12742
▁Having	-12743
▁Rachel	-12744
▁Saints	-12745
▁Sweden	-12746
▁Warner	-12747
▁bronze	-12748
▁excuse	-12749
▁incent	-12750
▁phrase	-12751
▁pickup	-12752
▁plugin	-12753
▁undert	-12754
izations	-12755
▁Funeral	-12756
▁cleared	-12757
▁receipt	-12758
▁Includes	-12759
▁Shopping	-12760
▁Workshop	-12761
▁drawings	-12762
▁showcase	-12763
▁surfaces	-12764
rimination	-12765
▁Cardinals	-12766
▁Vancouver	-12767
▁appearing	-12768
▁convicted	-12769
▁engineers	-12770
▁dealership	-12771
▁productive	-12772
▁lightweight	-12773
▁prestigious	-12774
▁manufactured	-12775
▁transformation	-12776
-\	-12777
1-	-12778
LD	-12779
ao	-12780
fc	-12781
AME	-12782
REL	-12783
Top	-12784
dor	-12785
php	-12786
▁7-	-12787
▁AG	-12788
▁FC	-12789
▁RV	-12790
▁UT	-12791
▁sq	-12792
Mart	-12793
affe	-12794
nCal	-12795
onut	-12796
rons	-12797
than	-12798
thur	-12799
vacy	-12800
▁(12	-12801
▁10:	-12802
▁110	-12803
▁Aub	-12804
▁por	-12805
bably	-12806
gener	-12807
itate	-12808
opper	-12809
paper	-12810
stown	-12811
▁9:00	-12812
▁Bass	-12813
▁Clay	-12814
▁Dale	-12815
▁Mand	-12816
▁Pere	-12817
▁Stir	-12818
▁Stop	-12819
▁Sund	-12820
▁Ward	-12821
▁boom	-12822
▁grey	-12823
▁outr	-12824
▁slot	-12825
INGTON	-12826
ailing	-12827
cology	-12828
criber	-12829
health	-12830
ulator	-12831
▁Citiz	-12832
▁Graph	-12833
▁Hours	-12834
▁Plant	-12835
▁angry	-12836
▁backs	-12837
▁fancy	-12838
▁fence	-12839
▁genre	-12840
▁grows	-12841
▁sidew	-12842
ascular	-12843
essment	-12844
ificial	-12845
▁Gibson	-12846
▁define	-12847
▁hungry	-12848
▁nobody	-12849
▁Kitchen	-12850
▁Success	-12851
▁blessed	-12852
▁gardens	-12853
▁pulling	-12854
nRemember	-12855
▁Progress	-12856
▁prescrib	-12857
▁receives	-12858
▁scenario	-12859
▁terminal	-12860
▁tutorial	-12861
▁Revolution	-12862
▁prohibited	-12863
▁allegations	-12864
▁preliminary	-12865
▁Commissioner	-12866
▁recreational	-12867
▁sustainability	-12868
Sk	-12869
cO	-12870
ANS	-12871
IES	-12872
arb	-12873
deg	-12874
ela	-12875
▁AA	-12876
▁CV	-12877
▁MC	-12878
▁WA	-12879
▁WE	-12880
9.99	-12881
Post	-12882
bird	-12883
cest	-12884
illo	-12885
inos	-12886
iper	-12887
isms	-12888
mits	-12889
poon	-12890
robe	-12891
▁API	-12892
▁Aqu	-12893
▁Got	-12894
▁MIT	-12895
▁Mey	-12896
▁Sel	-12897
▁Wes	-12898
▁avo	-12899
While	-12900
green	-12901
jamin	-12902
nCong	-12903
▁Hamm	-12904
▁Much	-12905
▁amid	-12906
▁drum	-12907
▁glob	-12908
▁mole	-12909
▁parl	-12910
▁rede	-12911
celona	-12912
ercury	-12913
holder	-12914
idding	-12915
ruptcy	-12916
shirts	-12917
vinced	-12918
▁Baker	-12919
▁Blood	-12920
▁Honda	-12921
▁eager	-12922
▁exped	-12923
▁joins	-12924
▁moral	-12925
▁relie	-12926
▁resem	-12927
▁rocks	-12928
attered	-12929
aturing	-12930
century	-12931
▁Berlin	-12932
▁Johnny	-12933
▁comply	-12934
▁delete	-12935
▁exotic	-12936
▁forgot	-12937
▁frames	-12938
▁kicked	-12939
▁potato	-12940
▁settle	-12941
▁strive	-12942
fficking	-12943
▁Culture	-12944
▁Nursing	-12945
▁camping	-12946
▁caramel	-12947
▁profits	-12948
▁runners	-12949
▁touched	-12950
▁compiled	-12951
▁contacts	-12952
▁moisture	-12953
▁renowned	-12954
▁Barcelona	-12955
▁hilarious	-12956
▁inflation	-12957
▁recycling	-12958
▁referring	-12959
▁Commercial	-12960
▁Montgomery	-12961
▁Operations	-12962
▁adjustable	-12963
▁compromise	-12964
▁conversion	-12965
▁dimensions	-12966
▁impression	-12967
▁installing	-12968
▁nomination	-12969
▁subscriber	-12970
▁conferences	-12971
▁imagination	-12972
▁immigration	-12973
▁orientation	-12974
▁specialized	-12975
cb	-12976
gi	-12977
Reg	-12978
fto	-12979
▁57	-12980
▁9.	-12981
▁Gh	-12982
▁NA	-12983
▁Ni	-12984
▁SS	-12985
Home	-12986
igen	-12987
inge	-12988
nAct	-12989
open	-12990
such	-12991
▁193	-12992
▁Cox	-12993
▁FDA	-12994
▁Mes	-12995
▁Rat	-12996
▁Sri	-12997
▁Veh	-12998
allel	-12999
amboo	-13000
nBest	-13001
nDoes	-13002
ogurt	-13003
party	-13004
rying	-13005
▁Dawn	-13006
▁Feel	-13007
▁lawn	-13008
▁moon	-13009
▁pile	-13010
▁ties	-13011
Monday	-13012
around	-13013
ernand	-13014
formed	-13015
opedia	-13016
▁Autom	-13017
▁Billy	-13018
▁Evans	-13019
▁Urban	-13020
▁Users	-13021
▁loads	-13022
▁oblig	-13023
▁theft	-13024
▁thumb	-13025
leading	-13026
natural	-13027
▁Brooks	-13028
▁Newton	-13029
▁Scouts	-13030
▁Simple	-13031
▁Yellow	-13032
▁corpor	-13033
▁gallon	-13034
▁horror	-13035
▁makers	-13036
▁rookie	-13037
▁shaped	-13038
▁Machine	-13039
▁Wallace	-13040
▁coupons	-13041
▁endless	-13042
▁inquiry	-13043
▁mothers	-13044
▁nervous	-13045
▁passage	-13046
▁removal	-13047
▁spotted	-13048
▁Airlines	-13049
▁Campaign	-13050
▁Database	-13051
▁peaceful	-13052
▁profound	-13053
▁Meanwhile	-13054
▁Therefore	-13055
▁achieving	-13056
▁animation	-13057
▁editorial	-13058
▁launching	-13059
▁realistic	-13060
▁adventures	-13061
▁attachment	-13062
▁commenting	-13063
▁separately	-13064
▁transmission	-13065
▁undergraduate	-13066
▁representation	-13067
6)	-13068
IX	-13069
dr	-13070
/16	-13071
SQL	-13072
lie	-13073
nWH	-13074
uum	-13075
▁DM	-13076
▁Da	-13077
▁GB	-13078
▁Ju	-13079
▁PD	-13080
▁ic	-13081
ctic	-13082
oven	-13083
rend	-13084
your	-13085
▁185	-13086
▁24-	-13087
▁Cav	-13088
▁Fle	-13089
▁Guy	-13090
▁Loc	-13091
▁Pra	-13092
▁toe	-13093
Today	-13094
being	-13095
emade	-13096
pread	-13097
▁6:30	-13098
▁Fans	-13099
▁Feed	-13100
▁Kath	-13101
▁Ring	-13102
▁fate	-13103
▁foul	-13104
▁grip	-13105
▁oral	-13106
▁teas	-13107
▁tong	-13108
heriff	-13109
levard	-13110
orship	-13111
osures	-13112
second	-13113
▁2003,	-13114
▁Dolph	-13115
▁Paint	-13116
▁ankle	-13117
▁argue	-13118
▁cyber	-13119
▁delet	-13120
▁feeds	-13121
▁flags	-13122
▁fleet	-13123
▁manip	-13124
▁wings	-13125
ournals	-13126
▁Branch	-13127
▁Murphy	-13128
▁Native	-13129
▁retain	-13130
▁ribbon	-13131
▁sewing	-13132
▁sooner	-13133
heastern	-13134
▁CONTENT	-13135
▁batting	-13136
▁lighter	-13137
▁massage	-13138
▁reveals	-13139
▁reverse	-13140
▁surveys	-13141
▁Wireless	-13142
▁adjacent	-13143
▁delicate	-13144
▁dressing	-13145
▁leverage	-13146
▁supervis	-13147
▁withdraw	-13148
▁Northwest	-13149
▁criticism	-13150
▁designing	-13151
▁motivated	-13152
▁physicians	-13153
▁ridiculous	-13154
▁cooperation	-13155
▁instruments	-13156
▁investigate	-13157
▁Additionally	-13158
▁Conservation	-13159
▁acknowledged	-13160
▁consultation	-13161
48	-13162
Hi	-13163
Ne	-13164
RP	-13165
:35	-13166
▁8-	-13167
▁BC	-13168
▁HE	-13169
▁ME	-13170
▁RS	-13171
▁ye	-13172
Mark	-13173
size	-13174
▁ONE	-13175
▁gem	-13176
etics	-13177
large	-13178
nered	-13179
▁Bike	-13180
▁Horn	-13181
▁Host	-13182
▁Scar	-13183
▁alph	-13184
▁chef	-13185
▁dear	-13186
▁folk	-13187
alties	-13188
arsity	-13189
▁Owner	-13190
▁Sleep	-13191
▁blues	-13192
▁harsh	-13193
▁incom	-13194
▁kinda	-13195
▁ninth	-13196
▁outer	-13197
▁query	-13198
▁skirt	-13199
embered	-13200
ometown	-13201
▁Turner	-13202
▁ballot	-13203
▁booked	-13204
▁burden	-13205
▁foster	-13206
▁hazard	-13207
▁mining	-13208
▁refuge	-13209
▁Bradley	-13210
▁Douglas	-13211
▁Present	-13212
▁discipl	-13213
▁emotion	-13214
▁gaining	-13215
▁genetic	-13216
▁imaging	-13217
▁lightly	-13218
▁painful	-13219
▁remarks	-13220
▁replied	-13221
▁animated	-13222
▁confront	-13223
▁confused	-13224
▁employed	-13225
▁engineer	-13226
▁judgment	-13227
▁portrait	-13228
▁promoted	-13229
▁relaxing	-13230
▁Breakfast	-13231
▁Emergency	-13232
▁Universal	-13233
▁confusion	-13234
▁graduates	-13235
▁occasions	-13236
▁replacing	-13237
▁sacrifice	-13238
▁workforce	-13239
▁Conditions	-13240
▁Statistics	-13241
▁beneficial	-13242
▁compelling	-13243
▁discussing	-13244
▁durability	-13245
▁Competition	-13246
▁celebrities	-13247
▁substantial	-13248
▁competitions	-13249
▁implementing	-13250
▁intervention	-13251
▁Championships	-13252
()	-13253
WA	-13254
pa	-13255
▁`	-13256
50\	-13257
BER	-13258
OTE	-13259
bie	-13260
occ	-13261
▁$8	-13262
▁3:	-13263
▁4:	-13264
▁EV	-13265
▁SB	-13266
Will	-13267
erse	-13268
help	-13269
ixon	-13270
osex	-13271
▁2-1	-13272
▁Alz	-13273
▁Suz	-13274
▁Vac	-13275
▁cel	-13276
▁cha	-13277
▁que	-13278
▁unt	-13279
acles	-13280
garet	-13281
ierra	-13282
plant	-13283
retty	-13284
▁Gran	-13285
▁Kirk	-13286
▁neat	-13287
▁twin	-13288
▁vamp	-13289
aments	-13290
gorith	-13291
nOffic	-13292
riguez	-13293
▁2005,	-13294
▁Dutch	-13295
▁Jamie	-13296
▁Roger	-13297
▁bases	-13298
▁burst	-13299
▁crust	-13300
▁heels	-13301
▁rides	-13302
▁sells	-13303
▁Career	-13304
▁Planet	-13305
▁Vision	-13306
▁accred	-13307
▁basics	-13308
▁ethnic	-13309
▁prosec	-13310
▁turkey	-13311
ifferent	-13312
▁Comcast	-13313
▁Commons	-13314
▁Looking	-13315
▁amongst	-13316
▁blogger	-13317
▁empower	-13318
▁feeding	-13319
▁fulfill	-13320
▁lasting	-13321
▁laundry	-13322
▁matched	-13323
▁retreat	-13324
▁scandal	-13325
▁settled	-13326
available	-13327
nStudents	-13328
▁Articles	-13329
▁Democrat	-13330
▁Nebraska	-13331
▁momentum	-13332
▁monetary	-13333
▁Economics	-13334
▁Industrial	-13335
▁affiliated	-13336
▁automotive	-13337
▁composition	-13338
▁agricultural	-13339
▁experiencing	-13340
CU	-13341
DR	-13342
:42	-13343
RAM	-13344
dig	-13345
lad	-13346
lar	-13347
olk	-13348
roe	-13349
urf	-13350
▁97	-13351
▁BR	-13352
▁da	-13353
comb	-13354
eded	-13355
girl	-13356
park	-13357
ugly	-13358
▁$19	-13359
▁AAA	-13360
▁GPS	-13361
▁Kel	-13362
▁Lar	-13363
▁SMS	-13364
▁jun	-13365
World	-13366
imens	-13367
isons	-13368
oshop	-13369
rowth	-13370
▁Carm	-13371
▁Curt	-13372
▁Dame	-13373
▁Neil	-13374
▁Prep	-13375
▁Task	-13376
▁Wash	-13377
▁dece	-13378
▁rape	-13379
▁stur	-13380
▁todd	-13381
roller	-13382
▁Chand	-13383
▁Dress	-13384
▁Focus	-13385
▁Ident	-13386
▁Katie	-13387
▁pools	-13388
▁steal	-13389
▁tract	-13390
▁tutor	-13391
ificent	-13392
nSource	-13393
parents	-13394
▁Bruins	-13395
▁Target	-13396
▁Unlike	-13397
▁assemb	-13398
▁duplic	-13399
▁modify	-13400
▁patent	-13401
▁spoken	-13402
▁steady	-13403
icrosoft	-13404
▁Article	-13405
▁Faculty	-13406
▁Housing	-13407
▁Montana	-13408
▁affects	-13409
▁arrives	-13410
▁broader	-13411
▁closest	-13412
▁corners	-13413
▁damages	-13414
▁earning	-13415
▁infring	-13416
▁manages	-13417
▁pharmac	-13418
▁statist	-13419
▁targets	-13420
irmingham	-13421
▁Advisory	-13422
▁Analysis	-13423
▁Athletic	-13424
▁Chrysler	-13425
▁Original	-13426
▁Veterans	-13427
▁horrible	-13428
▁petition	-13429
▁recycled	-13430
▁welcomed	-13431
▁Alzheimer	-13432
▁Southeast	-13433
▁centuries	-13434
▁comprised	-13435
▁convinced	-13436
▁disappear	-13437
▁embarrass	-13438
▁formation	-13439
▁narrative	-13440
▁suspected	-13441
▁laboratory	-13442
▁refreshing	-13443
▁anticipated	-13444
▁announcements	-13445
▁unfortunately	-13446
%)	-13447
5)	-13448
69	-13449
SH	-13450
bc	-13451
203	-13452
20\	-13453
ACT	-13454
END	-13455
FOR	-13456
nat	-13457
nit	-13458
ois	-13459
pal	-13460
pin	-13461
▁98	-13462
▁GP	-13463
High	-13464
\\\\	-13465
alid	-13466
also	-13467
ammy	-13468
cBut	-13469
erms	-13470
nRed	-13471
orks	-13472
tees	-13473
wick	-13474
▁12:	-13475
▁130	-13476
▁Abb	-13477
▁Fit	-13478
▁LCD	-13479
▁Pic	-13480
▁Say	-13481
▁Sud	-13482
▁bot	-13483
▁pub	-13484
March	-13485
acted	-13486
color	-13487
nNeed	-13488
odium	-13489
opard	-13490
rolet	-13491
▁8:00	-13492
▁Cubs	-13493
▁Drew	-13494
▁Mets	-13495
▁Pine	-13496
▁True	-13497
▁Viol	-13498
▁Zone	-13499
▁bump	-13500
▁mamm	-13501
▁mush	-13502
▁yeah	-13503
castle	-13504
esters	-13505
merica	-13506
ridges	-13507
usalem	-13508
▁Bulls	-13509
▁Laura	-13510
▁Patch	-13511
▁Raven	-13512
▁Tower	-13513
▁anger	-13514
▁arbit	-13515
▁parad	-13516
▁spare	-13517
▁suits	-13518
▁tears	-13519
forming	-13520
nReturn	-13521
nSelect	-13522
powered	-13523
▁Palace	-13524
▁Retail	-13525
▁chairs	-13526
▁mirror	-13527
▁opener	-13528
▁rumors	-13529
▁slices	-13530
▁suited	-13531
▁throws	-13532
▁Conserv	-13533
▁Francis	-13534
▁Orlando	-13535
▁Weekend	-13536
▁expense	-13537
▁pitched	-13538
▁sponsor	-13539
▁talents	-13540
▁Modified	-13541
▁Princess	-13542
▁dropping	-13543
▁rotation	-13544
▁template	-13545
▁wardrobe	-13546
▁Certified	-13547
▁Directory	-13548
▁Hopefully	-13549
▁accompany	-13550
▁decorated	-13551
▁memorable	-13552
▁principle	-13553
▁Christians	-13554
▁Louisville	-13555
▁consulting	-13556
▁selections	-13557
▁continually	-13558
Gr	-13559
ho	-13560
km	-13561
GBT	-13562
ORK	-13563
aro	-13564
isd	-13565
nOb	-13566
▁:)	-13567
▁Ak	-13568
▁Ki	-13569
▁MT	-13570
▁SA	-13571
▁Ze	-13572
inel	-13573
mile	-13574
nMin	-13575
wire	-13576
▁(18	-13577
▁BBQ	-13578
▁Hub	-13579
▁awa	-13580
▁bom	-13581
▁duo	-13582
▁gad	-13583
▁shy	-13584
acter	-13585
aniel	-13586
asury	-13587
chant	-13588
senal	-13589
ucker	-13590
▁Cell	-13591
▁Dust	-13592
▁Furn	-13593
▁Gill	-13594
▁Happ	-13595
▁Mort	-13596
▁Move	-13597
▁Skin	-13598
▁arom	-13599
▁bake	-13600
▁dash	-13601
▁inev	-13602
▁keen	-13603
▁knit	-13604
▁masc	-13605
▁sink	-13606
▁zoom	-13607
ellers	-13608
handed	-13609
imming	-13610
istory	-13611
member	-13612
nDavid	-13613
oulder	-13614
owship	-13615
source	-13616
upport	-13617
▁Based	-13618
▁Kings	-13619
▁Storm	-13620
▁Subsc	-13621
▁encry	-13622
▁femin	-13623
▁lying	-13624
▁puppy	-13625
▁shake	-13626
▁spoon	-13627
▁unpre	-13628
▁wrist	-13629
ilation	-13630
▁Budget	-13631
▁Fisher	-13632
▁Opport	-13633
▁Ticket	-13634
▁alerts	-13635
▁allerg	-13636
▁crying	-13637
▁guided	-13638
▁hiding	-13639
▁iconic	-13640
▁lifted	-13641
▁lining	-13642
▁notify	-13643
▁rushed	-13644
▁sliced	-13645
▁sticks	-13646
▁whilst	-13647
▁Holland	-13648
▁Knights	-13649
▁cartoon	-13650
▁circles	-13651
▁podcast	-13652
▁reaches	-13653
▁reduces	-13654
▁shorter	-13655
▁skilled	-13656
▁stepped	-13657
▁tornado	-13658
▁quarters	-13659
▁searches	-13660
▁sometime	-13661
▁Indonesia	-13662
▁Published	-13663
▁alternate	-13664
▁healthier	-13665
▁municipal	-13666
▁permitted	-13667
▁Federation	-13668
▁Publishing	-13669
▁connecting	-13670
▁promotions	-13671
▁tablespoon	-13672
▁devastating	-13673
▁threatening	-13674
▁Constitution	-13675
▁entrepreneurs	-13676
▁constitutional	-13677
OH	-13678
][	-13679
di	-13680
:05	-13681
AST	-13682
ORE	-13683
alg	-13684
cod	-13685
eda	-13686
ski	-13687
John	-13688
fits	-13689
iden	-13690
ishe	-13691
lend	-13692
lims	-13693
nTra	-13694
rien	-13695
walk	-13696
▁$4.	-13697
▁1-2	-13698
▁700	-13699
▁900	-13700
▁CAN	-13701
▁Esc	-13702
▁Him	-13703
▁Rut	-13704
▁hem	-13705
▁jar	-13706
▁lun	-13707
▁nit	-13708
addle	-13709
chair	-13710
encer	-13711
erick	-13712
nForm	-13713
nStay	-13714
ounty	-13715
▁$200	-13716
▁Belt	-13717
▁Bent	-13718
▁Chem	-13719
▁Hait	-13720
▁Luke	-13721
▁REAL	-13722
▁Stra	-13723
▁Troy	-13724
▁aest	-13725
▁cure	-13726
degree	-13727
olding	-13728
tender	-13729
▁Berry	-13730
▁Jacob	-13731
▁Karen	-13732
▁Steph	-13733
▁antib	-13734
▁hoped	-13735
▁lefto	-13736
▁macro	-13737
▁march	-13738
▁peers	-13739
▁ports	-13740
▁revol	-13741
▁tuned	-13742
claimer	-13743
mediate	-13744
olesale	-13745
▁Bright	-13746
▁Garcia	-13747
▁argued	-13748
▁purple	-13749
▁Centers	-13750
▁Memphis	-13751
▁drought	-13752
▁rushing	-13753
▁shelves	-13754
▁twitter	-13755
▁Delaware	-13756
▁Discover	-13757
▁Motorola	-13758
▁Property	-13759
▁Reynolds	-13760
▁bacteria	-13761
▁decrease	-13762
▁insights	-13763
▁lineback	-13764
▁navigate	-13765
▁province	-13766
▁revenues	-13767
▁sexually	-13768
▁weakness	-13769
Originally	-13770
nFollowing	-13771
▁Armstrong	-13772
▁Boulevard	-13773
▁Corporate	-13774
▁Currently	-13775
▁Jefferson	-13776
▁attracted	-13777
▁customize	-13778
▁desperate	-13779
▁medicines	-13780
▁seemingly	-13781
▁accounting	-13782
▁advantages	-13783
▁attraction	-13784
▁contractor	-13785
▁controller	-13786
▁elementary	-13787
▁remembered	-13788
▁subsequent	-13789
▁agriculture	-13790
▁productivity	-13791
▁grandchildren	-13792
▁neighborhoods	-13793
61	-13794
::	-13795
SB	-13796
UG	-13797
],	-13798
:59	-13799
cMy	-13800
▁Ka	-13801
Page	-13802
agne	-13803
arre	-13804
arts	-13805
ools	-13806
pher	-13807
ylan	-13808
▁Eye	-13809
▁Hem	-13810
▁IBM	-13811
▁Rou	-13812
▁arc	-13813
▁cig	-13814
▁cum	-13815
▁rif	-13816
April	-13817
aways	-13818
iches	-13819
nSend	-13820
neath	-13821
raine	-13822
vable	-13823
▁1920	-13824
▁7:00	-13825
▁AIDS	-13826
▁Blvd	-13827
▁Cass	-13828
▁Myst	-13829
▁Soul	-13830
▁bark	-13831
▁caps	-13832
▁pron	-13833
▁soda	-13834
Health	-13835
ackers	-13836
bourne	-13837
indows	-13838
nNorth	-13839
nUsing	-13840
writer	-13841
▁Exhib	-13842
▁Keith	-13843
▁Medal	-13844
▁Parks	-13845
▁Randy	-13846
▁kicks	-13847
▁moder	-13848
▁newer	-13849
▁packs	-13850
▁shore	-13851
▁silly	-13852
▁squee	-13853
nthetic	-13854
▁Bieber	-13855
▁Chapel	-13856
▁Harvey	-13857
▁Lauren	-13858
▁Survey	-13859
▁advise	-13860
▁apples	-13861
▁asthma	-13862
▁ethics	-13863
▁floral	-13864
▁fought	-13865
▁ginger	-13866
▁heated	-13867
▁infant	-13868
▁subsid	-13869
▁testim	-13870
▁tweets	-13871
▁Falcons	-13872
▁Firefox	-13873
▁Heights	-13874
▁Outlook	-13875
▁airline	-13876
▁consent	-13877
▁console	-13878
▁educate	-13879
▁emerged	-13880
▁failing	-13881
▁generic	-13882
▁lawyers	-13883
▁longest	-13884
▁mounted	-13885
▁neutral	-13886
▁outlets	-13887
▁refresh	-13888
unglasses	-13889
▁Together	-13890
▁Township	-13891
▁disorder	-13892
▁enrolled	-13893
▁explores	-13894
▁gameplay	-13895
▁missions	-13896
▁countless	-13897
▁defending	-13898
▁rewarding	-13899
nOriginally	-13900
▁facilitate	-13901
▁invitation	-13902
▁repeatedly	-13903
▁variations	-13904
▁intelligent	-13905
▁journalists	-13906
▁intersection	-13907
▁surveillance	-13908
▁effectiveness	-13909
91	-13910
IE	-13911
QU	-13912
-35	-13913
IRE	-13914
OUT	-13915
dam	-13916
nBu	-13917
nCo	-13918
nNe	-13919
umm	-13920
▁NJ	-13921
Sign	-13922
edar	-13923
elli	-13924
ixed	-13925
pled	-13926
rors	-13927
ulus	-13928
user	-13929
▁15-	-13930
▁Boo	-13931
▁Dad	-13932
▁FBI	-13933
▁Fri	-13934
▁Had	-13935
▁Hyd	-13936
▁Lip	-13937
▁NFC	-13938
▁SQL	-13939
▁tel	-13940
group	-13941
nBook	-13942
▁Conn	-13943
▁Dest	-13944
▁Expo	-13945
▁Grey	-13946
▁Sens	-13947
▁Spec	-13948
▁Walt	-13949
▁foam	-13950
▁heal	-13951
▁nest	-13952
▁pipe	-13953
▁span	-13954
Source	-13955
▁Worth	-13956
▁fears	-13957
▁glory	-13958
▁icons	-13959
▁retro	-13960
▁steep	-13961
▁whisk	-13962
ignment	-13963
million	-13964
▁Advert	-13965
▁Foster	-13966
▁Herald	-13967
▁Letter	-13968
▁Nether	-13969
▁almond	-13970
▁divers	-13971
▁retrie	-13972
▁revers	-13973
▁tastes	-13974
▁thirty	-13975
▁viewer	-13976
--------	-13977
breaking	-13978
▁crafted	-13979
▁deliber	-13980
▁planted	-13981
▁repairs	-13982
▁signals	-13983
▁tourist	-13984
▁warming	-13985
ASHINGTON	-13986
▁Campbell	-13987
▁catching	-13988
▁emotions	-13989
▁pleasant	-13990
▁rankings	-13991
▁Agreement	-13992
▁Interview	-13993
▁Jerusalem	-13994
▁commented	-13995
▁discusses	-13996
▁generator	-13997
▁milestone	-13998
▁warehouse	-13999
▁Television	-14000
▁decorative	-14001
▁friendship	-14002
▁mechanical	-14003
nInformation	-14004
▁Agriculture	-14005
▁attractions	-14006
▁prosecutors	-14007
▁specialists	-14008
▁translation	-14009
▁dramatically	-14010
▁independence	-14011
▁surprisingly	-14012
▁internationally	-14013
FO	-14014
sk	-14015
▁!	-14016
016	-14017
260	-14018
900	-14019
Out	-14020
azi	-14021
ked	-14022
▁58	-14023
▁74	-14024
▁Ta	-14025
▁ov	-14026
amas	-14027
andy	-14028
arma	-14029
auer	-14030
hell	-14031
nOut	-14032
uffy	-14033
▁2-3	-14034
▁DIY	-14035
▁Fel	-14036
▁Fro	-14037
▁OFF	-14038
▁Obs	-14039
▁Ple	-14040
▁Tun	-14041
▁Wag	-14042
▁wax	-14043
State	-14044
istle	-14045
izers	-14046
nthis	-14047
owski	-14048
visor	-14049
▁9:30	-14050
▁Apps	-14051
▁Face	-14052
▁Guid	-14053
▁Lang	-14054
▁Rank	-14055
▁Terr	-14056
▁Wake	-14057
▁damp	-14058
▁flaw	-14059
▁kits	-14060
▁lane	-14061
▁wool	-14062
,000.\	-14063
berger	-14064
izable	-14065
necess	-14066
orient	-14067
oustic	-14068
ranked	-14069
vision	-14070
▁Begin	-14071
▁Range	-14072
▁Swiss	-14073
▁Upper	-14074
▁Venez	-14075
▁chill	-14076
▁coinc	-14077
▁draws	-14078
▁mayor	-14079
▁sunny	-14080
▁woods	-14081
RELATED	-14082
▁Dennis	-14083
▁Motion	-14084
▁Offers	-14085
▁Poland	-14086
▁Rather	-14087
▁Videos	-14088
▁aggreg	-14089
▁collar	-14090
▁filing	-14091
▁harass	-14092
▁header	-14093
▁hooked	-14094
▁noting	-14095
▁strand	-14096
▁trains	-14097
ventions	-14098
▁Against	-14099
▁Vermont	-14100
▁Writing	-14101
▁bicycle	-14102
▁dessert	-14103
▁eastern	-14104
▁notable	-14105
▁pitches	-14106
▁proport	-14107
▁sectors	-14108
▁secured	-14109
▁Martinez	-14110
▁Phillips	-14111
▁apparent	-14112
▁flooding	-14113
▁honestly	-14114
▁stirring	-14115
▁variable	-14116
▁Cambridge	-14117
▁Chevrolet	-14118
▁accepting	-14119
▁execution	-14120
▁investing	-14121
▁promising	-14122
▁qualities	-14123
▁renewable	-14124
▁universal	-14125
▁unlimited	-14126
▁acceptance	-14127
▁explaining	-14128
▁occasional	-14129
▁parliament	-14130
▁recommends	-14131
▁widespread	-14132
▁Philippines	-14133
▁fundraising	-14134
▁limitations	-14135
▁measurement	-14136
▁achievements	-14137
▁corporations	-14138
▁notification	-14139
▁organisations	-14140
.6	-14141
cp	-14142
fu	-14143
vi	-14144
ATH	-14145
Dep	-14146
OWN	-14147
aky	-14148
edo	-14149
mid	-14150
rac	-14151
tha	-14152
whe	-14153
▁67	-14154
Life	-14155
acey	-14156
aria	-14157
base	-14158
nInt	-14159
onia	-14160
pert	-14161
pool	-14162
urbs	-14163
▁18-	-14164
▁ACT	-14165
▁Bak	-14166
▁Buc	-14167
▁Due	-14168
▁RAM	-14169
▁Rol	-14170
▁vig	-14171
House	-14172
eston	-14173
izont	-14174
ocity	-14175
roved	-14176
shine	-14177
▁Bean	-14178
▁Chad	-14179
▁Dist	-14180
▁Luck	-14181
▁None	-14182
▁Pros	-14183
▁Sect	-14184
▁Surv	-14185
▁Wade	-14186
▁fare	-14187
▁glue	-14188
▁pier	-14189
▁tang	-14190
People	-14191
herent	-14192
ighbor	-14193
locked	-14194
nThree	-14195
▁Agent	-14196
▁Basic	-14197
▁Crime	-14198
▁Draft	-14199
▁Grade	-14200
▁Items	-14201
▁Tiger	-14202
▁congr	-14203
▁essay	-14204
▁inbox	-14205
▁rolls	-14206
claimed	-14207
portant	-14208
▁2010.\	-14209
▁Alumni	-14210
▁Coffee	-14211
▁Expert	-14212
▁Shield	-14213
▁beaten	-14214
▁copper	-14215
▁mixing	-14216
▁pencil	-14217
▁poison	-14218
▁tomato	-14219
▁Bristol	-14220
▁Gardens	-14221
▁Muslims	-14222
▁acceler	-14223
▁battles	-14224
▁reforms	-14225
intendent	-14226
itutional	-14227
▁Brothers	-14228
▁Malaysia	-14229
▁Robinson	-14230
▁algorith	-14231
▁arriving	-14232
▁concerts	-14233
▁consolid	-14234
▁diameter	-14235
▁enabling	-14236
▁intimate	-14237
▁outreach	-14238
▁overlook	-14239
▁seasonal	-14240
▁vertical	-14241
nCurrently	-14242
▁democracy	-14243
▁incorrect	-14244
▁varieties	-14245
ratulations	-14246
▁encourages	-14247
▁inspection	-14248
▁instructor	-14249
▁reflection	-14250
▁suggestion	-14251
▁grandmother	-14252
▁magnificent	-14253
▁progressive	-14254
▁spokeswoman	-14255
▁subscribers	-14256
▁underground	-14257
fi	-14258
hu	-14259
-30	-14260
:26	-14261
:27	-14262
:53	-14263
Are	-14264
IDE	-14265
rik	-14266
say	-14267
▁53	-14268
▁PH	-14269
▁km	-14270
▁ox	-14271
inue	-14272
nNEW	-14273
nTHE	-14274
umph	-14275
▁180	-14276
▁Mun	-14277
▁Nig	-14278
▁Som	-14279
▁Tai	-14280
▁ate	-14281
▁fax	-14282
▁nan	-14283
▁pel	-14284
First	-14285
Thank	-14286
afood	-14287
borne	-14288
cWhen	-14289
ebook	-14290
erals	-14291
glass	-14292
named	-14293
oodle	-14294
oping	-14295
otics	-14296
riors	-14297
▁Cruz	-14298
▁Dell	-14299
▁Diet	-14300
▁Gonz	-14301
▁Joel	-14302
▁Mead	-14303
▁brew	-14304
▁chic	-14305
▁glam	-14306
▁mint	-14307
▁muff	-14308
▁pars	-14309
▁pert	-14310
▁sake	-14311
alling	-14312
arency	-14313
gments	-14314
nAmong	-14315
nEmail	-14316
▁Bever	-14317
▁Logan	-14318
▁Minor	-14319
▁Route	-14320
▁Wings	-14321
▁Woman	-14322
▁accel	-14323
▁brass	-14324
▁decre	-14325
▁dying	-14326
▁grams	-14327
▁minim	-14328
▁probe	-14329
▁remod	-14330
▁shout	-14331
▁slice	-14332
itivity	-14333
nSunday	-14334
▁2012"}	-14335
▁Altern	-14336
▁Nissan	-14337
▁Walter	-14338
▁boasts	-14339
▁ignore	-14340
▁ounces	-14341
▁pillow	-14342
▁poorly	-14343
▁tempor	-14344
▁Edwards	-14345
▁Swedish	-14346
▁Welcome	-14347
▁dispute	-14348
▁holders	-14349
▁leisure	-14350
▁posters	-14351
▁pursuit	-14352
▁regards	-14353
▁sheriff	-14354
▁strikes	-14355
nComments	-14356
nFebruary	-14357
nNational	-14358
nNovember	-14359
▁Benjamin	-14360
▁Historic	-14361
▁Practice	-14362
▁Reporter	-14363
▁backyard	-14364
▁bloggers	-14365
▁complain	-14366
▁explicit	-14367
▁handmade	-14368
▁midnight	-14369
▁wondered	-14370
▁dominated	-14371
▁downloads	-14372
▁travelers	-14373
▁immigrants	-14374
▁preventing	-14375
▁provisions	-14376
▁underneath	-14377
▁Interactive	-14378
▁acknowledge	-14379
▁reliability	-14380
▁restoration	-14381
▁organisation	-14382
▁refrigerator	-14383
71	-14384
FP	-14385
FW	-14386
cN	-14387
LAN	-14388
Men	-14389
Red	-14390
htm	-14391
ika	-14392
||2	-14393
▁PO	-14394
City	-14395
anim	-14396
auge	-14397
nApr	-14398
nHot	-14399
tage	-14400
▁Ful	-14401
▁Lay	-14402
▁MTV	-14403
▁NPR	-14404
▁Pil	-14405
▁Raj	-14406
▁SER	-14407
▁bay	-14408
▁cod	-14409
▁nap	-14410
ducts	-14411
swire	-14412
▁6:00	-14413
▁Cher	-14414
▁Hour	-14415
▁Item	-14416
▁Leaf	-14417
▁Mans	-14418
▁Path	-14419
▁Used	-14420
▁dumb	-14421
▁fled	-14422
▁gard	-14423
▁heel	-14424
▁lace	-14425
2026"}	-14426
Christ	-14427
Sports	-14428
ancell	-14429
nEnjoy	-14430
nState	-14431
ovable	-14432
terson	-14433
vement	-14434
▁Chron	-14435
▁Lanka	-14436
▁Tommy	-14437
▁Wells	-14438
▁elite	-14439
▁incon	-14440
▁naked	-14441
▁queen	-14442
▁wheat	-14443
▁wound	-14444
arranty	-14445
entials	-14446
iscover	-14447
nCreate	-14448
nHaving	-14449
▁Casino	-14450
▁Dayton	-14451
▁Degree	-14452
▁Stream	-14453
▁Window	-14454
▁google	-14455
▁intake	-14456
▁parish	-14457
▁poetry	-14458
▁ranges	-14459
▁volunt	-14460
cedented	-14461
commerce	-14462
fortable	-14463
nEarlier	-14464
nOctober	-14465
▁Bernard	-14466
▁Players	-14467
▁Popular	-14468
▁Virtual	-14469
▁anxiety	-14470
▁betting	-14471
▁clarity	-14472
▁decides	-14473
▁deposit	-14474
▁enemies	-14475
▁nearest	-14476
▁reminds	-14477
▁sleeves	-14478
▁stomach	-14479
▁tension	-14480
▁trainer	-14481
▁visitor	-14482
▁Ethernet	-14483
▁Location	-14484
▁Question	-14485
▁globally	-14486
▁inviting	-14487
▁protests	-14488
▁situated	-14489
▁villages	-14490
▁economics	-14491
▁scientist	-14492
▁struggled	-14493
▁boundaries	-14494
▁priorities	-14495
▁responding	-14496
▁submission	-14497
▁touchdowns	-14498
▁contractors	-14499
▁differently	-14500
▁influential	-14501
▁commissioner	-14502
▁firefighters	-14503
▁accommodations	-14504
:29	-14505
OCK	-14506
ONE	-14507
cci	-14508
eor	-14509
fin	-14510
jan	-14511
uto	-14512
||$	-14513
▁BT	-14514
▁Ru	-14515
Over	-14516
Part	-14517
opes	-14518
oret	-14519
poin	-14520
ucus	-14521
▁Bor	-14522
▁Coc	-14523
▁Egg	-14524
▁Ian	-14525
▁Kid	-14526
▁MLS	-14527
▁Maj	-14528
▁bik	-14529
▁tin	-14530
▁vin	-14531
,000.	-14532
adows	-14533
ilver	-14534
kward	-14535
nHelp	-14536
quare	-14537
urers	-14538
▁8:30	-14539
▁Answ	-14540
▁Chat	-14541
▁LGBT	-14542
▁Nice	-14543
▁Pric	-14544
▁Shaw	-14545
▁accl	-14546
▁bisc	-14547
▁digs	-14548
▁fles	-14549
▁gown	-14550
▁hint	-14551
▁oils	-14552
▁tens	-14553
▁tent	-14554
ancies	-14555
aneous	-14556
eneath	-14557
income	-14558
nTrans	-14559
othing	-14560
▁2009.	-14561
▁Kerry	-14562
▁Monte	-14563
▁Multi	-14564
▁Notre	-14565
▁Parts	-14566
▁Pizza	-14567
▁Shane	-14568
▁airpl	-14569
▁lover	-14570
▁sleek	-14571
▁trash	-14572
instein	-14573
nAuthor	-14574
▁Arthur	-14575
▁Flickr	-14576
▁Others	-14577
▁Termin	-14578
▁deemed	-14579
▁deputy	-14580
▁export	-14581
▁heroes	-14582
▁propri	-14583
▁raises	-14584
▁robust	-14585
▁rocket	-14586
▁silent	-14587
▁topped	-14588
▁unlock	-14589
▁Teacher	-14590
▁doubled	-14591
▁earthqu	-14592
▁embrace	-14593
▁fucking	-14594
▁prayers	-14595
▁pretend	-14596
▁secrets	-14597
▁startup	-14598
▁trigger	-14599
▁Graduate	-14600
▁Pictures	-14601
▁accessed	-14602
▁costumes	-14603
▁homemade	-14604
▁innocent	-14605
▁interpre	-14606
▁pitching	-14607
▁pursuing	-14608
▁shipment	-14609
▁treasure	-14610
▁unveiled	-14611
▁Directors	-14612
▁Guarantee	-14613
▁Newcastle	-14614
▁attendees	-14615
▁automated	-14616
▁creatures	-14617
▁gradually	-14618
▁intensive	-14619
▁nutrients	-14620
▁respected	-14621
▁reviewing	-14622
▁specially	-14623
▁struggles	-14624
▁sustained	-14625
▁programmes	-14626
▁submitting	-14627
▁identifying	-14628
▁prospective	-14629
▁transparent	-14630
▁experimental	-14631
▁individually	-14632
▁scholarships	-14633
nUnfortunately	-14634
▁complimentary	-14635
▁illustrations	-14636
▁pharmaceutical	-14637
***	-14638
,''	-14639
-3,	-14640
:20	-14641
???	-14642
COM	-14643
IME	-14644
agg	-14645
aru	-14646
eta	-14647
mia	-14648
pdf	-14649
▁88	-14650
▁PT	-14651
apor	-14652
arer	-14653
bone	-14654
icts	-14655
inis	-14656
nLog	-14657
nSan	-14658
orie	-14659
ttps	-14660
▁Tab	-14661
▁USD	-14662
▁Vik	-14663
▁dub	-14664
▁mud	-14665
erman	-14666
ested	-14667
ijing	-14668
leton	-14669
nFull	-14670
nPhot	-14671
nRich	-14672
ostic	-14673
racts	-14674
▁Clar	-14675
▁Coll	-14676
▁EVER	-14677
▁Hell	-14678
▁Jazz	-14679
▁Maps	-14680
▁Mosc	-14681
▁Palm	-14682
▁Spot	-14683
▁cher	-14684
▁deny	-14685
▁dive	-14686
▁lime	-14687
▁mart	-14688
▁pays	-14689
▁tabs	-14690
▁toug	-14691
etween	-14692
linary	-14693
ometer	-14694
rupted	-14695
ustral	-14696
▁Amend	-14697
▁Craft	-14698
▁Foods	-14699
▁Linda	-14700
▁Mario	-14701
▁Miles	-14702
▁Occup	-14703
▁Pengu	-14704
▁Seven	-14705
▁awful	-14706
▁chili	-14707
▁drunk	-14708
▁genes	-14709
▁grill	-14710
▁liver	-14711
▁metab	-14712
▁modes	-14713
▁sheer	-14714
initely	-14715
ullivan	-14716
▁Bailey	-14717
▁Deputy	-14718
▁Former	-14719
▁Madrid	-14720
▁Rapids	-14721
▁banned	-14722
▁candle	-14723
▁condem	-14724
▁diesel	-14725
▁fisher	-14726
▁refuse	-14727
▁relate	-14728
▁robber	-14729
▁shades	-14730
▁valued	-14731
▁warmth	-14732
atabases	-14733
iropract	-14734
nRelated	-14735
nSeveral	-14736
▁Besides	-14737
▁Crystal	-14738
▁Griffin	-14739
▁Marlins	-14740
▁Storage	-14741
▁avoided	-14742
▁beliefs	-14743
▁caution	-14744
▁evangel	-14745
▁forcing	-14746
▁grabbed	-14747
▁inspect	-14748
▁modules	-14749
▁shocked	-14750
▁strings	-14751
▁vessels	-14752
▁welfare	-14753
▁Mitchell	-14754
▁annoying	-14755
▁attacked	-14756
▁cocktail	-14757
▁ensemble	-14758
▁literary	-14759
▁meantime	-14760
▁mounting	-14761
▁searched	-14762
▁suspects	-14763
▁Bloomberg	-14764
▁Subscribe	-14765
▁addiction	-14766
▁affiliate	-14767
▁apologize	-14768
▁Electronic	-14769
▁Historical	-14770
▁acceptable	-14771
▁preference	-14772
▁recordings	-14773
▁approaching	-14774
▁constructed	-14775
▁copyrighted	-14776
▁enthusiasts	-14777
▁specializes	-14778
▁uncertainty	-14779
▁considerable	-14780
▁partnerships	-14781
.8	-14782
9)	-14783
zo	-14784
:43	-14785
:47	-14786
OND	-14787
Two	-14788
bag	-14789
cam	-14790
eff	-14791
erd	-14792
pop	-14793
two	-14794
uns	-14795
▁EM	-14796
▁Sr	-14797
▁UM	-14798
Band	-14799
alia	-14800
ethe	-14801
iour	-14802
nBuy	-14803
rimp	-14804
riot	-14805
▁Haz	-14806
▁Kle	-14807
▁Ott	-14808
▁REG	-14809
▁Rab	-14810
▁hed	-14811
▁spy	-14812
-2012	-14813
esity	-14814
hesis	-14815
jects	-14816
reath	-14817
there	-14818
▁Carn	-14819
▁Gard	-14820
▁Glen	-14821
▁Mull	-14822
▁cogn	-14823
▁cush	-14824
▁lend	-14825
▁peer	-14826
▁quad	-14827
▁shar	-14828
▁tray	-14829
ainted	-14830
nUsers	-14831
nWould	-14832
oodles	-14833
outube	-14834
shaped	-14835
ussels	-14836
▁2007.	-14837
▁Analy	-14838
▁Lodge	-14839
▁Nikon	-14840
▁bonds	-14841
▁bored	-14842
▁clips	-14843
▁polar	-14844
▁scary	-14845
country	-14846
writing	-14847
▁Choice	-14848
▁Sierra	-14849
▁Soccer	-14850
▁Sprint	-14851
▁cooler	-14852
▁cracks	-14853
▁creamy	-14854
▁finale	-14855
▁fitted	-14856
▁gloves	-14857
▁holder	-14858
▁jurisd	-14859
▁scared	-14860
▁traded	-14861
▁worthy	-14862
November	-14863
ritional	-14864
▁100,000	-14865
▁Cowboys	-14866
▁Fitness	-14867
▁Getting	-14868
▁Quarter	-14869
▁Someone	-14870
▁Therapy	-14871
▁acquire	-14872
▁approve	-14873
▁closure	-14874
▁Benefits	-14875
▁Margaret	-14876
▁Purchase	-14877
▁Response	-14878
▁abstract	-14879
▁chapters	-14880
▁formerly	-14881
▁founding	-14882
▁invested	-14883
▁longtime	-14884
▁sandwich	-14885
nQuestions	-14886
▁consensus	-14887
▁exercises	-14888
▁releasing	-14889
▁Birmingham	-14890
▁Investment	-14891
▁cartridges	-14892
▁complexity	-14893
▁ingredient	-14894
▁multimedia	-14895
▁Description	-14896
▁Photography	-14897
▁distinctive	-14898
▁transformed	-14899
▁Construction	-14900
▁Organization	-14901
▁conversations	-14902
▁Representatives	-14903
%\	-14904
52	-14905
AK	-14906
Gl	-14907
NG	-14908
OO	-14909
.'\	-14910
3.\	-14911
8.\	-14912
ACE	-14913
Who	-14914
dec	-14915
sis	-14916
uki	-14917
utt	-14918
▁DR	-14919
▁MY	-14920
0000	-14921
ANCE	-14922
MENT	-14923
abul	-14924
ante	-14925
emic	-14926
feed	-14927
nDet	-14928
qual	-14929
▁2-0	-14930
▁4.5	-14931
▁Gig	-14932
▁Len	-14933
▁Pos	-14934
▁Syn	-14935
▁Tar	-14936
▁VIP	-14937
▁Vit	-14938
▁biz	-14939
anton	-14940
avier	-14941
cThat	-14942
dered	-14943
elect	-14944
grand	-14945
impse	-14946
isode	-14947
never	-14948
prweb	-14949
start	-14950
▁Exam	-14951
▁Nike	-14952
▁Qual	-14953
▁Rebe	-14954
▁kidn	-14955
▁lean	-14956
▁nail	-14957
▁sore	-14958
▁trio	-14959
▁urge	-14960
forget	-14961
irable	-14962
ladesh	-14963
nLocal	-14964
nMaybe	-14965
nTotal	-14966
payers	-14967
search	-14968
▁2002,	-14969
▁Costa	-14970
▁Floor	-14971
▁Guild	-14972
▁Joint	-14973
▁Pages	-14974
▁Strip	-14975
▁Ultra	-14976
▁brake	-14977
▁locks	-14978
▁reign	-14979
▁stack	-14980
aration	-14981
forward	-14982
nBrowse	-14983
▁Bishop	-14984
▁Carlos	-14985
▁Census	-14986
▁Rivers	-14987
▁Tennis	-14988
▁bachel	-14989
▁builds	-14990
▁commod	-14991
▁fridge	-14992
▁partly	-14993
▁speeds	-14994
▁spices	-14995
▁tricks	-14996
isheries	-14997
▁Belgium	-14998
▁Jewelry	-14999
▁Opening	-15000
▁Speaker	-15001
▁acclaim	-15002
▁chamber	-15003
▁crossed	-15004
▁harmful	-15005
▁impacts	-15006
▁legally	-15007
▁partial	-15008
Wednesday	-15009
▁Calendar	-15010
▁Chargers	-15011
▁Cultural	-15012
▁Intellig	-15013
▁Richmond	-15014
▁Venezuel	-15015
▁adjusted	-15016
▁arranged	-15017
▁bookmark	-15018
▁composed	-15019
▁defender	-15020
▁disagree	-15021
▁overtime	-15022
▁pointing	-15023
▁quantity	-15024
▁restored	-15025
▁teenager	-15026
▁upgrades	-15027
nPresident	-15028
▁Broadcast	-15029
▁Following	-15030
▁Knowledge	-15031
▁Methodist	-15032
▁Rodriguez	-15033
▁accidents	-15034
▁advocates	-15035
▁dependent	-15036
▁excessive	-15037
▁incidents	-15038
▁compassion	-15039
▁conducting	-15040
▁distribute	-15041
▁journalism	-15042
▁journalist	-15043
▁obligation	-15044
▁playground	-15045
▁supportive	-15046
▁Independent	-15047
▁submissions	-15048
▁Applications	-15049
▁confidential	-15050
▁difficulties	-15051
▁unprecedented	-15052
▁administrators	-15053
./	-15054
FS	-15055
IB	-15056
PO	-15057
-24	-15058
:12	-15059
:40	-15060
ERY	-15061
Int	-15062
Tra	-15063
aco	-15064
bin	-15065
jet	-15066
nGl	-15067
nif	-15068
upt	-15069
▁76	-15070
▁77	-15071
▁Pi	-15072
▁Ti	-15073
▁Tu	-15074
▁Uk	-15075
▁WR	-15076
achi	-15077
cOur	-15078
eton	-15079
feld	-15080
hole	-15081
ibli	-15082
ingo	-15083
nDef	-15084
nDep	-15085
nSun	-15086
nVol	-15087
nity	-15088
rise	-15089
type	-15090
ulin	-15091
▁$40	-15092
▁16-	-15093
▁192	-15094
▁Arn	-15095
▁Fig	-15096
▁Hob	-15097
▁McL	-15098
▁Opp	-15099
▁Rug	-15100
▁mos	-15101
belie	-15102
bling	-15103
ernel	-15104
nList	-15105
nTime	-15106
nyour	-15107
omics	-15108
trans	-15109
width	-15110
▁1994	-15111
▁DVDs	-15112
▁Mend	-15113
▁Pier	-15114
▁Shan	-15115
▁Zach	-15116
▁gest	-15117
▁pref	-15118
atican	-15119
forced	-15120
nSouth	-15121
ourses	-15122
rolled	-15123
▁Dylan	-15124
▁Fried	-15125
▁Later	-15126
▁blade	-15127
▁boats	-15128
▁crews	-15129
▁gross	-15130
▁hints	-15131
▁logic	-15132
▁revel	-15133
▁skate	-15134
▁spell	-15135
▁stats	-15136
▁toxic	-15137
January	-15138
ampagne	-15139
itarian	-15140
legiate	-15141
nAnyway	-15142
nChrist	-15143
nLatest	-15144
pensive	-15145
▁Angels	-15146
▁Groups	-15147
▁Hockey	-15148
▁Powell	-15149
▁Really	-15150
▁affair	-15151
▁burned	-15152
▁costly	-15153
▁delays	-15154
▁immune	-15155
▁outlet	-15156
▁parked	-15157
▁sequel	-15158
▁temple	-15159
▁tongue	-15160
▁twelve	-15161
▁vendor	-15162
nSpecial	-15163
nWilliam	-15164
oriented	-15165
▁Contest	-15166
▁Respons	-15167
▁Stanley	-15168
▁Studios	-15169
▁Turkish	-15170
▁Walmart	-15171
▁adapter	-15172
▁cuisine	-15173
▁glimpse	-15174
nSpeaking	-15175
▁assisted	-15176
▁blessing	-15177
▁equality	-15178
▁manually	-15179
▁musician	-15180
▁parallel	-15181
▁polished	-15182
▁reminder	-15183
▁supplied	-15184
▁tourists	-15185
▁Coalition	-15186
▁Recommend	-15187
▁Something	-15188
▁combining	-15189
▁dismissed	-15190
▁ordinance	-15191
▁resistant	-15192
▁spotlight	-15193
▁vBulletin	-15194
▁workplace	-15195
▁discounted	-15196
▁influenced	-15197
▁legitimate	-15198
▁restricted	-15199
▁Netherlands	-15200
▁controlling	-15201
▁marketplace	-15202
▁smartphones	-15203
communications	-15204
▁concentration	-15205
▁demonstration	-15206
nj	-15207
tv	-15208
:01	-15209
:23	-15210
:51	-15211
Ass	-15212
Box	-15213
NEW	-15214
Off	-15215
ali	-15216
big	-15217
cap	-15218
lay	-15219
nGe	-15220
sor	-15221
ulu	-15222
▁96	-15223
▁Gy	-15224
▁HS	-15225
▁HT	-15226
2032	-15227
Blog	-15228
Note	-15229
Tech	-15230
acer	-15231
atha	-15232
emor	-15233
enes	-15234
essa	-15235
icer	-15236
ivia	-15237
nDec	-15238
nEng	-15239
nMod	-15240
nTom	-15241
omes	-15242
prom	-15243
rint	-15244
udio	-15245
uity	-15246
ylon	-15247
[...]
